/* Copyright 2018 The TensorFlow Authors. All Rights Reserved.
Licensed under the Apache License, Version 2.0 (the "License");
you may not use this file except in compliance with the License.
You may obtain a copy of the License at
    http://www.apache.org/licenses/LICENSE-2.0
Unless required by applicable law or agreed to in writing, software
distributed under the License is distributed on an "AS IS" BASIS,
WITHOUT WARRANTIES OR CONDITIONS OF ANY KIND, either express or implied.
See the License for the specific language governing permissions and
limitations under the License.
==============================================================================*/

// Automatically created from a TensorFlow Lite flatbuffer using the command:
// xxd -i tiny_conv.tflite > tiny_conv_simple_features_model_data.cc
// See the README for a full description of the creation process.

#include "tensorflow/lite/micro/examples/micro_speech/micro_features/tiny_conv_micro_features_model_data.h"

// We need to keep the data array aligned on some architectures.
#ifdef __has_attribute
#define HAVE_ATTRIBUTE(x) __has_attribute(x)
#else
#define HAVE_ATTRIBUTE(x) 0
#endif
#if HAVE_ATTRIBUTE(aligned) || (defined(__GNUC__) && !defined(__clang__))
#define DATA_ALIGN_ATTRIBUTE __attribute__((aligned(4)))
#else
#define DATA_ALIGN_ATTRIBUTE
#endif

const unsigned char
    g_tiny_conv_micro_features_model_data[] DATA_ALIGN_ATTRIBUTE = {
		0x1c, 0x00, 0x00, 0x00, 0x54, 0x46, 0x4c, 0x33, 0x00, 0x00, 0x00, 0x00,
  0x00, 0x00, 0x0e, 0x00, 0x18, 0x00, 0x04, 0x00, 0x08, 0x00, 0x0c, 0x00,
  0x10, 0x00, 0x14, 0x00, 0x0e, 0x00, 0x00, 0x00, 0x03, 0x00, 0x00, 0x00,
  0xcc, 0x46, 0x00, 0x00, 0x0c, 0x00, 0x00, 0x00, 0x10, 0x00, 0x00, 0x00,
  0x20, 0x00, 0x00, 0x00, 0x01, 0x00, 0x00, 0x00, 0x74, 0x00, 0x00, 0x00,
  0x0f, 0x00, 0x00, 0x00, 0x54, 0x4f, 0x43, 0x4f, 0x20, 0x43, 0x6f, 0x6e,
  0x76, 0x65, 0x72, 0x74, 0x65, 0x64, 0x2e, 0x00, 0x09, 0x00, 0x00, 0x00,
  0x54, 0x00, 0x00, 0x00, 0x48, 0x00, 0x00, 0x00, 0x3c, 0x00, 0x00, 0x00,
  0x34, 0x00, 0x00, 0x00, 0x2c, 0x00, 0x00, 0x00, 0x24, 0x00, 0x00, 0x00,
  0x18, 0x00, 0x00, 0x00, 0x10, 0x00, 0x00, 0x00, 0x04, 0x00, 0x00, 0x00,
  0x4e, 0xba, 0xff, 0xff, 0x10, 0x01, 0x00, 0x00, 0xfc, 0xb9, 0xff, 0xff,
  0x5a, 0xba, 0xff, 0xff, 0x88, 0x40, 0x00, 0x00, 0x08, 0xba, 0xff, 0xff,
  0x0c, 0xba, 0xff, 0xff, 0x10, 0xba, 0xff, 0xff, 0x6e, 0xba, 0xff, 0xff,
  0xa4, 0x44, 0x00, 0x00, 0x76, 0xba, 0xff, 0xff, 0x30, 0x45, 0x00, 0x00,
  0x24, 0xba, 0xff, 0xff, 0x00, 0xbc, 0xff, 0xff, 0x20, 0x00, 0x00, 0x00,
  0x14, 0x00, 0x00, 0x00, 0x08, 0x00, 0x00, 0x00, 0x2c, 0x45, 0x00, 0x00,
  0x01, 0x00, 0x00, 0x00, 0x05, 0x00, 0x00, 0x00, 0x01, 0x00, 0x00, 0x00,
  0x03, 0x00, 0x00, 0x00, 0x08, 0x00, 0x00, 0x00, 0x1c, 0x44, 0x00, 0x00,
  0x9c, 0x44, 0x00, 0x00, 0x34, 0x3f, 0x00, 0x00, 0xb4, 0x42, 0x00, 0x00,
  0x24, 0x43, 0x00, 0x00, 0x8c, 0x43, 0x00, 0x00, 0x94, 0x3f, 0x00, 0x00,
  0x04, 0x00, 0x00, 0x00, 0x8e, 0xbb, 0xff, 0xff, 0x00, 0x00, 0x00, 0x03,
  0x10, 0x00, 0x00, 0x00, 0x08, 0x00, 0x00, 0x00, 0x14, 0x00, 0x00, 0x00,
  0x48, 0x00, 0x00, 0x00, 0x02, 0x00, 0x00, 0x00, 0x04, 0x00, 0x00, 0x00,
  0xa0, 0x0f, 0x00, 0x00, 0x31, 0x00, 0x00, 0x00, 0x77, 0x65, 0x69, 0x67,
  0x68, 0x74, 0x73, 0x5f, 0x71, 0x75, 0x61, 0x6e, 0x74, 0x5f, 0x31, 0x2f,
  0x46, 0x61, 0x6b, 0x65, 0x51, 0x75, 0x61, 0x6e, 0x74, 0x57, 0x69, 0x74,
  0x68, 0x4d, 0x69, 0x6e, 0x4d, 0x61, 0x78, 0x56, 0x61, 0x72, 0x73, 0x2f,
  0x74, 0x72, 0x61, 0x6e, 0x73, 0x70, 0x6f, 0x73, 0x65, 0x00, 0x00, 0x00,
  0xa4, 0xbc, 0xff, 0xff, 0x30, 0x00, 0x00, 0x00, 0x24, 0x00, 0x00, 0x00,
  0x18, 0x00, 0x00, 0x00, 0x04, 0x00, 0x00, 0x00, 0x01, 0x00, 0x00, 0x00,
  0x81, 0x00, 0x00, 0x00, 0x00, 0x00, 0x00, 0x00, 0x00, 0x00, 0x00, 0x00,
  0x01, 0x00, 0x00, 0x00, 0x4f, 0x57, 0xa5, 0x39, 0x01, 0x00, 0x00, 0x00,
  0xa6, 0x58, 0x22, 0x3d, 0x01, 0x00, 0x00, 0x00, 0x9b, 0xc0, 0x25, 0xbd,
  0x80, 0x3e, 0x00, 0x00, 0x67, 0x85, 0x66, 0x77, 0x89, 0x70, 0x8a, 0xaf,
  0x74, 0x9f, 0x81, 0x8f, 0xa2, 0xba, 0x8f, 0x99, 0xba, 0x90, 0x9d, 0xaf,
  0x82, 0x4b, 0x52, 0xab, 0x74, 0x85, 0xb0, 0x6d, 0x93, 0x73, 0x60, 0x9e,
  0x99, 0x90, 0x97, 0x94, 0x5e, 0x90, 0x98, 0x9c, 0x8e, 0x76, 0x69, 0x4c,
  0x61, 0x82, 0xaa, 0x87, 0x9b, 0x84, 0x63, 0x89, 0x3e, 0x75, 0x7c, 0x96,
  0x77, 0x68, 0x83, 0xa5, 0x6c, 0x64, 0x68, 0x8a, 0x94, 0x85, 0xa5, 0xb4,
  0x76, 0x80, 0xa3, 0x72, 0x98, 0x85, 0x76, 0x85, 0x5f, 0x7a, 0x92, 0xab,
  0x9e, 0xa7, 0x58, 0x44, 0x89, 0xb5, 0x93, 0x84, 0x70, 0x8e, 0x79, 0x7d,
  0x8a, 0x60, 0x87, 0x6c, 0x7c, 0xb0, 0x67, 0x56, 0x8a, 0x9c, 0x79, 0x77,
  0x64, 0x97, 0x5a, 0xaa, 0x9c, 0x5c, 0x45, 0x55, 0x98, 0x87, 0x76, 0x84,
  0xa9, 0x75, 0x8a, 0x95, 0x78, 0x84, 0x63, 0x8c, 0x89, 0x71, 0x75, 0x92,
  0x95, 0x87, 0x68, 0x92, 0x9f, 0x70, 0x7c, 0x6c, 0x71, 0x84, 0x5b, 0x97,
  0x6f, 0xa0, 0x7a, 0x77, 0x95, 0x82, 0x7c, 0xa1, 0x9d, 0x62, 0x85, 0x99,
  0x82, 0x80, 0xae, 0x81, 0xab, 0xa2, 0x67, 0x4f, 0x74, 0x7d, 0x7d, 0x48,
  0x77, 0xab, 0xb7, 0x73, 0x65, 0x9e, 0x5a, 0x71, 0x7e, 0x64, 0x74, 0x80,
  0xb6, 0x62, 0x7b, 0x6f, 0x6d, 0xa2, 0x70, 0x57, 0x7d, 0x7c, 0x6f, 0x8a,
  0x53, 0xa1, 0x69, 0x84, 0xa0, 0x67, 0x92, 0x75, 0x62, 0x7d, 0x9d, 0x86,
  0x4b, 0x4f, 0xb9, 0x89, 0x6f, 0x84, 0x77, 0x8d, 0x80, 0x89, 0xa7, 0x87,
  0x70, 0x5e, 0x5f, 0xad, 0x64, 0x90, 0x58, 0x9a, 0x75, 0x74, 0x83, 0x60,
  0x97, 0x7e, 0xa2, 0x80, 0x91, 0x6f, 0x80, 0x5b, 0x7c, 0xba, 0x4d, 0x82,
  0x84, 0x81, 0x71, 0x5b, 0xa4, 0xaf, 0x6e, 0x8e, 0x85, 0x7d, 0x7c, 0xb5,
  0x73, 0x9c, 0x81, 0x5c, 0x75, 0x43, 0x94, 0x75, 0x6a, 0x6c, 0x79, 0x9c,
  0xa2, 0x7a, 0x6d, 0xa4, 0x62, 0x69, 0x8a, 0x8e, 0x5d, 0x88, 0x80, 0xb9,
  0x77, 0x9c, 0x60, 0x74, 0x41, 0x9d, 0x9b, 0x9f, 0x64, 0x65, 0x80, 0x6d,
  0x74, 0x84, 0x6e, 0x76, 0x42, 0x56, 0x77, 0x9a, 0x86, 0x4c, 0x76, 0xb1,
  0x57, 0xb5, 0x90, 0x8b, 0xa1, 0x7e, 0x96, 0x9b, 0x84, 0x67, 0x8c, 0x7a,
  0x72, 0x5f, 0x92, 0x6c, 0x98, 0xa1, 0x50, 0xbd, 0x44, 0x66, 0x9c, 0x6a,
  0x5f, 0x90, 0x57, 0x7a, 0x79, 0x88, 0x66, 0x8d, 0x94, 0x77, 0x76, 0x60,
  0x7f, 0x4c, 0x7a, 0x7a, 0x6a, 0x92, 0x66, 0x89, 0x5c, 0xb2, 0x7c, 0x73,
  0x89, 0x67, 0x9e, 0xa2, 0xa0, 0x5b, 0x88, 0x82, 0x7d, 0x8a, 0x72, 0xa0,
  0x70, 0xaf, 0x85, 0x7d, 0x76, 0xa3, 0x59, 0xb9, 0x77, 0x88, 0x6d, 0x8a,
  0x90, 0x8d, 0xb0, 0x58, 0xa2, 0x76, 0x71, 0xa4, 0x8e, 0x75, 0x5b, 0x61,
  0x81, 0x6a, 0x93, 0x66, 0x93, 0x91, 0x86, 0x92, 0x71, 0x66, 0x74, 0x72,
  0x70, 0x79, 0x5a, 0xa2, 0x4b, 0x6d, 0xa2, 0xab, 0x61, 0x62, 0x91, 0x8a,
  0xa5, 0x59, 0x62, 0x79, 0x67, 0x61, 0x76, 0x8b, 0x3b, 0x8a, 0x93, 0x50,
  0x7d, 0x63, 0x4a, 0x92, 0x81, 0x87, 0x75, 0xa4, 0x7f, 0xab, 0x57, 0x92,
  0xb0, 0x84, 0xaa, 0x78, 0xa4, 0x99, 0x70, 0x4a, 0x4b, 0x66, 0x84, 0x91,
  0x60, 0x71, 0x5f, 0x7e, 0x91, 0x84, 0xaf, 0x8c, 0x8c, 0x77, 0x99, 0x4d,
  0x6b, 0xa5, 0x86, 0x66, 0x98, 0x8d, 0x84, 0x9d, 0x73, 0x7e, 0x43, 0xb2,
  0x5b, 0x78, 0x70, 0x9d, 0x7f, 0x86, 0x6e, 0x94, 0x70, 0x8b, 0x98, 0x61,
  0x76, 0x76, 0xa4, 0x61, 0x75, 0x7d, 0x7b, 0x8f, 0x9e, 0x68, 0x8d, 0xbe,
  0x96, 0x93, 0x7f, 0x77, 0x8a, 0x95, 0x7d, 0x96, 0x50, 0x95, 0x85, 0x6b,
  0x97, 0x73, 0x66, 0x85, 0x92, 0xb5, 0x85, 0x7f, 0x50, 0x93, 0x83, 0x74,
  0xb1, 0x96, 0x8b, 0x9a, 0x8a, 0x92, 0x6a, 0x91, 0x7c, 0x9b, 0x71, 0x7a,
  0x82, 0x45, 0x84, 0x7e, 0xac, 0x8d, 0x76, 0x5e, 0x53, 0xab, 0x91, 0x8b,
  0x5e, 0x60, 0xb1, 0xa3, 0x80, 0x8a, 0xa8, 0x78, 0x73, 0x83, 0x72, 0xa0,
  0x4c, 0xa1, 0x82, 0x81, 0x8c, 0xb2, 0x6f, 0x81, 0x98, 0x7a, 0x77, 0xab,
  0x5e, 0x8b, 0x8b, 0x7a, 0xa3, 0x87, 0x6e, 0xa0, 0x8a, 0x91, 0xab, 0x9c,
  0x87, 0x95, 0x74, 0x89, 0xa9, 0x8a, 0xa7, 0x8c, 0x53, 0x9a, 0x79, 0x92,
  0x9b, 0x80, 0x5b, 0x7b, 0x66, 0x77, 0x98, 0x5e, 0xa3, 0x68, 0x77, 0x85,
  0x64, 0x68, 0x93, 0x71, 0x76, 0xa3, 0x69, 0xb6, 0xb0, 0x77, 0x78, 0x98,
  0x83, 0x78, 0x7f, 0xb2, 0x41, 0x82, 0x8f, 0x90, 0x8b, 0x85, 0xa1, 0x6a,
  0x73, 0x84, 0x86, 0xab, 0x89, 0x50, 0x7c, 0x6c, 0x7a, 0x8d, 0x85, 0x7e,
  0x7f, 0x84, 0x7a, 0x85, 0x4c, 0x80, 0x7f, 0x8a, 0x90, 0x83, 0x94, 0x95,
  0x79, 0x83, 0x71, 0x83, 0x5b, 0xa5, 0x82, 0x5b, 0x6d, 0x6b, 0x5e, 0x66,
  0x8d, 0x82, 0x51, 0x6b, 0x7b, 0x79, 0x70, 0x41, 0x6b, 0x8f, 0x97, 0x83,
  0x95, 0xa2, 0x69, 0x92, 0x89, 0x63, 0x83, 0x6a, 0x7a, 0x53, 0x5f, 0x6a,
  0x6d, 0x8d, 0x6a, 0x83, 0x6a, 0x9e, 0x64, 0xa9, 0x9e, 0x72, 0x89, 0x95,
  0x6e, 0x5d, 0x57, 0x62, 0x57, 0x8d, 0x69, 0x85, 0x3f, 0x79, 0x80, 0x95,
  0x75, 0x96, 0xa7, 0x67, 0x73, 0x94, 0xa6, 0xa6, 0xaf, 0x8a, 0xb2, 0x91,
  0x42, 0x75, 0x81, 0x67, 0x88, 0x69, 0x90, 0x6d, 0x55, 0x55, 0xb8, 0x6f,
  0x57, 0x77, 0x4d, 0x8f, 0x60, 0xa6, 0x9c, 0xa6, 0x8f, 0x93, 0xaf, 0x7e,
  0xa5, 0x5f, 0x79, 0x7a, 0x85, 0x6c, 0x7f, 0x81, 0x45, 0x57, 0x7b, 0x8e,
  0x8e, 0x64, 0x88, 0x68, 0x6b, 0x6c, 0x8f, 0x87, 0x85, 0x4f, 0x7b, 0x52,
  0x87, 0x61, 0x7c, 0x50, 0x71, 0x79, 0x9a, 0xa7, 0x9c, 0x5f, 0x54, 0x6e,
  0x60, 0x75, 0x7e, 0x56, 0x84, 0x99, 0xa2, 0x7d, 0xb7, 0xa2, 0x9d, 0x7e,
  0x92, 0x54, 0x53, 0x97, 0x83, 0x84, 0xa4, 0x9f, 0x6f, 0x5f, 0x5e, 0x55,
  0x47, 0x61, 0x9a, 0x89, 0x97, 0xa3, 0x81, 0x7e, 0x8b, 0x81, 0x9c, 0x74,
  0xb4, 0x92, 0x81, 0x7d, 0x9f, 0x76, 0x76, 0x55, 0x77, 0x84, 0x97, 0xa5,
  0x95, 0x6b, 0xa0, 0x58, 0x85, 0x58, 0x6d, 0x7b, 0xac, 0x99, 0x5a, 0xa1,
  0x57, 0x3f, 0x8f, 0x82, 0x97, 0x97, 0xa0, 0x87, 0x7a, 0x9e, 0x6d, 0x9c,
  0x87, 0x78, 0x82, 0xb3, 0x82, 0x95, 0x43, 0x8e, 0x99, 0x8d, 0x77, 0x49,
  0x48, 0x68, 0x77, 0x89, 0x6d, 0x89, 0x88, 0xa8, 0x8a, 0x51, 0x7b, 0x96,
  0xa0, 0x89, 0x58, 0x8c, 0x82, 0x9f, 0x8f, 0x94, 0x81, 0x87, 0x71, 0xac,
  0x77, 0x7c, 0x85, 0x51, 0x66, 0x4b, 0x8b, 0x79, 0xa5, 0x6f, 0xb9, 0x53,
  0x8f, 0x89, 0x7f, 0x99, 0xa4, 0x91, 0x9d, 0x83, 0x7c, 0x5c, 0x9f, 0x4e,
  0x8b, 0x89, 0x7b, 0xb7, 0x57, 0x9a, 0x90, 0x9a, 0x4e, 0xa7, 0x87, 0x85,
  0xb3, 0x8c, 0x5c, 0xbf, 0x94, 0x99, 0x97, 0x79, 0xa7, 0x89, 0xa7, 0x8f,
  0x42, 0x8e, 0xa3, 0x82, 0x42, 0x8e, 0x7a, 0x7b, 0x63, 0x4a, 0x96, 0x9e,
  0x61, 0x85, 0x86, 0x5e, 0x55, 0x9d, 0x93, 0x84, 0x4b, 0x87, 0x6e, 0x5f,
  0x97, 0x7c, 0x91, 0x73, 0xa8, 0x8d, 0x86, 0x75, 0x57, 0x71, 0x78, 0x62,
  0x91, 0x66, 0xb4, 0x88, 0x49, 0x95, 0x67, 0x83, 0x53, 0x8c, 0xb0, 0x57,
  0xa5, 0x9e, 0x9b, 0x96, 0x7f, 0x93, 0x81, 0x66, 0x79, 0x5a, 0x9e, 0x4f,
  0x86, 0x98, 0x89, 0x83, 0x56, 0x75, 0xb3, 0x94, 0xae, 0x7b, 0x68, 0x62,
  0x6c, 0x73, 0x5f, 0xb5, 0x7e, 0xba, 0x67, 0xba, 0x6a, 0x51, 0x58, 0x5b,
  0xaa, 0x4a, 0x73, 0x85, 0x81, 0x8a, 0x6c, 0xa6, 0xb7, 0x71, 0x6d, 0xb6,
  0x6a, 0xaa, 0x90, 0x80, 0x79, 0x64, 0x84, 0x75, 0x59, 0x66, 0x8c, 0x83,
  0x8b, 0x50, 0xb2, 0xa5, 0x70, 0x97, 0x7a, 0x5f, 0x8f, 0x9b, 0xa5, 0x9e,
  0x78, 0x7c, 0xa4, 0x7b, 0x6d, 0x6e, 0x89, 0x65, 0x60, 0x7a, 0x5d, 0x75,
  0x96, 0x67, 0x99, 0x83, 0x68, 0x86, 0x95, 0x6e, 0x92, 0x9c, 0x5a, 0xbe,
  0x64, 0x6d, 0x65, 0x56, 0x88, 0x95, 0x5a, 0x68, 0x42, 0x88, 0x99, 0x91,
  0x63, 0x93, 0x68, 0x66, 0x81, 0x45, 0x65, 0x7c, 0x6c, 0x7e, 0x8f, 0x7b,
  0x92, 0xa0, 0x80, 0x69, 0x4c, 0x9c, 0x96, 0xb6, 0x8e, 0x87, 0x77, 0x5c,
  0x5c, 0x70, 0x84, 0x6e, 0x6e, 0x6f, 0x98, 0xa2, 0x5e, 0x76, 0xa3, 0xa9,
  0x8a, 0x4e, 0x74, 0x74, 0x6a, 0x43, 0x76, 0x8a, 0x3b, 0x72, 0x65, 0x88,
  0x82, 0x64, 0x9b, 0xb1, 0x62, 0x83, 0x5a, 0x76, 0x4c, 0x6b, 0x6d, 0x8d,
  0x46, 0x5f, 0x6a, 0x73, 0xac, 0x78, 0xa9, 0x8e, 0x61, 0x87, 0x7f, 0x6e,
  0x6b, 0x68, 0x9c, 0x6c, 0x5f, 0x87, 0x92, 0x97, 0x53, 0x83, 0x7d, 0x97,
  0x71, 0x7b, 0x7f, 0x68, 0xa7, 0x69, 0x8a, 0x68, 0x72, 0xb2, 0x89, 0x58,
  0x9c, 0x6c, 0x55, 0x67, 0x6e, 0x75, 0x63, 0xaa, 0xa4, 0x6f, 0x5d, 0x7d,
  0x7f, 0x90, 0x5a, 0x7d, 0x99, 0xa1, 0x4c, 0x4f, 0x83, 0xb0, 0x86, 0x9e,
  0xb2, 0x7e, 0x90, 0x8a, 0x5c, 0x93, 0xba, 0x74, 0x5f, 0xa2, 0xa8, 0x95,
  0x6f, 0xae, 0x59, 0x58, 0x95, 0x4d, 0x7a, 0x8e, 0x9d, 0x7a, 0x96, 0x5f,
  0x8f, 0x61, 0x77, 0x92, 0x6a, 0x9f, 0x83, 0x5b, 0x68, 0x9b, 0x8e, 0x9b,
  0x9b, 0x7b, 0x66, 0x5e, 0x4e, 0x94, 0x91, 0x98, 0x5d, 0x8f, 0x74, 0xbc,
  0x70, 0x8b, 0x67, 0xa5, 0x4a, 0x45, 0x90, 0x40, 0x99, 0x82, 0x8c, 0x6e,
  0xb2, 0x40, 0x5c, 0x7e, 0x7a, 0x64, 0x8a, 0x4f, 0x50, 0x84, 0xae, 0x8f,
  0x70, 0x87, 0x63, 0x78, 0x66, 0x90, 0xa7, 0x8b, 0x80, 0x63, 0xb6, 0x94,
  0x68, 0x5f, 0xab, 0x58, 0x9c, 0x8e, 0x94, 0x8b, 0x92, 0x4e, 0x62, 0x84,
  0x99, 0x56, 0x98, 0x74, 0x7e, 0x6d, 0x81, 0x93, 0x56, 0x6f, 0x74, 0x9d,
  0x95, 0xa9, 0x51, 0x7d, 0x4c, 0x77, 0x82, 0x50, 0x61, 0x6c, 0x68, 0x6a,
  0x6f, 0xae, 0x57, 0x8f, 0x7e, 0x6f, 0x64, 0x78, 0x84, 0xaf, 0x56, 0x77,
  0x82, 0x59, 0x94, 0xac, 0x5f, 0x8b, 0x8e, 0x82, 0x56, 0xa6, 0x55, 0x80,
  0x44, 0x42, 0x8a, 0xa9, 0x78, 0x6b, 0x79, 0x9e, 0x7f, 0x70, 0x8e, 0x81,
  0x5b, 0x86, 0x84, 0x59, 0xad, 0x69, 0x84, 0x62, 0xa3, 0x85, 0x8e, 0x5f,
  0x6f, 0x7f, 0xbd, 0x85, 0x4b, 0xb4, 0x80, 0xa2, 0x8b, 0x8c, 0x6f, 0xb4,
  0x6b, 0x71, 0x83, 0x76, 0xb4, 0x4d, 0x89, 0x67, 0x87, 0x47, 0x85, 0x9a,
  0x55, 0x7e, 0x85, 0xb1, 0x6a, 0x79, 0x89, 0xb5, 0x49, 0x8f, 0x62, 0x8e,
  0x8e, 0x82, 0xae, 0x84, 0x80, 0x90, 0x75, 0x94, 0x8b, 0x65, 0x71, 0x79,
  0x8c, 0x53, 0xa9, 0x58, 0x87, 0x3e, 0x6d, 0x91, 0x6f, 0x7c, 0x70, 0x9c,
  0x5d, 0x59, 0x80, 0x8c, 0xac, 0xb6, 0x8a, 0x9a, 0x8b, 0x74, 0x76, 0x83,
  0x79, 0xa5, 0x8c, 0x82, 0x67, 0x6b, 0x7e, 0x6c, 0x7f, 0xb6, 0x73, 0x65,
  0x5a, 0x4b, 0x6d, 0x75, 0x88, 0x98, 0x8a, 0x76, 0x92, 0x79, 0x8c, 0x48,
  0x52, 0x78, 0x6b, 0x8f, 0x78, 0x66, 0x7c, 0x42, 0x88, 0x5d, 0x92, 0x98,
  0x5f, 0x4d, 0x62, 0x46, 0x8c, 0x8e, 0x8f, 0x80, 0x3f, 0xb1, 0xa7, 0x48,
  0x63, 0x7a, 0x5b, 0x9b, 0x85, 0x74, 0x6b, 0x9b, 0x7b, 0xac, 0x91, 0xa7,
  0x45, 0xa5, 0x6f, 0x77, 0xae, 0x6e, 0x83, 0x98, 0x56, 0x9d, 0x99, 0x65,
  0x6f, 0x9f, 0x7e, 0x8d, 0x7b, 0x99, 0x71, 0x6c, 0x80, 0x87, 0x76, 0x82,
  0x76, 0x78, 0xa4, 0x5c, 0x4d, 0x69, 0x96, 0x5b, 0x80, 0x53, 0x90, 0xb3,
  0x83, 0x73, 0xa0, 0x96, 0x61, 0x6f, 0x7c, 0x6e, 0x70, 0x66, 0x49, 0x80,
  0x55, 0x76, 0x7e, 0x69, 0x86, 0x80, 0x8b, 0x6e, 0x76, 0x75, 0x53, 0x47,
  0x7c, 0x73, 0x8b, 0xa2, 0x5e, 0x8d, 0x6a, 0x6f, 0x86, 0x94, 0x52, 0x70,
  0x6a, 0x6e, 0x66, 0x96, 0x95, 0x97, 0x51, 0x51, 0x7c, 0xa0, 0x8c, 0x99,
  0x53, 0xae, 0x8a, 0xa2, 0x8b, 0xa2, 0x68, 0x74, 0x92, 0x76, 0x70, 0x89,
  0x54, 0xa8, 0x7b, 0x41, 0x67, 0x86, 0x88, 0x8c, 0x8b, 0x7d, 0x99, 0xa4,
  0x6a, 0x90, 0x7e, 0x47, 0x7d, 0x95, 0x99, 0x6b, 0xb5, 0x92, 0x84, 0x83,
  0x86, 0x7d, 0x74, 0x62, 0xa4, 0x76, 0x6a, 0x45, 0x8c, 0x3e, 0x86, 0x7e,
  0x6c, 0x81, 0x76, 0x64, 0x5f, 0x84, 0xbd, 0x6f, 0x6d, 0x6a, 0x9e, 0x7d,
  0xb3, 0x6a, 0x83, 0xb6, 0x5b, 0xa7, 0x76, 0x6a, 0x71, 0x75, 0xa5, 0x8a,
  0xaa, 0x94, 0x9e, 0x71, 0x95, 0x6b, 0x9f, 0x73, 0x79, 0x93, 0xad, 0x6e,
  0x6f, 0x70, 0x77, 0x7e, 0x82, 0x91, 0x6a, 0x8c, 0x8c, 0x5b, 0x4e, 0xa8,
  0x60, 0x58, 0x54, 0x83, 0x63, 0x7a, 0x7b, 0x7d, 0x6d, 0x4c, 0x83, 0x9f,
  0x80, 0x49, 0x86, 0xbc, 0x8a, 0x7f, 0xa6, 0x7c, 0x53, 0x91, 0x6b, 0x8d,
  0x69, 0x7a, 0x8d, 0x81, 0x82, 0x4b, 0x93, 0x6d, 0xa2, 0x93, 0x76, 0x72,
  0x82, 0xb2, 0x48, 0x93, 0x7c, 0x6a, 0x59, 0xa8, 0x8c, 0x82, 0x7d, 0x8b,
  0xb7, 0x81, 0x7d, 0x7a, 0x95, 0x76, 0x86, 0x65, 0x7b, 0x7e, 0x70, 0x9a,
  0x3e, 0x52, 0x8a, 0x6e, 0x7b, 0x64, 0x8c, 0x91, 0x76, 0x89, 0x4f, 0xa5,
  0x75, 0x85, 0x9b, 0x78, 0x72, 0x6b, 0x7b, 0xb5, 0x6f, 0xa6, 0x65, 0x7b,
  0x5c, 0x8f, 0x79, 0x5a, 0x7d, 0x5f, 0x89, 0x94, 0x90, 0x95, 0x91, 0x5f,
  0xab, 0x90, 0x7b, 0xbd, 0x8c, 0xa3, 0x5f, 0x5f, 0x8a, 0x5d, 0x77, 0x97,
  0x4f, 0x4c, 0x55, 0x69, 0x69, 0x96, 0x60, 0x91, 0x72, 0x87, 0x93, 0x75,
  0x53, 0x8c, 0xa8, 0x73, 0x7e, 0x50, 0x74, 0x7f, 0x75, 0x91, 0x98, 0x94,
  0xa7, 0x5d, 0x6a, 0xb2, 0xa3, 0x9e, 0xb1, 0x6d, 0x72, 0x63, 0x71, 0x70,
  0x71, 0x60, 0x7f, 0x7b, 0xa9, 0x6f, 0x9a, 0x96, 0x6c, 0x9d, 0x84, 0x6c,
  0x98, 0x50, 0xa0, 0x43, 0xa5, 0xad, 0xa6, 0x8f, 0x7d, 0x4d, 0x71, 0x5b,
  0x8c, 0x8b, 0xad, 0x9a, 0x7f, 0x69, 0x77, 0x61, 0x4b, 0x94, 0x6d, 0x6c,
  0x9b, 0x73, 0xb5, 0x6d, 0x97, 0x54, 0x6e, 0x7f, 0x53, 0xac, 0x6f, 0x98,
  0x67, 0x7c, 0x69, 0x99, 0x8d, 0x98, 0x61, 0x54, 0x84, 0x8b, 0x63, 0x7d,
  0x7d, 0xa7, 0x52, 0x65, 0xb4, 0x6f, 0x80, 0x61, 0xa7, 0x69, 0xa4, 0x66,
  0x68, 0x97, 0x6c, 0xa2, 0x84, 0x88, 0x8c, 0xa6, 0x47, 0x75, 0x81, 0x5e,
  0x96, 0x97, 0x6d, 0x97, 0x7f, 0x76, 0x7e, 0x78, 0x70, 0x65, 0x92, 0x66,
  0x83, 0x65, 0xaa, 0xa9, 0x68, 0x56, 0xac, 0x85, 0x91, 0x5e, 0x7b, 0x90,
  0xa5, 0x61, 0x7b, 0x89, 0x72, 0xa4, 0x6d, 0x4b, 0x97, 0x74, 0x8d, 0xa2,
  0x6c, 0x7a, 0x77, 0x5d, 0x46, 0x7a, 0x60, 0x4e, 0x7c, 0x60, 0xb1, 0x69,
  0x48, 0x73, 0x89, 0x59, 0x69, 0xa1, 0x90, 0x9a, 0x84, 0x68, 0x72, 0x4d,
  0x97, 0x78, 0x69, 0x82, 0x77, 0x6f, 0x9a, 0x98, 0x71, 0x62, 0xb1, 0x7e,
  0xb0, 0x4c, 0x80, 0x4e, 0x67, 0x99, 0x7e, 0xb3, 0x8c, 0x69, 0x75, 0xaa,
  0x9c, 0x81, 0x97, 0x83, 0x4e, 0x8f, 0x88, 0xb6, 0x68, 0x96, 0x84, 0x7e,
  0x68, 0xb4, 0x93, 0x9a, 0x73, 0x6d, 0x7e, 0x6e, 0x73, 0x64, 0x8a, 0x9b,
  0x75, 0x73, 0x71, 0xa5, 0x71, 0x79, 0x8a, 0xa5, 0x80, 0x79, 0x69, 0xa3,
  0x65, 0x97, 0x94, 0x69, 0xb0, 0x68, 0x74, 0x8e, 0x65, 0x86, 0x96, 0x7a,
  0x74, 0xa3, 0xa9, 0xb6, 0x80, 0x57, 0x77, 0x69, 0x4d, 0xc0, 0x80, 0x64,
  0x63, 0x7f, 0x78, 0x57, 0x47, 0x4c, 0x5b, 0x89, 0x9c, 0x4f, 0x72, 0x5a,
  0x7b, 0xae, 0x8a, 0x8b, 0x50, 0x71, 0x6d, 0x95, 0x63, 0x91, 0x97, 0x89,
  0x8a, 0x8e, 0x89, 0x79, 0x73, 0x9b, 0x6f, 0x4f, 0x7d, 0x50, 0x4a, 0xba,
  0x42, 0x93, 0x8e, 0x77, 0x89, 0x52, 0x72, 0x68, 0xbe, 0x8c, 0x68, 0x77,
  0xa4, 0x82, 0x5a, 0xa9, 0x85, 0x96, 0x79, 0x71, 0x43, 0x79, 0x6f, 0x77,
  0x5c, 0x83, 0x97, 0x92, 0x5d, 0x8b, 0x98, 0x59, 0x8c, 0x81, 0x77, 0x7b,
  0x50, 0x7f, 0x72, 0x71, 0x8f, 0x84, 0x9c, 0x83, 0x4e, 0xa1, 0x84, 0x9c,
  0x9f, 0xb4, 0xa4, 0x82, 0x48, 0x66, 0x87, 0x5a, 0xac, 0x8a, 0x8b, 0x55,
  0x95, 0x6a, 0x66, 0x63, 0x49, 0x5c, 0x6b, 0x7a, 0x6c, 0x7c, 0xa7, 0x95,
  0x86, 0x8b, 0x7a, 0x8a, 0x42, 0x95, 0x8f, 0xa3, 0xb5, 0x9c, 0xa2, 0x9c,
  0x7b, 0x84, 0xba, 0xa6, 0x7f, 0x83, 0x85, 0x82, 0x7f, 0x45, 0xa7, 0x78,
  0x82, 0x94, 0x65, 0x5a, 0x93, 0x85, 0x78, 0x81, 0x77, 0x6d, 0x64, 0x9c,
  0xa9, 0x8c, 0x75, 0x9c, 0x92, 0x97, 0x55, 0x9d, 0x80, 0x87, 0x95, 0x7f,
  0xa7, 0x8f, 0x75, 0xa1, 0x77, 0x77, 0x67, 0x85, 0x7d, 0x9e, 0x8e, 0x4c,
  0x99, 0x61, 0x74, 0x6f, 0x86, 0x55, 0x94, 0x8e, 0x6e, 0x6a, 0x48, 0x82,
  0x58, 0x6f, 0x75, 0x9e, 0x65, 0x87, 0x62, 0x79, 0x53, 0x7f, 0x66, 0x55,
  0x52, 0x93, 0xa7, 0x89, 0x68, 0x99, 0x93, 0xa7, 0xb7, 0x81, 0x78, 0x75,
  0x86, 0x8d, 0xad, 0x72, 0x8f, 0x9c, 0x60, 0x6c, 0x49, 0x8e, 0x7e, 0xa4,
  0x7c, 0x5c, 0x71, 0x8b, 0x79, 0x82, 0x75, 0x80, 0xa1, 0x64, 0xa4, 0x70,
  0x81, 0x8c, 0x80, 0x5b, 0x7d, 0x40, 0x8b, 0x9c, 0xaf, 0x8b, 0x95, 0x84,
  0x5f, 0x74, 0xa1, 0x89, 0x78, 0xad, 0x71, 0x7b, 0x94, 0x70, 0x90, 0x77,
  0x8e, 0x92, 0x8f, 0x88, 0x65, 0x67, 0x73, 0x84, 0x5e, 0x47, 0x7e, 0x89,
  0x7c, 0x91, 0x7f, 0x7a, 0x7b, 0x88, 0x71, 0x94, 0x9c, 0x58, 0x78, 0x8a,
  0x6b, 0x79, 0xa8, 0x88, 0x98, 0x9f, 0x70, 0x75, 0x66, 0x87, 0x8b, 0x6a,
  0x6f, 0x7c, 0x80, 0xa0, 0x9c, 0x8a, 0xa3, 0x42, 0x71, 0x7c, 0x79, 0x4f,
  0xa6, 0xb2, 0x6c, 0x88, 0x7d, 0x57, 0x6f, 0x77, 0xa3, 0xb6, 0x7a, 0x4f,
  0x61, 0xa7, 0x7d, 0x85, 0x6c, 0x74, 0x72, 0x86, 0x96, 0x6d, 0x7b, 0x75,
  0x8d, 0x75, 0x96, 0x62, 0x89, 0xb2, 0x84, 0x6e, 0x6b, 0x74, 0x85, 0x58,
  0x89, 0x9c, 0x94, 0x6a, 0x8f, 0xab, 0x93, 0x64, 0x7b, 0x58, 0x9b, 0x8a,
  0x83, 0x76, 0xac, 0x8c, 0x7e, 0x52, 0x62, 0x4c, 0x54, 0x69, 0xa0, 0xa1,
  0x76, 0x9e, 0x83, 0x8e, 0x6e, 0xa4, 0x70, 0x9b, 0x43, 0x5e, 0xbc, 0x70,
  0x74, 0xa6, 0x7c, 0x70, 0x74, 0x83, 0x9d, 0x85, 0x74, 0xac, 0xa0, 0x57,
  0x80, 0x53, 0x7d, 0x4a, 0x65, 0x67, 0x69, 0x7d, 0xb3, 0x5d, 0x6c, 0x61,
  0x72, 0x8b, 0x91, 0xa8, 0x59, 0x58, 0x6b, 0x99, 0x8b, 0x4b, 0x5a, 0x80,
  0x78, 0x75, 0x80, 0x93, 0x8e, 0x85, 0x9a, 0x91, 0x9a, 0x8c, 0x9e, 0x85,
  0xac, 0x6c, 0x9b, 0x94, 0x67, 0x99, 0x9c, 0x84, 0x70, 0x93, 0x86, 0x99,
  0x51, 0x68, 0xb6, 0x8b, 0x9b, 0x63, 0x6d, 0x7a, 0x41, 0xb7, 0x79, 0x88,
  0x82, 0x9f, 0x8d, 0x9c, 0x54, 0x8f, 0x88, 0x58, 0x82, 0xbc, 0x76, 0x99,
  0x6a, 0xb3, 0x97, 0x82, 0x64, 0x58, 0x81, 0xac, 0xa3, 0x56, 0xa5, 0x81,
  0xab, 0x79, 0x6a, 0xb9, 0xa7, 0x89, 0x70, 0x7a, 0x54, 0x94, 0x4f, 0x87,
  0x50, 0x7e, 0x8e, 0xa9, 0x77, 0x8f, 0x8c, 0x7e, 0x71, 0x8c, 0x6b, 0x82,
  0x4b, 0x56, 0x69, 0x98, 0x89, 0x77, 0x94, 0x66, 0x95, 0x8f, 0x6b, 0x7b,
  0x77, 0xac, 0x74, 0x85, 0x80, 0x81, 0x68, 0x6d, 0x40, 0x8f, 0x77, 0x8b,
  0x88, 0x7c, 0x82, 0xae, 0x7a, 0x65, 0x70, 0x7f, 0xad, 0x98, 0x7e, 0x62,
  0x94, 0x66, 0x4d, 0x96, 0x55, 0x52, 0x8a, 0x6d, 0xb2, 0x8d, 0x9e, 0xba,
  0xa2, 0xae, 0x7c, 0x94, 0x72, 0x83, 0x93, 0x6f, 0x81, 0x73, 0x64, 0x72,
  0x9f, 0x53, 0x4b, 0x64, 0x77, 0x6e, 0x89, 0x7d, 0x7c, 0x59, 0x84, 0x91,
  0x91, 0x76, 0x5d, 0x6c, 0x60, 0xa7, 0x8b, 0x73, 0xaa, 0x70, 0x72, 0x86,
  0x7b, 0x42, 0xa4, 0x73, 0xa2, 0x77, 0x90, 0x93, 0x79, 0x94, 0x88, 0xad,
  0x8b, 0x70, 0x82, 0x7e, 0x99, 0x82, 0x88, 0x82, 0x9c, 0x9f, 0xa9, 0xa6,
  0x94, 0x7d, 0x70, 0x95, 0x54, 0x93, 0x86, 0x4f, 0x51, 0x53, 0x5e, 0x79,
  0x80, 0x73, 0x4e, 0xb6, 0xa9, 0x68, 0x95, 0x78, 0x77, 0x7c, 0x9a, 0x87,
  0x5a, 0x3e, 0x57, 0x72, 0x48, 0x67, 0xb5, 0x9a, 0x83, 0x91, 0x96, 0x9f,
  0xa7, 0x50, 0x88, 0x86, 0x52, 0x69, 0x6f, 0x67, 0x94, 0x6a, 0x52, 0xb2,
  0x9b, 0x86, 0x7a, 0x9b, 0x4c, 0xa3, 0x68, 0x83, 0x87, 0xae, 0x84, 0x5c,
  0x7b, 0x72, 0x86, 0x55, 0x79, 0x9d, 0x6e, 0x58, 0x7a, 0x90, 0xb1, 0x8a,
  0x85, 0x75, 0x6b, 0x8a, 0xaa, 0x74, 0x81, 0x73, 0x59, 0x64, 0xbd, 0x99,
  0x81, 0x85, 0x76, 0xa6, 0x49, 0x5d, 0x87, 0x59, 0x5f, 0x98, 0x64, 0x99,
  0x76, 0x99, 0x94, 0x91, 0xac, 0x5c, 0x98, 0x8f, 0x6e, 0x6b, 0x6b, 0x8a,
  0x77, 0x9c, 0x42, 0x8a, 0x84, 0xa1, 0x73, 0xab, 0x81, 0x83, 0x95, 0x7d,
  0x89, 0x41, 0xa5, 0x99, 0x82, 0x84, 0x9d, 0x4b, 0x90, 0xa0, 0x6b, 0x5f,
  0x55, 0x85, 0x9a, 0x8b, 0x77, 0x83, 0x92, 0x98, 0xa4, 0xa2, 0x77, 0x56,
  0x70, 0x97, 0x80, 0x71, 0x68, 0x86, 0x7b, 0x99, 0x98, 0xaf, 0x82, 0x8e,
  0x65, 0x7d, 0x4d, 0x88, 0x69, 0x6e, 0x4e, 0x7a, 0x72, 0xae, 0x87, 0x9f,
  0x4f, 0x5b, 0x59, 0x8e, 0xbd, 0x90, 0x8c, 0x96, 0xa8, 0x55, 0x8d, 0x95,
  0x79, 0x7b, 0x61, 0x57, 0x4a, 0x9f, 0x83, 0x5f, 0xb9, 0xa4, 0x92, 0x71,
  0x7e, 0x58, 0x63, 0x8e, 0x53, 0xa6, 0x88, 0x83, 0x9b, 0x78, 0x67, 0x74,
  0x7f, 0x7e, 0x9b, 0x80, 0x99, 0x7e, 0x61, 0x84, 0x7f, 0xb4, 0xa4, 0x53,
  0xb0, 0xa6, 0x79, 0xa6, 0x7e, 0xb4, 0x4e, 0x8e, 0x53, 0x8a, 0x87, 0x82,
  0x87, 0x92, 0xa7, 0x9f, 0x98, 0x71, 0xac, 0xae, 0x94, 0x5d, 0xbb, 0x71,
  0x82, 0x6c, 0x6d, 0x6c, 0x69, 0x6c, 0x73, 0x45, 0xad, 0x88, 0xb6, 0x8f,
  0x8b, 0x83, 0x6b, 0xa3, 0x8e, 0x65, 0x80, 0xa0, 0x8b, 0x7c, 0x84, 0x70,
  0x78, 0x81, 0x71, 0xa0, 0xac, 0x64, 0x8c, 0x96, 0x73, 0x65, 0x4b, 0x78,
  0x46, 0x87, 0x5e, 0x6f, 0x7d, 0x57, 0x70, 0x92, 0xbc, 0x9f, 0x81, 0x66,
  0x78, 0x51, 0x7d, 0x96, 0x62, 0x73, 0x8a, 0x66, 0x6f, 0x90, 0x89, 0x9b,
  0x73, 0x79, 0x9b, 0x90, 0x74, 0x88, 0x67, 0x72, 0x60, 0x8d, 0x57, 0x79,
  0x90, 0x7e, 0x6d, 0x6c, 0x5f, 0x5f, 0x6f, 0x55, 0x58, 0x68, 0x6a, 0x89,
  0x79, 0xbb, 0x50, 0x7b, 0xab, 0x4f, 0x96, 0x82, 0x88, 0x80, 0x98, 0x5c,
  0x7f, 0x50, 0x72, 0x6b, 0x8c, 0x9a, 0xbb, 0x8c, 0x5d, 0x61, 0xaf, 0x87,
  0x7f, 0x91, 0x77, 0x89, 0x7e, 0x50, 0x49, 0x93, 0x5c, 0x9a, 0x98, 0x5f,
  0x82, 0x4a, 0xa1, 0x93, 0xaf, 0x9f, 0x91, 0x82, 0x9e, 0x7c, 0xbc, 0x7a,
  0x91, 0x91, 0xba, 0x74, 0xa2, 0x63, 0x94, 0x71, 0x87, 0x94, 0xb6, 0xa0,
  0x74, 0xa3, 0x7a, 0x4f, 0x7c, 0x85, 0x60, 0x80, 0x63, 0xab, 0x81, 0x9d,
  0x95, 0x60, 0x8b, 0x6d, 0x84, 0x9a, 0xb2, 0xa9, 0x82, 0x76, 0xbf, 0x59,
  0x80, 0x5a, 0x7f, 0x99, 0x70, 0x89, 0x82, 0x88, 0x9d, 0x84, 0x69, 0xbe,
  0x69, 0x92, 0xa4, 0x64, 0x51, 0x80, 0x76, 0x68, 0x94, 0x72, 0xa5, 0x4f,
  0x83, 0xac, 0x73, 0x87, 0x81, 0x88, 0xba, 0xba, 0x58, 0x58, 0x7a, 0xa1,
  0x74, 0xa6, 0x61, 0x58, 0xa2, 0x84, 0xa9, 0x68, 0x58, 0x6f, 0x73, 0x8a,
  0x59, 0x83, 0x90, 0xbd, 0x73, 0x8e, 0x9b, 0xb7, 0x5a, 0x5b, 0x91, 0x8a,
  0x85, 0x82, 0xa1, 0x99, 0x40, 0x69, 0x79, 0xb0, 0x5a, 0xb3, 0x5f, 0x57,
  0x64, 0xa0, 0x96, 0x7c, 0x6e, 0x42, 0xa3, 0xae, 0x9b, 0x7c, 0x8d, 0xa1,
  0x56, 0x9b, 0x7a, 0x5b, 0x67, 0x4b, 0x92, 0xb8, 0x7e, 0x84, 0x75, 0x50,
  0x86, 0x4d, 0x54, 0x5e, 0x6d, 0x6e, 0x54, 0x65, 0x47, 0x97, 0x4f, 0xa2,
  0x7b, 0x72, 0x6f, 0x95, 0x78, 0x9c, 0x85, 0x8e, 0x46, 0x7c, 0xa3, 0x56,
  0x59, 0x7f, 0x92, 0x8b, 0xa6, 0x73, 0x97, 0xa0, 0x67, 0x8b, 0x77, 0x81,
  0xa1, 0x70, 0x6e, 0x61, 0x6c, 0x82, 0x4d, 0x74, 0x8b, 0x8e, 0x6f, 0x77,
  0x81, 0x90, 0x75, 0x73, 0x9c, 0xaa, 0x6d, 0x9a, 0x64, 0x85, 0x89, 0xa4,
  0xa3, 0x96, 0x67, 0x71, 0x6b, 0x90, 0x45, 0x93, 0x8c, 0x60, 0x69, 0x5f,
  0x65, 0x5e, 0x72, 0x73, 0x7e, 0x8c, 0x9f, 0x89, 0x72, 0x8d, 0x66, 0xa7,
  0xb5, 0x6c, 0x89, 0x8b, 0xb0, 0x68, 0x98, 0x9b, 0x7a, 0x62, 0x8d, 0x70,
  0x89, 0x42, 0x8d, 0x82, 0x9d, 0x86, 0x85, 0x70, 0xb7, 0x7d, 0x60, 0x49,
  0x7b, 0x86, 0x65, 0x77, 0x90, 0x91, 0x8b, 0xae, 0x76, 0x7f, 0x67, 0x6f,
  0x8b, 0x5f, 0x6e, 0x8d, 0x66, 0x47, 0x58, 0xba, 0x82, 0x99, 0x8e, 0x62,
  0x9e, 0x59, 0x9b, 0x66, 0x8b, 0x97, 0x69, 0x79, 0x85, 0x92, 0x67, 0x74,
  0x84, 0x91, 0x97, 0xae, 0x7e, 0x7c, 0x85, 0x7d, 0x56, 0x75, 0x86, 0x6e,
  0x90, 0x6d, 0x4e, 0x83, 0xa6, 0x48, 0x8a, 0x88, 0xb7, 0x99, 0x49, 0x6e,
  0x8e, 0x57, 0x79, 0x59, 0x46, 0x6c, 0x43, 0x9e, 0x66, 0x7b, 0x8e, 0x9a,
  0x75, 0xb1, 0x9d, 0x85, 0x63, 0x6a, 0x88, 0x6d, 0xa5, 0x69, 0x6e, 0xab,
  0x7a, 0x61, 0x79, 0x8e, 0x9f, 0x90, 0x8b, 0x85, 0xbb, 0x4b, 0x63, 0x90,
  0x8c, 0x8f, 0x7e, 0x98, 0x8c, 0x82, 0x7f, 0xa7, 0x7d, 0x74, 0x63, 0x66,
  0x6b, 0x90, 0x70, 0x62, 0x6c, 0x68, 0x8f, 0x6d, 0x9c, 0xa6, 0x85, 0x8e,
  0x9a, 0xb1, 0xbe, 0x6c, 0x44, 0x8c, 0x82, 0x6b, 0x7b, 0x6b, 0x5d, 0x6d,
  0x7f, 0x86, 0x5b, 0xaa, 0x72, 0x65, 0x79, 0x8b, 0x8d, 0x8e, 0x68, 0x7d,
  0xaf, 0x6e, 0x71, 0x5b, 0x8f, 0x53, 0x9e, 0xb3, 0x6c, 0x88, 0x7d, 0xb1,
  0xa8, 0x5f, 0xa4, 0x66, 0x87, 0x6c, 0x50, 0x8d, 0x94, 0x8f, 0x7a, 0x8b,
  0xac, 0xa3, 0x74, 0xab, 0x71, 0x88, 0x85, 0x87, 0x7c, 0x43, 0x9a, 0x6c,
  0x68, 0x92, 0x6d, 0x54, 0x6b, 0xb3, 0x6b, 0x9b, 0x73, 0x80, 0x8d, 0x5d,
  0x61, 0x58, 0x5a, 0xa9, 0x5d, 0x80, 0x63, 0x7f, 0x79, 0xb1, 0x6f, 0xb3,
  0xa5, 0x9c, 0xb5, 0x86, 0x8a, 0x73, 0xa7, 0x6c, 0x79, 0x80, 0x98, 0x78,
  0x80, 0x6b, 0x46, 0x67, 0x89, 0x85, 0x7e, 0xad, 0x6b, 0x86, 0x7b, 0xbc,
  0x94, 0x43, 0x59, 0x5f, 0xa6, 0xb2, 0x67, 0x97, 0xab, 0x8a, 0x5a, 0x6b,
  0x98, 0x60, 0x73, 0x76, 0x7f, 0xb0, 0x92, 0x70, 0xac, 0xa9, 0x7d, 0x82,
  0x8a, 0x6f, 0x91, 0x7a, 0x87, 0x7c, 0xb5, 0x97, 0x7a, 0x85, 0x6c, 0x41,
  0x8c, 0x6a, 0xb6, 0x77, 0x40, 0x7d, 0x72, 0x7b, 0x92, 0x79, 0x9e, 0xb2,
  0xaf, 0x82, 0x81, 0x8f, 0x7a, 0x68, 0xa3, 0xa5, 0xa3, 0xa3, 0x53, 0x78,
  0x86, 0xa6, 0x92, 0x87, 0x84, 0x92, 0x85, 0x46, 0x7d, 0x79, 0xa1, 0x9e,
  0x7e, 0x71, 0x65, 0x58, 0x94, 0x95, 0x60, 0x8f, 0x93, 0x84, 0xb1, 0x6a,
  0x6a, 0x4f, 0x5a, 0x6f, 0x80, 0x6a, 0xa2, 0x65, 0x64, 0x79, 0x50, 0x4a,
  0x60, 0x9a, 0x4a, 0x6a, 0x93, 0x63, 0xaa, 0x79, 0x54, 0x7b, 0x7f, 0xad,
  0x7b, 0xb5, 0x75, 0x96, 0x8e, 0x4c, 0x79, 0x90, 0x9d, 0x82, 0xb7, 0x8f,
  0xa6, 0x47, 0xbd, 0x70, 0x86, 0xba, 0x6d, 0xb8, 0xa1, 0x7f, 0x7b, 0x7d,
  0x4a, 0x64, 0xa5, 0xbc, 0xb5, 0x67, 0x4d, 0x69, 0x69, 0x99, 0xa7, 0x80,
  0x81, 0x95, 0x8a, 0x56, 0xb2, 0x86, 0x85, 0x94, 0x79, 0x7e, 0x9e, 0xaa,
  0x56, 0x78, 0xbd, 0x86, 0x5d, 0x71, 0x7e, 0x73, 0xaa, 0xa2, 0x86, 0x73,
  0x51, 0x8f, 0x8b, 0x72, 0xa9, 0x9e, 0x8f, 0x94, 0x7d, 0x7d, 0x84, 0x88,
  0x5d, 0xaa, 0x82, 0x4e, 0x5c, 0x80, 0x8c, 0x82, 0xad, 0x6c, 0x6f, 0x9d,
  0x80, 0xbc, 0x74, 0x82, 0x4e, 0x76, 0x6a, 0x6d, 0x7c, 0x66, 0x9f, 0x59,
  0x84, 0x82, 0x5b, 0x92, 0x83, 0x8f, 0x8a, 0x8b, 0x90, 0x5c, 0x89, 0x66,
  0x71, 0x77, 0x85, 0x86, 0x8d, 0x5f, 0xaf, 0x93, 0x88, 0x4d, 0x9d, 0x76,
  0x78, 0x94, 0x6a, 0x4f, 0x9a, 0x92, 0xa2, 0x78, 0x5d, 0x69, 0x82, 0x7e,
  0x9c, 0x5c, 0x94, 0x87, 0x8a, 0x8a, 0x7b, 0x8b, 0xac, 0x8d, 0x71, 0x93,
  0x7c, 0x8e, 0x86, 0x48, 0x81, 0x6e, 0x9a, 0x9a, 0x97, 0x9c, 0x94, 0x84,
  0x4b, 0x83, 0xaa, 0x86, 0xa3, 0x78, 0x81, 0x93, 0x4c, 0xb7, 0x6f, 0x74,
  0x86, 0x84, 0x5b, 0xad, 0x8f, 0x76, 0x6f, 0x87, 0x9b, 0x63, 0x64, 0x64,
  0x69, 0x5a, 0x95, 0x5b, 0x46, 0x84, 0x77, 0x55, 0x7f, 0x8a, 0x45, 0x76,
  0x78, 0x93, 0x7f, 0x7e, 0x7b, 0x8f, 0x8a, 0x96, 0x72, 0x91, 0x99, 0x46,
  0xa1, 0x98, 0x89, 0x5a, 0x96, 0xa5, 0x85, 0x94, 0xae, 0xb7, 0x6d, 0x78,
  0x7a, 0xb8, 0x6b, 0x8c, 0x49, 0x90, 0x71, 0x7a, 0x9a, 0x95, 0x7a, 0xa8,
  0x5c, 0x5f, 0x86, 0x5d, 0x63, 0x82, 0x5b, 0x99, 0x68, 0xb2, 0x58, 0x4e,
  0xa9, 0x64, 0x8f, 0x78, 0xa1, 0x5b, 0x71, 0x4e, 0x8c, 0x91, 0x43, 0xb6,
  0x53, 0x4f, 0x86, 0x6a, 0xa7, 0x47, 0x5a, 0xa3, 0x63, 0x4b, 0x87, 0x89,
  0xa4, 0x92, 0x87, 0x9c, 0x6a, 0xaf, 0x98, 0x7c, 0x92, 0x85, 0xb2, 0x65,
  0xb9, 0x99, 0x8f, 0x5d, 0x50, 0x68, 0x93, 0x6f, 0x6c, 0x45, 0x78, 0x84,
  0x81, 0x61, 0x76, 0xa7, 0xb5, 0x7b, 0x43, 0x84, 0x80, 0x86, 0x7d, 0x51,
  0x8f, 0x6d, 0x7b, 0x82, 0x90, 0x5c, 0x84, 0x99, 0x83, 0x6c, 0x52, 0x48,
  0x6c, 0xb5, 0x4f, 0x85, 0x9f, 0x8b, 0x5d, 0xb7, 0x84, 0xa3, 0x8f, 0x90,
  0x4f, 0x69, 0x89, 0x91, 0xa3, 0x6f, 0x88, 0xae, 0x8c, 0x61, 0x7f, 0x89,
  0x7a, 0x94, 0x79, 0x56, 0x89, 0x75, 0x91, 0xaf, 0x49, 0x84, 0x5d, 0x7c,
  0x8b, 0xab, 0x8e, 0x95, 0x85, 0xba, 0x8a, 0x58, 0x79, 0x85, 0x96, 0x91,
  0x54, 0xa1, 0x52, 0x9f, 0x6c, 0x88, 0x75, 0x6a, 0x94, 0x6d, 0x92, 0x56,
  0xa4, 0x8a, 0x57, 0x97, 0x77, 0x68, 0x58, 0x65, 0x69, 0x7b, 0x92, 0xa4,
  0x9c, 0x82, 0x72, 0x83, 0x9d, 0x8d, 0x80, 0x8a, 0x8b, 0x51, 0x99, 0x6d,
  0x6f, 0x7d, 0x5c, 0x68, 0x75, 0x73, 0x95, 0x73, 0x8e, 0xa5, 0x64, 0x7a,
  0x8f, 0x5d, 0x74, 0x6c, 0x67, 0x7d, 0x7f, 0x86, 0x81, 0x57, 0x86, 0x8c,
  0x61, 0x5c, 0x77, 0x71, 0x7f, 0xb0, 0x94, 0x56, 0x78, 0x6b, 0x8e, 0x74,
  0x76, 0x6f, 0x7d, 0x85, 0x5c, 0x97, 0x78, 0x61, 0x72, 0x96, 0x57, 0x84,
  0x87, 0x72, 0xba, 0x76, 0x81, 0x9d, 0x9d, 0x64, 0xb8, 0x91, 0x81, 0xa1,
  0x90, 0x9f, 0xa2, 0x67, 0x6c, 0x71, 0x7a, 0x56, 0xae, 0x69, 0xaa, 0xa9,
  0x64, 0x69, 0x83, 0x88, 0xa1, 0x75, 0x96, 0xa3, 0x7b, 0x8d, 0x9c, 0x5e,
  0x83, 0x87, 0x63, 0x82, 0x93, 0x61, 0x7b, 0x73, 0xc0, 0x91, 0x4e, 0x80,
  0x71, 0x5a, 0x99, 0x7c, 0x5e, 0x91, 0x56, 0xaf, 0x6b, 0x92, 0x94, 0xb5,
  0x9f, 0x91, 0x77, 0x9e, 0x9d, 0x7e, 0x7c, 0x82, 0x59, 0x91, 0x6d, 0x9c,
  0x8d, 0x77, 0x77, 0xbe, 0x9b, 0x54, 0xb2, 0x6a, 0x6d, 0x68, 0x69, 0x81,
  0xb9, 0x9a, 0x86, 0x6e, 0x72, 0x96, 0x7c, 0x7f, 0x75, 0x59, 0xa1, 0xaa,
  0x8c, 0x67, 0x63, 0xb2, 0x9b, 0x8d, 0x50, 0x67, 0x89, 0x7b, 0x70, 0xa9,
  0x72, 0x6d, 0x6d, 0x7a, 0x77, 0x84, 0xa4, 0x69, 0x8d, 0x67, 0x74, 0x73,
  0x9a, 0x64, 0xba, 0x79, 0x68, 0x9e, 0xa4, 0x6b, 0x52, 0x96, 0x8a, 0xa3,
  0x6c, 0x88, 0x56, 0x7a, 0x9a, 0x8a, 0x81, 0x6b, 0x61, 0x7b, 0x88, 0x84,
  0x75, 0x8b, 0x95, 0x9a, 0x8b, 0x6a, 0x79, 0xad, 0x61, 0x79, 0xa3, 0xae,
  0x92, 0x63, 0x92, 0x51, 0x81, 0x6e, 0x8d, 0x79, 0x86, 0x76, 0x87, 0x5a,
  0x53, 0x7f, 0x9c, 0x62, 0x83, 0x77, 0x80, 0x62, 0xa6, 0x92, 0xb0, 0x86,
  0x71, 0x9b, 0x78, 0x59, 0x3f, 0x7c, 0x7b, 0xa1, 0x8a, 0x8c, 0x9c, 0x5b,
  0x6d, 0x8b, 0x74, 0x8f, 0x78, 0x88, 0xa3, 0x60, 0x7b, 0x6a, 0x4b, 0x81,
  0x59, 0x9d, 0x91, 0x75, 0x80, 0x93, 0x6e, 0x7c, 0x8b, 0x80, 0x6f, 0x83,
  0x6b, 0xad, 0x83, 0x5c, 0x77, 0x6c, 0x77, 0x7b, 0x84, 0x73, 0x7b, 0xa3,
  0xa7, 0xa0, 0x88, 0x58, 0x69, 0x7d, 0x60, 0x79, 0x69, 0x91, 0x54, 0x74,
  0x66, 0x61, 0x9a, 0x8a, 0x95, 0x7e, 0x70, 0x6e, 0x5d, 0x55, 0x95, 0x6d,
  0x54, 0x77, 0x5d, 0x6c, 0x89, 0x79, 0x69, 0x8a, 0x92, 0x54, 0xb2, 0xa8,
  0x98, 0xb9, 0x75, 0x7d, 0x7c, 0x6f, 0x83, 0x9f, 0x3d, 0x9b, 0xba, 0xa6,
  0x88, 0x64, 0x97, 0x80, 0x8b, 0x66, 0xac, 0x83, 0x99, 0x55, 0x7a, 0x9f,
  0x73, 0x64, 0xbd, 0x90, 0x66, 0x8c, 0x54, 0xbe, 0x79, 0x73, 0x79, 0x6d,
  0xa2, 0x56, 0x69, 0x63, 0x84, 0x78, 0x72, 0x75, 0xa5, 0xa2, 0xad, 0xb7,
  0x4f, 0x95, 0x64, 0x65, 0xa5, 0x89, 0x7c, 0x98, 0x8a, 0x63, 0x7e, 0x4f,
  0x61, 0x6d, 0x51, 0x9d, 0x88, 0x7d, 0xb4, 0xb0, 0x87, 0x77, 0x87, 0x4b,
  0x92, 0x75, 0x7b, 0x62, 0x4f, 0x8b, 0x81, 0x66, 0x7b, 0x65, 0x71, 0x71,
  0x93, 0x89, 0x70, 0x6a, 0x77, 0x7a, 0x78, 0x86, 0x88, 0x59, 0x7c, 0xac,
  0x71, 0x91, 0x99, 0xaa, 0x74, 0x8d, 0x9a, 0x84, 0x73, 0x78, 0x67, 0x9b,
  0xa6, 0x9b, 0x9e, 0xa0, 0x59, 0x86, 0x9c, 0x87, 0x6e, 0x94, 0x56, 0x8a,
  0x81, 0x7a, 0x7a, 0x91, 0x90, 0x56, 0xaf, 0x4e, 0xad, 0x5a, 0x80, 0xa9,
  0x82, 0x4a, 0x9f, 0x98, 0x5a, 0x6d, 0x81, 0xab, 0x48, 0x63, 0x6a, 0x6c,
  0x69, 0x65, 0x99, 0x87, 0x4e, 0xbd, 0x7d, 0x88, 0x9e, 0x7b, 0x2c, 0x66,
  0x67, 0x81, 0x9e, 0x88, 0xa5, 0x99, 0x5a, 0x9b, 0x59, 0x68, 0x70, 0x89,
  0x45, 0x49, 0xa0, 0x6f, 0x75, 0x46, 0xba, 0x81, 0x56, 0x78, 0x58, 0x64,
  0x7f, 0xa0, 0x6b, 0x6a, 0x65, 0x65, 0x75, 0x93, 0x65, 0x75, 0x98, 0x5e,
  0x77, 0x8c, 0x7c, 0x71, 0x6b, 0x87, 0xc1, 0x96, 0x83, 0x61, 0x82, 0x93,
  0x51, 0x7e, 0x92, 0x6a, 0x70, 0x72, 0x7f, 0x6d, 0x6a, 0x99, 0x6a, 0x8c,
  0x99, 0x7f, 0x72, 0x61, 0x6c, 0x97, 0x94, 0x6f, 0x85, 0x78, 0x8d, 0x6f,
  0xad, 0x87, 0xa8, 0x90, 0x71, 0x58, 0x99, 0x91, 0x8b, 0x9c, 0x5d, 0x88,
  0x81, 0x5d, 0xa3, 0x58, 0x60, 0x5d, 0x78, 0xad, 0x6b, 0xad, 0x59, 0xa6,
  0x9a, 0xaa, 0x8f, 0x64, 0x6e, 0x90, 0xbb, 0x4e, 0xb7, 0x83, 0xa6, 0x68,
  0x4e, 0xb5, 0x8c, 0x9e, 0x9d, 0x8f, 0x94, 0x79, 0x78, 0x7d, 0x7d, 0x7e,
  0x42, 0x7f, 0x91, 0x6e, 0x71, 0xa9, 0x74, 0x84, 0x5d, 0x72, 0x7f, 0x9a,
  0x6c, 0xa1, 0x67, 0x52, 0x9b, 0x79, 0xab, 0x6a, 0x8d, 0x46, 0x47, 0x5a,
  0x4f, 0x93, 0x59, 0x70, 0x95, 0x8a, 0x8f, 0x50, 0x4f, 0x80, 0x87, 0x83,
  0x9c, 0x3e, 0x4f, 0x91, 0xb3, 0x58, 0x91, 0xa8, 0xbb, 0xb9, 0x7b, 0x87,
  0xb8, 0x74, 0x69, 0x7a, 0x70, 0x6c, 0x7c, 0x74, 0x65, 0x8a, 0xb7, 0x88,
  0x90, 0x9a, 0x99, 0x89, 0x99, 0x74, 0x94, 0xb5, 0x97, 0x79, 0x87, 0x72,
  0x5f, 0x9b, 0x89, 0x92, 0x89, 0x97, 0x9a, 0x58, 0x4c, 0x73, 0x49, 0x75,
  0x84, 0x9b, 0x91, 0x78, 0x7d, 0x56, 0x7c, 0x77, 0x8e, 0x69, 0x76, 0x53,
  0xac, 0x72, 0x9f, 0x7b, 0x81, 0x8e, 0x6e, 0x91, 0xab, 0xb5, 0xa3, 0x49,
  0x71, 0x57, 0xb6, 0x7e, 0x81, 0xb0, 0x92, 0x4a, 0x60, 0x80, 0xb3, 0xbc,
  0xae, 0x84, 0x60, 0x75, 0x5f, 0x58, 0x84, 0x72, 0x65, 0x73, 0x86, 0x81,
  0x80, 0x6f, 0xa2, 0x6b, 0x7d, 0x6d, 0x57, 0x58, 0xa6, 0x98, 0x7e, 0x6a,
  0xb9, 0x8f, 0x75, 0x72, 0x83, 0x6c, 0x7d, 0xae, 0x9f, 0x77, 0x9e, 0x7a,
  0x8d, 0x91, 0x7a, 0x8b, 0x99, 0x74, 0x70, 0x7c, 0x7b, 0x60, 0xa3, 0x5e,
  0x76, 0x8d, 0x60, 0x88, 0x82, 0x86, 0x73, 0x69, 0x74, 0x9a, 0x72, 0x82,
  0x83, 0x6b, 0x8b, 0xa7, 0x8c, 0x57, 0x96, 0x74, 0x84, 0x60, 0x50, 0x92,
  0x1b, 0x8c, 0x91, 0x7c, 0xad, 0x88, 0x3f, 0x6f, 0x7c, 0x6b, 0x5e, 0x7d,
  0xb8, 0xb9, 0xab, 0x94, 0x64, 0x5a, 0x87, 0xa4, 0x89, 0x76, 0x92, 0x59,
  0x69, 0x7a, 0x99, 0x90, 0x7f, 0x73, 0x6e, 0x84, 0x64, 0xb2, 0x8f, 0x69,
  0x8b, 0x8b, 0x58, 0x97, 0x82, 0x6f, 0x84, 0xa5, 0x86, 0x79, 0x9f, 0x86,
  0x89, 0x82, 0xbe, 0xbd, 0x95, 0x8b, 0x6c, 0x8c, 0xb0, 0x47, 0x83, 0x83,
  0x92, 0x67, 0x5d, 0x86, 0x91, 0x92, 0x6e, 0x60, 0x82, 0x7c, 0x5b, 0x6c,
  0x77, 0x61, 0x96, 0x4f, 0x7c, 0x57, 0x5d, 0xad, 0x87, 0x95, 0xa1, 0x82,
  0x92, 0x49, 0x98, 0x90, 0x79, 0xb4, 0x67, 0x7b, 0x58, 0x7a, 0x52, 0x7b,
  0x6c, 0xab, 0x74, 0x8d, 0x8d, 0x7f, 0x86, 0x61, 0xa1, 0x8a, 0x88, 0x52,
  0x69, 0xae, 0x97, 0x64, 0x7e, 0x90, 0x8d, 0x50, 0x5a, 0x6d, 0x8c, 0x7e,
  0x7e, 0x83, 0x64, 0x8e, 0x5d, 0x5d, 0x5d, 0x7b, 0x95, 0x54, 0x6d, 0x61,
  0x89, 0x5b, 0x8a, 0x70, 0x68, 0xa4, 0xa9, 0x94, 0x67, 0x88, 0x98, 0x98,
  0x78, 0x55, 0x64, 0x6c, 0x82, 0x61, 0x80, 0x8d, 0x6d, 0xac, 0x5a, 0x6c,
  0x52, 0x99, 0x7d, 0x80, 0x40, 0x61, 0x65, 0x88, 0xad, 0x66, 0x5f, 0x6b,
  0x73, 0xa3, 0x9a, 0x90, 0xa6, 0xcf, 0x73, 0x78, 0x98, 0x8f, 0x8a, 0x57,
  0x79, 0x8d, 0xac, 0x5a, 0x7a, 0x8d, 0x96, 0x6c, 0x5d, 0x4f, 0xb2, 0x54,
  0x7d, 0x61, 0x72, 0xa5, 0xa4, 0x9c, 0x85, 0x6c, 0xb8, 0x85, 0x69, 0x9c,
  0x57, 0xa0, 0xae, 0x8e, 0x7b, 0x90, 0x66, 0x7b, 0xa2, 0x85, 0x6d, 0x7d,
  0x52, 0x9b, 0x6f, 0xa9, 0x5a, 0x70, 0x70, 0x71, 0x5b, 0x60, 0x88, 0x7b,
  0x6a, 0x7b, 0x82, 0x5c, 0x77, 0x72, 0x8c, 0x60, 0x61, 0x71, 0x54, 0x88,
  0x56, 0x75, 0x93, 0x96, 0x68, 0x75, 0x75, 0x6d, 0x69, 0x94, 0x9e, 0x84,
  0x81, 0x6f, 0x98, 0x7b, 0x62, 0x8e, 0x86, 0x4c, 0x91, 0x7a, 0x8d, 0x88,
  0xa0, 0x89, 0x7a, 0x9c, 0x8a, 0x86, 0xad, 0x8e, 0x52, 0x78, 0xaa, 0x8c,
  0xa8, 0x6c, 0x75, 0x91, 0x62, 0x84, 0x6a, 0x7e, 0x56, 0x55, 0xa4, 0xb8,
  0xad, 0x71, 0x89, 0xa5, 0x42, 0xae, 0x65, 0xb1, 0x81, 0x8f, 0x89, 0x55,
  0x6e, 0x97, 0xaf, 0x68, 0x58, 0x57, 0xa8, 0x65, 0x5e, 0xa4, 0x9f, 0x6a,
  0x53, 0x48, 0x85, 0x6a, 0x45, 0x72, 0x93, 0x5a, 0x60, 0xa1, 0x79, 0x5d,
  0xa8, 0x7f, 0x30, 0x8c, 0x60, 0x83, 0x81, 0x86, 0xba, 0xe0, 0x7d, 0xa1,
  0x91, 0x74, 0x77, 0x85, 0x85, 0x96, 0xbe, 0x69, 0x77, 0xab, 0x8c, 0x70,
  0x4b, 0x5e, 0x9d, 0x80, 0x5b, 0x64, 0x55, 0x74, 0x7c, 0xa9, 0x77, 0x8a,
  0x5c, 0xaa, 0x69, 0x9b, 0x85, 0x66, 0x7e, 0xaa, 0x6e, 0x60, 0x91, 0x64,
  0x65, 0x77, 0x72, 0x88, 0x9d, 0x99, 0x9b, 0x6e, 0x62, 0x6d, 0xac, 0x72,
  0x9a, 0x5f, 0x61, 0x61, 0x59, 0x68, 0x85, 0xa5, 0x56, 0x6a, 0x9b, 0x53,
  0x8d, 0x7e, 0x58, 0x7b, 0x95, 0x9b, 0x76, 0x9a, 0x88, 0x8f, 0x9f, 0x75,
  0x95, 0x82, 0x8a, 0x79, 0x60, 0x74, 0x6f, 0x8a, 0x89, 0x7c, 0x89, 0x7a,
  0x77, 0x82, 0x60, 0x8a, 0x79, 0x77, 0x9d, 0x96, 0x51, 0x72, 0xb3, 0xa5,
  0x79, 0x8d, 0xb0, 0x7b, 0x5b, 0x8b, 0x84, 0xa9, 0x8d, 0x75, 0x6d, 0x5c,
  0x53, 0x78, 0x94, 0x86, 0x8b, 0x5c, 0x48, 0x83, 0x90, 0x62, 0x60, 0x78,
  0x86, 0x96, 0x5e, 0x9e, 0x72, 0x94, 0xaf, 0x5b, 0x5f, 0x86, 0x88, 0xbc,
  0x2b, 0x70, 0xad, 0x94, 0x57, 0x6d, 0x9f, 0x55, 0x2f, 0x7d, 0x89, 0x74,
  0x93, 0x86, 0x52, 0xa5, 0x75, 0x8f, 0x7a, 0x7b, 0xb7, 0x70, 0x46, 0x98,
  0xca, 0xe8, 0x7e, 0xbc, 0x82, 0x4e, 0x93, 0x8c, 0x6d, 0x81, 0xb1, 0x75,
  0x8d, 0x64, 0x72, 0x72, 0x65, 0x7e, 0x64, 0x80, 0x69, 0x4e, 0x78, 0x7c,
  0x47, 0x81, 0x5f, 0x9d, 0xbe, 0x78, 0x9c, 0x79, 0x8f, 0xa6, 0xa2, 0x7d,
  0xa5, 0xaa, 0xb0, 0x59, 0x3f, 0x8b, 0x89, 0x97, 0x8d, 0x59, 0x95, 0x5a,
  0x60, 0x69, 0x78, 0x80, 0xa9, 0x61, 0x61, 0x8c, 0x65, 0x7b, 0xa8, 0x5f,
  0x9f, 0x90, 0x92, 0x7b, 0x7a, 0x79, 0x7c, 0x96, 0xbd, 0x6f, 0x8f, 0x93,
  0x61, 0x92, 0x7f, 0x76, 0x87, 0x79, 0xa4, 0x8f, 0x27, 0x5e, 0x86, 0x68,
  0xa6, 0x76, 0x75, 0x7d, 0x68, 0x6c, 0x99, 0x65, 0x90, 0x49, 0x85, 0x9b,
  0x59, 0x81, 0x5e, 0x70, 0x64, 0x8e, 0x84, 0x6c, 0x69, 0x6d, 0x99, 0x50,
  0x86, 0x60, 0x88, 0x96, 0x50, 0x4e, 0x7d, 0x9e, 0x9f, 0x65, 0x77, 0xb0,
  0x63, 0x5d, 0x62, 0xad, 0x79, 0x4e, 0x8a, 0x7d, 0x7a, 0x8e, 0x71, 0xcc,
  0x84, 0x96, 0x7d, 0x50, 0x67, 0x72, 0x98, 0x9c, 0x9f, 0x7b, 0x6c, 0x8a,
  0x21, 0x72, 0x49, 0x7c, 0x90, 0x97, 0xa6, 0x64, 0xa8, 0x68, 0x8c, 0x72,
  0x85, 0x82, 0x90, 0x9b, 0x99, 0xa5, 0x9e, 0x94, 0xaf, 0x91, 0x79, 0xa5,
  0x29, 0x96, 0x67, 0x87, 0xb6, 0x7e, 0x83, 0x94, 0x4d, 0x74, 0xab, 0xaf,
  0x82, 0x81, 0xb9, 0x94, 0x54, 0x99, 0x69, 0x4c, 0xa9, 0x71, 0x94, 0x6c,
  0xa1, 0x70, 0x96, 0xb4, 0x91, 0x9c, 0xad, 0x7a, 0x4f, 0x8c, 0xa6, 0x50,
  0xa0, 0x97, 0xaf, 0x60, 0x81, 0x58, 0x7f, 0x95, 0x6e, 0x71, 0x6b, 0x74,
  0x59, 0x9a, 0x7c, 0x66, 0x65, 0xab, 0x77, 0x43, 0x79, 0x7e, 0x9d, 0x52,
  0xa0, 0x69, 0xb1, 0x79, 0x78, 0xab, 0xa0, 0x6f, 0xa5, 0x76, 0xa4, 0x6f,
  0x36, 0x70, 0x85, 0x71, 0x9d, 0xb1, 0x53, 0x93, 0x72, 0x86, 0x97, 0x9e,
  0x81, 0x69, 0x4f, 0x73, 0x48, 0x83, 0x9d, 0x78, 0x91, 0x99, 0xa0, 0x85,
  0x60, 0x36, 0x74, 0x96, 0x8e, 0xab, 0x8b, 0xac, 0x53, 0x60, 0x81, 0xb2,
  0x5d, 0x81, 0x8d, 0x8c, 0x62, 0x41, 0x9c, 0x72, 0x8f, 0x93, 0x75, 0x4a,
  0x74, 0x58, 0x78, 0x88, 0xc1, 0x7c, 0x7f, 0x9e, 0x6b, 0x7d, 0x7f, 0x91,
  0x45, 0x82, 0xa5, 0x6c, 0x89, 0x9c, 0x79, 0x7e, 0x89, 0x9d, 0x95, 0x92,
  0xc1, 0x9a, 0x78, 0x61, 0xa7, 0x72, 0x90, 0x74, 0xc2, 0xbb, 0x99, 0x7c,
  0x9a, 0x88, 0x9b, 0x47, 0x8b, 0x6d, 0x7b, 0x9a, 0x57, 0x4d, 0x71, 0x52,
  0x6e, 0x4b, 0x98, 0x45, 0x69, 0x79, 0x88, 0xa5, 0x5d, 0x7d, 0xad, 0x6d,
  0x9b, 0x9d, 0x52, 0x57, 0x94, 0x91, 0x7a, 0x62, 0xa1, 0x62, 0x4a, 0x7e,
  0x4e, 0x96, 0xb3, 0x88, 0x9b, 0x46, 0x8c, 0x55, 0x6a, 0x55, 0xa1, 0x7a,
  0x79, 0x4c, 0xb1, 0x92, 0x42, 0x67, 0x98, 0x8c, 0x7e, 0xb4, 0x5c, 0x75,
  0xa6, 0xa1, 0x96, 0x91, 0x62, 0x76, 0x98, 0x77, 0x6a, 0x97, 0x83, 0xbf,
  0x6b, 0x4d, 0x91, 0x71, 0x79, 0x4d, 0x6e, 0xaa, 0x63, 0x72, 0x76, 0xab,
  0x61, 0x49, 0x62, 0x85, 0x98, 0x8b, 0x98, 0x70, 0x50, 0x75, 0x92, 0x4f,
  0x7b, 0x6b, 0x78, 0x76, 0x8f, 0x6b, 0x5c, 0x7b, 0xb8, 0xb1, 0x62, 0xb3,
  0xa0, 0x9c, 0x92, 0x9b, 0x58, 0x69, 0x7a, 0x83, 0x91, 0x77, 0xab, 0x78,
  0x42, 0xb0, 0x77, 0x60, 0x94, 0xa5, 0x6d, 0x85, 0x7a, 0xa3, 0x93, 0x80,
  0x75, 0x79, 0x84, 0x95, 0x6b, 0x67, 0x9a, 0x79, 0xa3, 0xa0, 0xa3, 0x66,
  0x66, 0x97, 0x98, 0x8e, 0xb4, 0xac, 0x30, 0x76, 0x66, 0x97, 0x89, 0x48,
  0x95, 0x9b, 0x64, 0x9b, 0x4b, 0x87, 0x60, 0x75, 0x75, 0x73, 0x9d, 0x4f,
  0x84, 0xa2, 0x7e, 0x74, 0x9b, 0x58, 0x81, 0x97, 0x67, 0x64, 0x8f, 0x99,
  0x6f, 0x82, 0x83, 0x5a, 0x93, 0x77, 0x9e, 0x97, 0xad, 0xa0, 0x81, 0x73,
  0x8c, 0x88, 0x66, 0x86, 0x72, 0x7d, 0x4a, 0x66, 0x87, 0x63, 0x6c, 0x7a,
  0x6a, 0x70, 0x63, 0x93, 0x36, 0x84, 0x7e, 0x70, 0x6a, 0xa1, 0x83, 0x94,
  0x66, 0x97, 0xad, 0x85, 0x7d, 0x75, 0x53, 0xad, 0x96, 0x59, 0x8b, 0x8c,
  0x8a, 0x96, 0x80, 0x5c, 0x62, 0x6b, 0x95, 0x7d, 0x6a, 0x8f, 0xa0, 0x88,
  0x7d, 0x6d, 0x78, 0x69, 0x34, 0x66, 0x82, 0x5a, 0x85, 0x96, 0xa0, 0x75,
  0x61, 0x5c, 0xac, 0x74, 0x68, 0x6f, 0x53, 0x87, 0x8e, 0x75, 0xae, 0x83,
  0x58, 0x8d, 0x6d, 0x57, 0x6a, 0x6a, 0xa3, 0x6a, 0x94, 0x6b, 0xab, 0x73,
  0x90, 0x66, 0x63, 0x84, 0x76, 0x85, 0x85, 0x63, 0x77, 0x56, 0x89, 0x5b,
  0x7a, 0xa2, 0x60, 0x8a, 0x78, 0x81, 0x97, 0x8e, 0x54, 0x91, 0xb9, 0x76,
  0x73, 0xc6, 0x9e, 0x65, 0x5f, 0x80, 0x82, 0x64, 0xbc, 0xa8, 0x4b, 0x93,
  0x8a, 0x90, 0x49, 0x88, 0xae, 0xc4, 0x6b, 0xa1, 0x8f, 0x74, 0x9b, 0x64,
  0x98, 0x51, 0x6c, 0xc2, 0x78, 0x78, 0xa4, 0xa2, 0xad, 0x51, 0x8d, 0x73,
  0x81, 0x94, 0xb1, 0x5a, 0x9b, 0x7c, 0x88, 0x51, 0x5a, 0x63, 0x60, 0x91,
  0xb3, 0x63, 0x64, 0x90, 0x93, 0x8e, 0x81, 0x8c, 0xb2, 0xaf, 0x5e, 0x70,
  0x7e, 0x4d, 0x93, 0x4f, 0xaf, 0x81, 0x77, 0x77, 0x5a, 0xb9, 0x5d, 0xb4,
  0x64, 0x5a, 0x7a, 0x50, 0x63, 0x97, 0x58, 0x6b, 0xb3, 0x7b, 0xb1, 0x71,
  0xae, 0x47, 0x66, 0x93, 0xb5, 0xd3, 0x9d, 0x53, 0x91, 0x92, 0x8b, 0x84,
  0xb3, 0x39, 0x43, 0x74, 0x74, 0x67, 0x61, 0x8e, 0x6b, 0x9e, 0x63, 0x71,
  0x8e, 0x99, 0x79, 0x8a, 0x58, 0x3e, 0x5c, 0xa9, 0x57, 0x75, 0x7e, 0x71,
  0xa2, 0x97, 0x7e, 0x75, 0x61, 0x94, 0x88, 0x9a, 0x93, 0x92, 0x7a, 0x97,
  0x52, 0x86, 0xa8, 0x8e, 0x89, 0x74, 0x77, 0x6f, 0x6f, 0xa3, 0x85, 0x7f,
  0x7d, 0x79, 0x83, 0x9c, 0x71, 0x77, 0x7b, 0x5f, 0xa4, 0x85, 0x98, 0x8c,
  0x95, 0x56, 0xa2, 0x95, 0x79, 0x9b, 0x69, 0x64, 0x71, 0x7a, 0x9f, 0x80,
  0xa2, 0xb0, 0x82, 0x67, 0x7d, 0x53, 0x92, 0xa6, 0xee, 0xa9, 0x87, 0xa0,
  0x64, 0x92, 0x53, 0x53, 0xaa, 0xac, 0x6a, 0xa1, 0x7c, 0x65, 0x95, 0x49,
  0xbc, 0x80, 0xa8, 0x7d, 0x66, 0x98, 0x6b, 0xba, 0xa3, 0x71, 0x74, 0x77,
  0x86, 0x74, 0x83, 0x7a, 0xcf, 0x98, 0x69, 0x4e, 0x5b, 0xa7, 0x8e, 0x78,
  0xbb, 0xa0, 0x76, 0x67, 0x54, 0x75, 0x9a, 0x86, 0xa6, 0xb8, 0xa3, 0x6f,
  0x33, 0x81, 0x6a, 0x6f, 0x83, 0x79, 0x97, 0x43, 0x61, 0x70, 0x9d, 0xa4,
  0xca, 0x62, 0x79, 0x97, 0x96, 0x7e, 0x67, 0x50, 0x91, 0x89, 0x4a, 0xa1,
  0xad, 0x90, 0x89, 0x46, 0x90, 0x77, 0x6f, 0x93, 0xb0, 0x82, 0x6a, 0x91,
  0x8f, 0x8b, 0xa5, 0x86, 0x95, 0x8b, 0xa9, 0x67, 0x8f, 0x8e, 0x85, 0xb3,
  0x4a, 0x7b, 0x79, 0x85, 0x73, 0x85, 0x74, 0x9e, 0x6f, 0x5e, 0x97, 0x51,
  0x8d, 0x87, 0x90, 0x4a, 0x7c, 0xa6, 0xa0, 0x70, 0x93, 0x95, 0x7f, 0x4f,
  0x88, 0x8b, 0x54, 0x75, 0x7c, 0x8b, 0x49, 0x9a, 0x76, 0xad, 0xa0, 0x9e,
  0xc7, 0xc8, 0x4a, 0x82, 0x90, 0x71, 0x7d, 0x4e, 0x6e, 0xcd, 0x7a, 0x7a,
  0x76, 0x88, 0x9a, 0x9d, 0xbe, 0x72, 0x35, 0x83, 0x47, 0xbb, 0x94, 0x61,
  0xdd, 0xa5, 0x73, 0x80, 0x67, 0x72, 0xa3, 0xa9, 0x88, 0x6e, 0x61, 0xa3,
  0x50, 0x8c, 0x6d, 0xb1, 0xcf, 0x7e, 0x77, 0x6a, 0x78, 0x8d, 0x88, 0x5b,
  0x9c, 0x78, 0x92, 0x78, 0x94, 0x60, 0x98, 0x90, 0xc4, 0xaa, 0x95, 0x75,
  0x8d, 0x8e, 0x96, 0x92, 0xb4, 0xa5, 0xa6, 0x69, 0x72, 0x72, 0x88, 0x5c,
  0x86, 0xab, 0x83, 0x83, 0x39, 0x85, 0x6e, 0x7e, 0xb1, 0x52, 0x82, 0x84,
  0x62, 0x4b, 0x84, 0x91, 0xbf, 0x7f, 0x92, 0xb3, 0x79, 0x7a, 0x68, 0x9e,
  0x7d, 0xd3, 0x8c, 0x59, 0x79, 0x67, 0x8d, 0xb0, 0x99, 0x43, 0x88, 0x6e,
  0x76, 0x6f, 0x9c, 0x80, 0x64, 0x7e, 0x7c, 0x8b, 0x6f, 0x78, 0x5c, 0x64,
  0x7a, 0x84, 0x98, 0x70, 0x7d, 0x8d, 0x84, 0x70, 0xa0, 0x83, 0x9c, 0x5a,
  0x67, 0x8d, 0x7f, 0x90, 0xa3, 0xc5, 0x82, 0x6b, 0x54, 0x8a, 0x93, 0x7a,
  0x9d, 0x7d, 0x9f, 0x57, 0x62, 0x5d, 0xa8, 0x9d, 0x89, 0x70, 0x79, 0x53,
  0x76, 0x76, 0x8a, 0x94, 0x8a, 0xce, 0x72, 0x99, 0x6c, 0x90, 0x76, 0x6a,
  0x8b, 0xb3, 0x95, 0xaa, 0x50, 0x6f, 0x8b, 0x57, 0x9c, 0xae, 0x6a, 0x94,
  0x6e, 0x72, 0xab, 0x98, 0xc1, 0xca, 0x9b, 0x9b, 0x37, 0x91, 0x5d, 0x7c,
  0xb6, 0x54, 0xa3, 0x66, 0x98, 0x67, 0x78, 0x57, 0xb4, 0x84, 0x50, 0x68,
  0x4e, 0x62, 0x75, 0x96, 0xb8, 0x7e, 0x74, 0x84, 0x4e, 0x88, 0x84, 0x8e,
  0xb8, 0x92, 0xaf, 0x67, 0x87, 0x90, 0x63, 0x84, 0xba, 0x8b, 0x6d, 0xa7,
  0xab, 0xaf, 0x61, 0x8d, 0xb8, 0x71, 0x7f, 0x8d, 0x57, 0x91, 0x4c, 0x9c,
  0x89, 0x79, 0x74, 0xa2, 0xb5, 0x7c, 0x62, 0x60, 0x97, 0x9d, 0x66, 0x7b,
  0x65, 0x4e, 0x74, 0x5d, 0x9d, 0x9d, 0x54, 0x68, 0x75, 0x85, 0x85, 0x8c,
  0x97, 0x66, 0x83, 0xad, 0x78, 0x6b, 0x8f, 0x9a, 0x6f, 0xb3, 0x78, 0x3c,
  0x4e, 0x91, 0x9b, 0x8b, 0x63, 0x8f, 0x90, 0x85, 0x5a, 0xa7, 0x8a, 0x75,
  0x95, 0x9a, 0x82, 0x88, 0x51, 0x8b, 0xa9, 0x6a, 0x9a, 0xb0, 0x79, 0x95,
  0x67, 0x9a, 0x80, 0xa2, 0x9e, 0x95, 0x77, 0x7c, 0x82, 0xaf, 0x66, 0xc4,
  0xc8, 0xb1, 0x79, 0x6e, 0x7c, 0x60, 0x50, 0x8c, 0xd0, 0xb8, 0x9a, 0xaa,
  0x5b, 0x60, 0x8d, 0x93, 0xa9, 0x97, 0x88, 0x78, 0x6e, 0x7c, 0x66, 0x54,
  0x9d, 0xac, 0x66, 0x75, 0xa6, 0x68, 0x80, 0x63, 0xb0, 0xae, 0x65, 0x87,
  0x74, 0x5e, 0x67, 0x95, 0x75, 0xab, 0xa8, 0x6f, 0x9d, 0x4f, 0x5c, 0x81,
  0x54, 0xb5, 0x7f, 0xb5, 0x71, 0x9b, 0x72, 0x76, 0x8f, 0x9b, 0x4e, 0x77,
  0x7f, 0x68, 0x69, 0x72, 0xe3, 0x88, 0x87, 0x7c, 0x82, 0x57, 0x9a, 0x64,
  0xde, 0x9d, 0x6b, 0xc2, 0x7c, 0x8e, 0x6b, 0xb1, 0xaa, 0xae, 0x81, 0x7c,
  0x56, 0x99, 0xa9, 0x7a, 0xa6, 0x35, 0x69, 0x73, 0x74, 0xaf, 0x7f, 0xa1,
  0xa7, 0x9b, 0xa3, 0xba, 0x5f, 0x87, 0x62, 0x78, 0x82, 0x95, 0xb2, 0x92,
  0x66, 0x64, 0x8d, 0x74, 0xb1, 0x4c, 0x9d, 0x5d, 0xaf, 0x5c, 0xa5, 0x96,
  0x92, 0xab, 0x91, 0x6a, 0x8b, 0x54, 0x9a, 0x5f, 0x54, 0x7c, 0x89, 0xb2,
  0x9f, 0x69, 0x99, 0x9f, 0x71, 0x6f, 0x63, 0x8d, 0x8e, 0x6b, 0x7e, 0x6a,
  0x44, 0x8e, 0x71, 0x69, 0x87, 0xb3, 0xb7, 0x8f, 0x93, 0x97, 0x93, 0x8f,
  0x8c, 0x74, 0x68, 0x5c, 0x80, 0x82, 0x6a, 0x69, 0xa5, 0x89, 0x82, 0xab,
  0x8e, 0xab, 0x6b, 0x93, 0x85, 0x75, 0xa1, 0x98, 0x80, 0x79, 0x94, 0xa7,
  0x49, 0x7e, 0x4f, 0x9d, 0x91, 0x96, 0x8b, 0x69, 0x66, 0x8d, 0x8d, 0x6f,
  0x7f, 0x95, 0x71, 0xab, 0x43, 0x72, 0x74, 0x7d, 0xab, 0x7e, 0xb3, 0x80,
  0x8f, 0x7d, 0x95, 0xb0, 0x8e, 0x85, 0x7d, 0xa5, 0x78, 0x9b, 0x5a, 0x9a,
  0x88, 0x92, 0x79, 0x80, 0x9d, 0x7d, 0x6e, 0x76, 0x57, 0x86, 0x77, 0x60,
  0x86, 0x94, 0x8c, 0x6f, 0x7b, 0xb2, 0x8f, 0x83, 0xb0, 0x9c, 0x7d, 0x50,
  0xba, 0xb1, 0x6c, 0x9c, 0x8a, 0x6d, 0x7c, 0x8e, 0x5b, 0x61, 0x6d, 0x70,
  0x7e, 0x4f, 0x7f, 0x98, 0xa7, 0xb2, 0x5a, 0x83, 0x3a, 0x6e, 0x76, 0x84,
  0x98, 0xc7, 0xa1, 0x68, 0xbf, 0x4e, 0x48, 0x8a, 0xb9, 0x73, 0x8a, 0x5a,
  0xbd, 0x90, 0x63, 0xbe, 0x96, 0xb2, 0x8c, 0x65, 0x94, 0x8e, 0x76, 0x84,
  0x30, 0x6a, 0x56, 0x83, 0x92, 0x71, 0x9b, 0x7e, 0x56, 0x7b, 0x68, 0x8b,
  0x61, 0x5c, 0x89, 0x6e, 0x57, 0x8c, 0x65, 0x7b, 0x95, 0x8d, 0x52, 0x7f,
  0x9f, 0x6d, 0x4e, 0x79, 0xb6, 0x9f, 0x9e, 0x7a, 0x8a, 0x9d, 0xac, 0x9a,
  0xb2, 0x76, 0x7d, 0xb3, 0x8d, 0xab, 0xb9, 0x7f, 0x62, 0x7c, 0xa0, 0x6a,
  0x77, 0xc8, 0x58, 0x8a, 0x65, 0x5c, 0x4c, 0x8c, 0xa1, 0xbd, 0x3e, 0x80,
  0x68, 0x50, 0x45, 0x59, 0x9e, 0xce, 0xa3, 0x8c, 0x64, 0x85, 0x8d, 0xbf,
  0x6a, 0xa7, 0x92, 0x62, 0x7c, 0x7d, 0x86, 0x63, 0x41, 0x88, 0x9f, 0xa1,
  0x63, 0x95, 0xac, 0x6b, 0x58, 0x95, 0x90, 0x97, 0xab, 0x91, 0x5e, 0x98,
  0x76, 0x6e, 0x8c, 0xa9, 0x65, 0x72, 0x82, 0x9c, 0x76, 0x97, 0x71, 0x6f,
  0xa1, 0x62, 0x8d, 0x83, 0x6f, 0xba, 0x51, 0x69, 0x7b, 0x8a, 0x80, 0xa7,
  0x7c, 0x5e, 0x89, 0x71, 0x78, 0x9d, 0x76, 0x41, 0x9b, 0x6d, 0x4f, 0x99,
  0x7b, 0x9b, 0x86, 0x9a, 0x67, 0xbe, 0xa0, 0x48, 0x9f, 0x8e, 0x58, 0x79,
  0xde, 0xb0, 0x98, 0x9b, 0xc0, 0x8c, 0x58, 0x68, 0x7d, 0xcc, 0x74, 0x4c,
  0x9a, 0x9e, 0xa1, 0x51, 0x31, 0x5e, 0x82, 0x61, 0x88, 0x99, 0xaf, 0x65,
  0x6e, 0x91, 0x78, 0x81, 0x7b, 0x95, 0x91, 0x74, 0x86, 0x9d, 0x5f, 0x86,
  0xa6, 0xb1, 0x97, 0x96, 0x88, 0x7b, 0x59, 0x5a, 0x87, 0x96, 0x98, 0x75,
  0x9b, 0x82, 0xa9, 0x91, 0x72, 0x73, 0x5f, 0x42, 0x6d, 0xa9, 0xaf, 0x96,
  0x76, 0x64, 0xaa, 0x85, 0x57, 0x88, 0xb0, 0xa8, 0x6a, 0x8a, 0x92, 0x9d,
  0x91, 0x78, 0x72, 0x95, 0x8c, 0x74, 0x6b, 0x74, 0x89, 0xb9, 0x57, 0x84,
  0x7a, 0x85, 0x56, 0x5b, 0x63, 0xa4, 0x70, 0x51, 0x7d, 0x64, 0x7b, 0x91,
  0x46, 0x61, 0x7f, 0xbc, 0x8a, 0x8a, 0xae, 0x77, 0x5b, 0x7c, 0x50, 0xa4,
  0x6e, 0x78, 0x70, 0x60, 0x32, 0x91, 0x77, 0x5e, 0x66, 0x62, 0x69, 0x97,
  0x6a, 0x90, 0x51, 0x8a, 0x9e, 0x95, 0x5d, 0x61, 0x6f, 0x69, 0x93, 0x90,
  0x7c, 0xa3, 0x6c, 0x89, 0x83, 0x7d, 0x5b, 0xa7, 0x8d, 0x75, 0x7a, 0x9c,
  0x97, 0x71, 0x4d, 0x92, 0x8c, 0x6a, 0x98, 0x95, 0x9f, 0xdf, 0x82, 0x64,
  0x8d, 0x7b, 0x70, 0x87, 0x76, 0xbe, 0x8e, 0x7b, 0xa7, 0x91, 0xa7, 0x81,
  0x72, 0xb8, 0x91, 0x9b, 0x62, 0x72, 0xa5, 0x92, 0x58, 0x6a, 0x70, 0x64,
  0x34, 0x6a, 0xa4, 0x72, 0x75, 0x64, 0x7d, 0x74, 0x72, 0xad, 0x85, 0xaa,
  0x6f, 0x67, 0x82, 0x5c, 0x87, 0x74, 0x52, 0x81, 0xa0, 0x88, 0x63, 0x64,
  0x8f, 0x9a, 0x8c, 0x85, 0x5b, 0xaa, 0x43, 0xc1, 0x96, 0x6a, 0x68, 0x49,
  0x5a, 0x76, 0xad, 0x76, 0x88, 0x78, 0xb9, 0x8d, 0xb9, 0x90, 0xa9, 0x8f,
  0x56, 0x71, 0x84, 0x4c, 0x77, 0x81, 0x7c, 0x57, 0x68, 0xb0, 0x83, 0x71,
  0x81, 0xb0, 0x84, 0x97, 0x5a, 0x9e, 0x7c, 0x88, 0x9f, 0x47, 0x85, 0x6a,
  0x90, 0xa8, 0x8a, 0x6c, 0x6d, 0x5a, 0x54, 0xb2, 0x62, 0x84, 0x66, 0xaf,
  0x8c, 0x87, 0xa3, 0x89, 0x86, 0x6b, 0x85, 0x66, 0x3f, 0x52, 0x6a, 0x7d,
  0x9c, 0x96, 0xa6, 0xa3, 0x6f, 0x8a, 0x5d, 0x90, 0x7c, 0x48, 0x55, 0xa3,
  0x6e, 0x9a, 0x7e, 0xa6, 0x40, 0x78, 0x94, 0x9a, 0x3f, 0x99, 0x9a, 0x74,
  0x6f, 0x92, 0x74, 0x52, 0x88, 0xa4, 0x48, 0x60, 0x80, 0x75, 0x8b, 0x9f,
  0xa9, 0x9c, 0x49, 0x69, 0x8d, 0xa0, 0xaf, 0x91, 0x87, 0x95, 0x7c, 0xb8,
  0x85, 0x85, 0x85, 0x5a, 0x6b, 0xa8, 0x89, 0x4e, 0x81, 0x89, 0x8c, 0x8f,
  0x52, 0x54, 0x8e, 0x84, 0x92, 0x7a, 0x8f, 0x7a, 0xa2, 0x70, 0x93, 0x9d,
  0x6a, 0x56, 0x96, 0x95, 0x7d, 0x6b, 0x63, 0x5d, 0x71, 0x8d, 0x75, 0x7c,
  0x87, 0x87, 0xb2, 0xc0, 0x81, 0x71, 0x6f, 0x82, 0x9d, 0xaa, 0x7c, 0x78,
  0xb4, 0x73, 0x81, 0x59, 0x94, 0x56, 0x86, 0x84, 0x5a, 0x89, 0x71, 0x9a,
  0x6f, 0x8e, 0x7e, 0x46, 0x66, 0x7d, 0xb2, 0x59, 0x9d, 0xd2, 0x3a, 0x7e,
  0x77, 0x9b, 0x9f, 0x96, 0xa3, 0x9d, 0x4d, 0x87, 0x48, 0x60, 0x70, 0x44,
  0x7b, 0x87, 0x84, 0x54, 0x52, 0xa6, 0x5c, 0x65, 0x6b, 0x94, 0x68, 0x8a,
  0x77, 0x8a, 0x74, 0x8b, 0x66, 0x8f, 0x77, 0x5b, 0x48, 0xbb, 0x87, 0x68,
  0x8e, 0x76, 0x81, 0xb0, 0xa0, 0x92, 0xa0, 0x8b, 0x98, 0x76, 0x78, 0xae,
  0x7a, 0xa6, 0x66, 0x41, 0x67, 0x73, 0x4f, 0x7b, 0x8a, 0x92, 0x68, 0x69,
  0x68, 0x82, 0x94, 0x8e, 0x4c, 0x62, 0x9f, 0x6e, 0x95, 0x88, 0x5a, 0x75,
  0x98, 0x8b, 0x6e, 0x8c, 0x80, 0xca, 0x6f, 0x49, 0x69, 0x7e, 0x57, 0x80,
  0xb3, 0xbc, 0xa4, 0x92, 0x8a, 0x7f, 0xab, 0x8c, 0xaa, 0x98, 0x5e, 0x96,
  0xb3, 0x7e, 0x6d, 0x8b, 0x88, 0x5a, 0x5b, 0xa3, 0x80, 0x8f, 0x96, 0x91,
  0x7a, 0x8e, 0xa6, 0x7f, 0x8c, 0x9c, 0x88, 0x6a, 0xb6, 0x44, 0x88, 0x66,
  0x79, 0xa9, 0x5f, 0xbb, 0xb6, 0x8d, 0x71, 0x81, 0x7d, 0x76, 0x8e, 0x72,
  0x91, 0x80, 0x6f, 0x4f, 0x3f, 0xbd, 0x5d, 0x8c, 0x7c, 0x60, 0x6c, 0x67,
  0x9b, 0x6a, 0x4f, 0x7b, 0x78, 0x98, 0x4b, 0x45, 0x89, 0x4f, 0x68, 0x93,
  0xaf, 0x86, 0x72, 0x57, 0x63, 0x7a, 0x8b, 0x6d, 0x77, 0xc2, 0x86, 0x60,
  0xb4, 0x75, 0x93, 0x6f, 0x59, 0x5a, 0x99, 0x53, 0x84, 0x86, 0x62, 0xa1,
  0x5e, 0x4e, 0x5c, 0x95, 0x40, 0x84, 0x80, 0x73, 0x39, 0x6e, 0x8c, 0x87,
  0x59, 0xae, 0x7f, 0x86, 0x5c, 0x8b, 0x99, 0x90, 0x9b, 0x70, 0xa5, 0x9a,
  0x81, 0x7c, 0x9d, 0x67, 0x74, 0x95, 0x8b, 0x8a, 0x9e, 0xaa, 0x8b, 0x5d,
  0x98, 0x74, 0x49, 0x4c, 0x57, 0x49, 0x76, 0x61, 0x65, 0x68, 0x83, 0x86,
  0x8d, 0x67, 0x91, 0x74, 0x81, 0x93, 0x8a, 0xaf, 0xbd, 0xc5, 0x78, 0x50,
  0xae, 0x5f, 0x8d, 0x96, 0xd3, 0xb9, 0x59, 0x93, 0x6a, 0xa6, 0xbf, 0x70,
  0x88, 0x8d, 0x87, 0x7b, 0x8c, 0x97, 0x8a, 0x66, 0x7f, 0x69, 0x66, 0xa5,
  0x83, 0xa7, 0x6b, 0x72, 0x70, 0x83, 0x95, 0x88, 0x69, 0x4f, 0xa9, 0xb5,
  0x8f, 0x98, 0x4e, 0xa7, 0x81, 0x5b, 0x57, 0xa9, 0x96, 0xa3, 0x51, 0xab,
  0x93, 0x70, 0x4e, 0x6f, 0x65, 0x73, 0x9e, 0x9f, 0x93, 0x7d, 0xb0, 0x63,
  0x82, 0x6e, 0xae, 0xa1, 0x6e, 0xa3, 0xa6, 0x40, 0x77, 0x71, 0x91, 0x90,
  0xa3, 0x91, 0x4e, 0x76, 0x77, 0x89, 0xa8, 0x8d, 0x5f, 0x6e, 0xa4, 0x7e,
  0x88, 0x9e, 0x7e, 0x9c, 0x96, 0x7a, 0x72, 0x9e, 0x76, 0x98, 0x7a, 0xb3,
  0x86, 0x7e, 0x83, 0x59, 0x78, 0x96, 0x78, 0x7f, 0x57, 0x8e, 0x64, 0x96,
  0x88, 0x9c, 0x8b, 0x57, 0x91, 0x88, 0x45, 0x98, 0x39, 0x8c, 0x78, 0x52,
  0x73, 0x63, 0x6e, 0xb4, 0x9b, 0x56, 0x98, 0x95, 0xb6, 0xa4, 0x7c, 0x91,
  0x4f, 0x81, 0x96, 0x7b, 0x5f, 0x90, 0x82, 0x6e, 0x48, 0x7f, 0x8a, 0x56,
  0x9d, 0x6a, 0x87, 0x90, 0x7e, 0x98, 0x9a, 0x6e, 0xa0, 0xb9, 0x41, 0x92,
  0x8c, 0xab, 0x7c, 0x6a, 0xb6, 0x90, 0x59, 0x7a, 0x69, 0x9c, 0x6c, 0xa0,
  0x76, 0x8e, 0x64, 0x3f, 0x66, 0x9c, 0x94, 0x9c, 0x84, 0x52, 0x6e, 0x83,
  0x61, 0x96, 0x78, 0x71, 0xa2, 0x9d, 0x78, 0x55, 0x8a, 0x8f, 0xad, 0x9f,
  0x43, 0x6b, 0x8d, 0x73, 0x77, 0x81, 0x9a, 0x82, 0x8b, 0x71, 0x7c, 0x77,
  0x70, 0xa1, 0x85, 0xab, 0x9e, 0x5c, 0xa9, 0x51, 0x64, 0x83, 0xa9, 0x52,
  0x72, 0x53, 0x8b, 0x74, 0xb5, 0x40, 0x60, 0x83, 0x6e, 0x8a, 0x86, 0x93,
  0x56, 0xad, 0x7b, 0x58, 0x70, 0x94, 0x75, 0x73, 0xb3, 0xb4, 0x96, 0x78,
  0x4c, 0xb6, 0x54, 0x98, 0x75, 0x62, 0x80, 0xa6, 0x7d, 0x94, 0x8e, 0x7e,
  0x7e, 0x9d, 0x60, 0x5b, 0x5c, 0x6f, 0x9a, 0x79, 0x6d, 0x48, 0x4f, 0xa5,
  0x85, 0x52, 0x6c, 0x62, 0x70, 0x90, 0x77, 0x6b, 0x6f, 0x68, 0x51, 0xa3,
  0x6c, 0x77, 0xa3, 0x90, 0x81, 0x49, 0x6c, 0x68, 0x5d, 0x61, 0x6b, 0xa1,
  0x8b, 0x70, 0x75, 0x9b, 0x81, 0x93, 0x4a, 0x82, 0xa6, 0xae, 0xa6, 0x75,
  0x62, 0x6a, 0x6c, 0x9a, 0x9f, 0xa8, 0x9a, 0x71, 0x8b, 0x53, 0x8c, 0x9d,
  0x86, 0x62, 0x57, 0x73, 0x76, 0xa5, 0x4f, 0x85, 0x7d, 0x8c, 0x84, 0x99,
  0xbb, 0xb2, 0x8b, 0x77, 0xa7, 0x67, 0x52, 0x92, 0x64, 0x9f, 0x97, 0x72,
  0x81, 0x7b, 0x62, 0x8f, 0xa5, 0x6c, 0x8d, 0x6e, 0x8a, 0x69, 0x4f, 0xb6,
  0x6e, 0x83, 0x86, 0x69, 0xb2, 0x54, 0x7e, 0x71, 0x78, 0x8c, 0x84, 0x64,
  0xba, 0x88, 0xa6, 0x61, 0x77, 0x86, 0x7f, 0x73, 0x5a, 0x80, 0x78, 0x7b,
  0x66, 0x8b, 0x72, 0x64, 0x92, 0x96, 0x8d, 0x5f, 0x98, 0x61, 0x84, 0x93,
  0x8c, 0xaa, 0x6d, 0x8b, 0x8a, 0xb5, 0x82, 0x90, 0x78, 0x89, 0x99, 0x74,
  0x8d, 0x8e, 0x88, 0xa7, 0x83, 0x82, 0x77, 0x7c, 0xac, 0x87, 0x96, 0xa6,
  0x99, 0x98, 0x7f, 0x99, 0x7d, 0xb6, 0x7e, 0x81, 0x77, 0x77, 0x6c, 0x8f,
  0x8b, 0x4b, 0x4e, 0x4b, 0x8f, 0x8e, 0xb2, 0x67, 0x80, 0xa3, 0x7b, 0x85,
  0x9b, 0xad, 0x9b, 0xa3, 0x94, 0xba, 0x8e, 0x6c, 0x85, 0x97, 0x96, 0x6f,
  0x7b, 0x67, 0x6b, 0x87, 0xaf, 0xa9, 0xb0, 0x85, 0x76, 0x76, 0x74, 0x5c,
  0xb1, 0x95, 0x72, 0x61, 0x7b, 0xa6, 0x6c, 0x74, 0x9a, 0x8b, 0x83, 0x65,
  0xa6, 0xa0, 0xb2, 0x67, 0x9b, 0xba, 0x8c, 0x76, 0xa9, 0x5a, 0x82, 0x57,
  0x70, 0x6c, 0x95, 0x76, 0x9b, 0x58, 0xa4, 0x78, 0x6b, 0x4c, 0x64, 0x8b,
  0x80, 0xaf, 0x8d, 0x7c, 0xba, 0x7c, 0x89, 0x68, 0x82, 0x9a, 0x80, 0xad,
  0x67, 0x9c, 0xb6, 0x8d, 0xa2, 0x9b, 0xa1, 0x88, 0x53, 0x73, 0x8c, 0xab,
  0x8d, 0x91, 0x74, 0x9b, 0x85, 0x8b, 0x4a, 0x77, 0x80, 0x99, 0x70, 0x74,
  0x63, 0x9a, 0x68, 0x4f, 0x54, 0x87, 0x8c, 0x6a, 0x60, 0x85, 0x80, 0x6d,
  0x75, 0x8e, 0x68, 0x84, 0x92, 0x68, 0xab, 0xae, 0x5a, 0x7c, 0x91, 0x68,
  0x75, 0x73, 0x9d, 0xaa, 0x44, 0x53, 0x78, 0xa0, 0xa2, 0x7a, 0x7d, 0x70,
  0x80, 0x64, 0x71, 0x92, 0x94, 0x76, 0x6b, 0x73, 0x69, 0x49, 0x63, 0x8a,
  0x61, 0xa0, 0x82, 0x59, 0x88, 0x81, 0x82, 0x84, 0xb0, 0x84, 0x6d, 0x9a,
  0x9e, 0x59, 0x97, 0x46, 0x5d, 0x7e, 0xbe, 0x57, 0x88, 0x77, 0x8f, 0x75,
  0x73, 0x5b, 0x7a, 0x60, 0x84, 0x8e, 0x5f, 0x9b, 0x7e, 0x52, 0x78, 0x6b,
  0x77, 0x92, 0x88, 0x96, 0xa1, 0x9b, 0xb8, 0x7d, 0x9f, 0xb5, 0x68, 0x9b,
  0x81, 0x60, 0xc0, 0x67, 0x7b, 0x90, 0x9d, 0x96, 0xbe, 0xb1, 0xb6, 0x79,
  0x98, 0x84, 0x77, 0x6d, 0xa5, 0x90, 0xb4, 0x52, 0x64, 0x94, 0xa2, 0x7c,
  0xa5, 0x8a, 0x84, 0x7a, 0x9d, 0xae, 0x77, 0x99, 0xa7, 0x62, 0x4b, 0x51,
  0x6e, 0x63, 0x97, 0x91, 0x64, 0x49, 0x6c, 0x83, 0x98, 0xb8, 0xa7, 0x85,
  0x4a, 0x89, 0x7a, 0x65, 0x65, 0x8a, 0x71, 0x57, 0x8e, 0x73, 0x6c, 0x7a,
  0x79, 0x5a, 0x67, 0x6e, 0x89, 0x4a, 0xa1, 0x65, 0x5f, 0x6b, 0x8c, 0x74,
  0x5e, 0x70, 0x7c, 0x8c, 0x85, 0x70, 0x8a, 0x78, 0x52, 0xbc, 0x52, 0x71,
  0x83, 0x97, 0x7f, 0x8f, 0x8a, 0x65, 0x69, 0x86, 0x95, 0x7b, 0x7d, 0x92,
  0x62, 0x79, 0xb2, 0x7e, 0xac, 0x61, 0x73, 0xad, 0x79, 0xc0, 0x84, 0x9c,
  0xa4, 0xa9, 0x82, 0x61, 0x67, 0x9a, 0x87, 0xb2, 0xa2, 0x68, 0xa2, 0x60,
  0x67, 0xa8, 0xa0, 0x89, 0xa4, 0x77, 0x4f, 0x85, 0x84, 0x79, 0x72, 0xa7,
  0xac, 0x68, 0x50, 0x7d, 0x9c, 0x9b, 0x84, 0x73, 0x75, 0x9c, 0x6b, 0x76,
  0xb0, 0xb4, 0xc3, 0x74, 0x78, 0x92, 0x82, 0x9a, 0x86, 0x66, 0x97, 0x75,
  0x85, 0x9e, 0x8a, 0xa3, 0x98, 0x70, 0x7f, 0x8a, 0x89, 0x84, 0xbd, 0x58,
  0xb2, 0xb4, 0x62, 0x87, 0x95, 0x7e, 0x98, 0x8d, 0x82, 0x42, 0x72, 0x8a,
  0xa2, 0x60, 0x90, 0x7e, 0x8f, 0x77, 0x90, 0x81, 0xa3, 0x7b, 0x70, 0x87,
  0x66, 0xb3, 0x93, 0xa5, 0x83, 0x72, 0x9e, 0x70, 0x87, 0xb3, 0x8a, 0x6a,
  0x73, 0x6f, 0x69, 0x7a, 0x83, 0xa9, 0x7a, 0x9e, 0x7a, 0x97, 0x84, 0x88,
  0xb2, 0x7e, 0x8a, 0x71, 0x98, 0xae, 0x9a, 0x88, 0x74, 0x8a, 0xa8, 0x95,
  0x75, 0x57, 0x74, 0xab, 0xae, 0x8e, 0xaa, 0x75, 0x7f, 0x65, 0xac, 0x87,
  0xa7, 0xa4, 0x73, 0x9e, 0x7c, 0x62, 0x9a, 0x74, 0x84, 0x8b, 0x6d, 0x6f,
  0x79, 0x66, 0x62, 0x75, 0x84, 0xaa, 0x92, 0x85, 0x80, 0x93, 0x57, 0x77,
  0x6d, 0x7e, 0x4d, 0x6c, 0x9f, 0xa7, 0x5a, 0xa3, 0x6c, 0x75, 0x9a, 0xa4,
  0x78, 0x73, 0x72, 0x9a, 0x74, 0x6e, 0x83, 0x77, 0xb9, 0x6e, 0x44, 0x98,
  0x54, 0x5c, 0x7c, 0x80, 0x6b, 0x7c, 0x8d, 0x7f, 0xbf, 0x84, 0x7d, 0x6a,
  0x71, 0x85, 0x80, 0xad, 0x96, 0x9f, 0x8b, 0x82, 0x88, 0xc9, 0x81, 0x96,
  0x8a, 0x63, 0xa4, 0x80, 0x93, 0x86, 0x8f, 0xbc, 0x9b, 0x6b, 0x43, 0x97,
  0xa5, 0x5f, 0x53, 0x5a, 0x78, 0x8b, 0xac, 0x72, 0xc1, 0xa0, 0xa3, 0x81,
  0x85, 0xa3, 0xc0, 0x5c, 0xb4, 0x9c, 0x53, 0x98, 0x89, 0x7c, 0x67, 0x8e,
  0xb4, 0xb3, 0x83, 0x77, 0x80, 0x99, 0x94, 0xa1, 0x7e, 0x82, 0x66, 0xb0,
  0xbd, 0x79, 0xbf, 0x80, 0x94, 0x6a, 0x67, 0x5a, 0x5e, 0x9c, 0x68, 0x7b,
  0x91, 0x8a, 0x70, 0x96, 0x67, 0x5c, 0x72, 0x70, 0x74, 0x97, 0x77, 0xa5,
  0x9a, 0x80, 0x6a, 0x58, 0x9d, 0x62, 0x7c, 0xa4, 0x74, 0x94, 0x69, 0xa0,
  0x77, 0x73, 0x76, 0x73, 0x6e, 0x43, 0x85, 0xac, 0x85, 0xa0, 0x72, 0x8a,
  0xab, 0x70, 0xb9, 0x64, 0x67, 0x7b, 0x52, 0x72, 0xab, 0x6f, 0x70, 0x8e,
  0x8d, 0x91, 0x9a, 0x4b, 0x94, 0x81, 0x95, 0x61, 0x8c, 0x4c, 0x95, 0xa9,
  0x74, 0x65, 0xad, 0x63, 0xc1, 0xa3, 0x5c, 0xaa, 0x6f, 0x70, 0x96, 0x85,
  0xdf, 0xc4, 0x95, 0x6e, 0x6b, 0x95, 0x96, 0x78, 0x93, 0xaa, 0x92, 0xb0,
  0x9a, 0x5e, 0x84, 0xac, 0xab, 0x9c, 0x91, 0x97, 0x51, 0x6d, 0xa0, 0x90,
  0x7f, 0x9f, 0x80, 0x4b, 0x80, 0x60, 0xa1, 0x6a, 0x85, 0x9c, 0x8d, 0x77,
  0xa7, 0x7b, 0xbd, 0x7a, 0xa8, 0x9a, 0x5a, 0x5a, 0x59, 0xb0, 0xbf, 0x86,
  0x9b, 0x83, 0x8f, 0x5f, 0x78, 0x78, 0x91, 0x61, 0xc8, 0x90, 0xa0, 0x47,
  0x91, 0x82, 0x58, 0x61, 0xc2, 0xac, 0x8c, 0x69, 0x71, 0x61, 0x7a, 0x96,
  0xb5, 0x7e, 0x6c, 0x71, 0x97, 0xa2, 0x84, 0x46, 0xaf, 0x9e, 0x82, 0x5b,
  0x84, 0xa7, 0x7f, 0x5f, 0xc7, 0x7e, 0x85, 0x78, 0x9b, 0x85, 0x8b, 0x95,
  0x9c, 0x99, 0x6a, 0x90, 0x7f, 0x89, 0x8c, 0x70, 0x8e, 0x5f, 0x4e, 0x6d,
  0x82, 0xb3, 0x7a, 0x70, 0x9e, 0xa2, 0x9c, 0xae, 0x72, 0x80, 0x7c, 0xb4,
  0xc7, 0x64, 0x6e, 0x61, 0x83, 0xb0, 0x8a, 0x50, 0x92, 0x60, 0x97, 0x8b,
  0xa5, 0xa7, 0xa5, 0x8d, 0x8c, 0x87, 0x6a, 0x90, 0x80, 0x88, 0xa7, 0xa6,
  0x82, 0x7b, 0x87, 0x8e, 0x93, 0x63, 0x50, 0x7f, 0x93, 0xba, 0x48, 0x5e,
  0x86, 0x7b, 0x6c, 0x7c, 0x7a, 0x82, 0x9d, 0x91, 0x8f, 0x8a, 0x6b, 0x85,
  0x81, 0x6e, 0x6d, 0x7c, 0x7f, 0x70, 0x78, 0x5f, 0x89, 0xad, 0x6c, 0x90,
  0x83, 0x73, 0x86, 0x9a, 0xaa, 0xaf, 0x9a, 0x69, 0x8a, 0x7c, 0x58, 0x9e,
  0x76, 0x91, 0x8a, 0x79, 0x56, 0x57, 0xa5, 0x74, 0x93, 0x6a, 0x70, 0x5d,
  0x63, 0x7e, 0xa4, 0xa8, 0x96, 0x78, 0x99, 0x6d, 0x61, 0x77, 0x7c, 0x76,
  0xe1, 0xa1, 0xa3, 0x8e, 0x78, 0x6b, 0xa4, 0x8a, 0x8e, 0x92, 0xaf, 0x7f,
  0x5d, 0x99, 0xa1, 0xaa, 0xc7, 0x99, 0x92, 0x74, 0xa9, 0x66, 0x70, 0x7a,
  0x99, 0x91, 0xa2, 0x7a, 0x82, 0x91, 0x9a, 0x79, 0x7a, 0xa4, 0xab, 0x70,
  0x58, 0x9d, 0xb8, 0x8d, 0xce, 0x95, 0x90, 0x65, 0x8b, 0x82, 0x47, 0x7f,
  0x8f, 0x90, 0x9a, 0x5a, 0xab, 0x96, 0x96, 0x97, 0xb8, 0x5f, 0x89, 0xa9,
  0x78, 0x87, 0x8a, 0x67, 0x9b, 0xb6, 0x86, 0x91, 0x9c, 0x6a, 0x7e, 0x92,
  0x78, 0x96, 0xc2, 0x75, 0x6b, 0x8a, 0x92, 0xb2, 0x73, 0xa2, 0xa4, 0xaa,
  0x80, 0x82, 0x8e, 0x77, 0x7f, 0x87, 0x71, 0x93, 0x5d, 0x77, 0x72, 0x7d,
  0x8d, 0xa4, 0x80, 0x8c, 0xa4, 0xa1, 0x68, 0x89, 0x7e, 0x7f, 0x6b, 0x86,
  0xa1, 0x8d, 0x58, 0xb4, 0x8b, 0xa9, 0x99, 0x83, 0xab, 0x7e, 0x87, 0x95,
  0xa9, 0x5c, 0x6f, 0xbc, 0x9b, 0xa3, 0x90, 0x9d, 0x7e, 0xb8, 0xa3, 0xb2,
  0x81, 0x5f, 0x9d, 0x6a, 0x75, 0xc1, 0x83, 0xa4, 0x6e, 0x77, 0x43, 0xbc,
  0x66, 0x80, 0x6c, 0xa2, 0x6d, 0x55, 0x8a, 0x91, 0x95, 0x8c, 0x4b, 0x56,
  0x82, 0x94, 0xa0, 0x7a, 0xaa, 0xb2, 0xb9, 0xc4, 0xaa, 0x8a, 0x44, 0x5b,
  0x9c, 0x9d, 0x7a, 0x9c, 0x8d, 0x86, 0x58, 0x67, 0xc4, 0x89, 0x80, 0x49,
  0xa9, 0x89, 0x88, 0x85, 0x74, 0x95, 0x8d, 0xac, 0xa7, 0x8f, 0x6e, 0x87,
  0x97, 0xc0, 0xaf, 0x8e, 0x86, 0x84, 0x76, 0x82, 0x7c, 0x85, 0x6f, 0x92,
  0x8b, 0xbe, 0x5f, 0x80, 0x85, 0x9e, 0x8e, 0xa5, 0x96, 0x5f, 0x6f, 0x9e,
  0xae, 0xb0, 0x72, 0x99, 0x77, 0xb8, 0x65, 0x6e, 0x81, 0x9e, 0x9e, 0x9c,
  0x9a, 0x5c, 0x8c, 0xac, 0xa8, 0x94, 0xc0, 0x6e, 0xb7, 0x81, 0x50, 0x81,
  0x55, 0x69, 0x8a, 0x7b, 0x82, 0x5e, 0x8a, 0xa6, 0x6b, 0x74, 0x7b, 0xad,
  0x8e, 0x8c, 0x91, 0x82, 0x73, 0x95, 0x61, 0x9a, 0x84, 0xb7, 0x9a, 0x77,
  0x90, 0x7b, 0x8b, 0xb9, 0x62, 0xa6, 0x9b, 0x59, 0x81, 0x9c, 0x83, 0x53,
  0x74, 0x8e, 0xa2, 0x82, 0x9e, 0x69, 0x78, 0x9d, 0x9c, 0xba, 0x73, 0x74,
  0x8f, 0x8c, 0x92, 0x50, 0x60, 0x6a, 0x83, 0xb1, 0x8a, 0x82, 0x66, 0x7b,
  0x70, 0x5f, 0xa3, 0xbb, 0x77, 0x5a, 0x6b, 0x5c, 0x4d, 0x8a, 0x81, 0xa2,
  0x97, 0x9d, 0x7d, 0xbe, 0xa9, 0x71, 0x5b, 0x71, 0x78, 0xab, 0xb4, 0xa6,
  0x83, 0x7b, 0x7c, 0x81, 0x75, 0x57, 0xa4, 0x5d, 0x8f, 0x73, 0xad, 0x50,
  0x8f, 0x88, 0x9b, 0x91, 0x7d, 0x6e, 0xb7, 0x75, 0xad, 0x71, 0x68, 0x9c,
  0xa0, 0x78, 0x88, 0x87, 0x94, 0xae, 0x8c, 0x54, 0xb9, 0x59, 0x8a, 0x4c,
  0x8d, 0x7a, 0x93, 0xaf, 0x6f, 0xb9, 0x8d, 0xa0, 0x50, 0x9d, 0xa4, 0x5b,
  0x6e, 0x70, 0x6e, 0x7a, 0x89, 0x8c, 0x76, 0x6b, 0xc6, 0x85, 0x4d, 0x86,
  0x7e, 0x7c, 0xc1, 0xb5, 0xa3, 0x6f, 0x8f, 0x66, 0x8b, 0xc0, 0x81, 0x99,
  0x71, 0x82, 0x87, 0x57, 0x78, 0x64, 0xaf, 0x98, 0x5d, 0x64, 0x6a, 0x67,
  0xcb, 0x95, 0x80, 0xb4, 0x90, 0x7c, 0x87, 0xa0, 0x7e, 0xa5, 0x84, 0x86,
  0x55, 0x69, 0x77, 0x87, 0x6b, 0x94, 0x70, 0xa0, 0x52, 0x99, 0x66, 0x72,
  0x93, 0x68, 0x86, 0x4f, 0x40, 0x7d, 0x86, 0x85, 0x8f, 0x57, 0x63, 0x67,
  0x59, 0x9e, 0x88, 0xac, 0x8a, 0xa2, 0x93, 0x5f, 0x81, 0x5a, 0x9b, 0x79,
  0x8b, 0xb3, 0x87, 0x94, 0x76, 0x72, 0x81, 0x73, 0x67, 0x8b, 0x5f, 0x39,
  0x51, 0x6c, 0x8c, 0x89, 0x76, 0x59, 0x6a, 0x62, 0x86, 0x63, 0x8f, 0x70,
  0x76, 0xbe, 0x8e, 0xa6, 0xa3, 0x52, 0x70, 0x92, 0x9f, 0x8e, 0x78, 0x78,
  0x82, 0x79, 0x89, 0x85, 0xaf, 0x7f, 0x92, 0x79, 0x73, 0x67, 0xb1, 0x75,
  0x6a, 0x99, 0xa8, 0xb3, 0xbe, 0x7d, 0x84, 0xb0, 0xa7, 0x99, 0x7f, 0x9c,
  0xa0, 0x4f, 0x73, 0x6a, 0x76, 0x7b, 0x6b, 0x97, 0x8c, 0x6d, 0x98, 0x94,
  0x4d, 0xac, 0x86, 0x9d, 0x7a, 0x8f, 0x97, 0xa1, 0x94, 0x8b, 0xa3, 0x4b,
  0x5b, 0x84, 0xa7, 0x95, 0x69, 0x75, 0x8f, 0x9e, 0x7d, 0x7f, 0x59, 0x74,
  0x88, 0x92, 0xa9, 0x94, 0x9a, 0x87, 0x7b, 0x7e, 0x5c, 0x94, 0xa7, 0x82,
  0x59, 0x6a, 0xac, 0x53, 0x88, 0x64, 0x97, 0x84, 0xae, 0x8c, 0x8f, 0xaf,
  0xc4, 0xa0, 0x78, 0x6e, 0xa5, 0x6d, 0x89, 0x73, 0xb2, 0x89, 0x95, 0x93,
  0xa8, 0x82, 0x5b, 0x6c, 0x9d, 0x62, 0x63, 0x5f, 0x4e, 0x8e, 0x65, 0x8a,
  0x90, 0x6b, 0x75, 0xa3, 0x76, 0x6a, 0x81, 0x89, 0x8c, 0xb2, 0x64, 0x48,
  0x8f, 0x91, 0x76, 0x87, 0xae, 0x95, 0xc1, 0x70, 0x9d, 0x5d, 0x68, 0x74,
  0x69, 0x74, 0x92, 0x7e, 0x68, 0x7a, 0x78, 0x93, 0x8e, 0x7c, 0x98, 0x61,
  0x89, 0x7c, 0x65, 0x4c, 0x73, 0xa3, 0x89, 0x8e, 0xac, 0x4d, 0x53, 0xa1,
  0x63, 0x6b, 0x73, 0x62, 0x89, 0x8b, 0x92, 0x6a, 0xb8, 0x94, 0x9e, 0x88,
  0xa3, 0x83, 0x73, 0x87, 0x70, 0x6e, 0xa0, 0x7f, 0x99, 0x92, 0xbf, 0x77,
  0x5b, 0x8c, 0x8a, 0x7b, 0x93, 0x69, 0x87, 0x69, 0x65, 0xa7, 0x8b, 0xac,
  0x70, 0x58, 0x9d, 0x8c, 0x99, 0x87, 0x84, 0x66, 0x7a, 0x75, 0x93, 0x93,
  0x82, 0x84, 0x91, 0x81, 0x79, 0x7d, 0x80, 0x53, 0xb0, 0x9c, 0x53, 0xb1,
  0x8d, 0x69, 0x63, 0x93, 0x67, 0x83, 0xc2, 0x73, 0x64, 0x7b, 0x89, 0xa7,
  0x67, 0x51, 0x6c, 0x54, 0x8d, 0xb2, 0x4f, 0x56, 0xa3, 0x77, 0x7c, 0xa5,
  0x80, 0x85, 0x91, 0xa1, 0xa7, 0x76, 0x58, 0xbf, 0xac, 0x6b, 0x68, 0x64,
  0x63, 0x85, 0x4e, 0x62, 0x92, 0x9d, 0x84, 0x6b, 0x8d, 0x7b, 0x8a, 0x85,
  0x82, 0xa6, 0x4e, 0x65, 0xa6, 0x76, 0xa7, 0x7e, 0x7b, 0x61, 0x80, 0x89,
  0x82, 0x76, 0x8c, 0x7f, 0x85, 0x9b, 0x9e, 0xbe, 0x71, 0x6b, 0x75, 0x79,
  0x79, 0x87, 0x7b, 0x70, 0x95, 0x5f, 0x8a, 0x47, 0x4b, 0x65, 0x5e, 0x71,
  0x91, 0x6f, 0x77, 0x7f, 0x86, 0xbe, 0x76, 0x82, 0x63, 0x6e, 0xa4, 0x5d,
  0x81, 0x7d, 0x7f, 0x98, 0x94, 0x79, 0xae, 0x96, 0x99, 0x74, 0x9a, 0x8a,
  0x9b, 0x81, 0x82, 0xab, 0xa2, 0x4f, 0x60, 0x86, 0x64, 0x98, 0x94, 0x73,
  0x8f, 0x5f, 0xa7, 0xa6, 0x81, 0x92, 0x9f, 0x92, 0x9a, 0x66, 0x9a, 0x79,
  0xab, 0x87, 0x76, 0x67, 0x8a, 0xa8, 0x66, 0x60, 0x78, 0x87, 0xa3, 0x9f,
  0x9e, 0x77, 0x74, 0xa1, 0x5f, 0x83, 0x73, 0x46, 0x93, 0x78, 0x89, 0x82,
  0x9c, 0x67, 0xa9, 0x65, 0x85, 0x92, 0x6a, 0xb5, 0x81, 0xb4, 0x89, 0x46,
  0x5f, 0x8e, 0x6b, 0xb8, 0x6f, 0x84, 0x71, 0x58, 0xa0, 0x7a, 0x9f, 0x73,
  0xab, 0x88, 0x83, 0x95, 0xa2, 0x76, 0x74, 0x99, 0x81, 0xa4, 0x5b, 0x76,
  0xb0, 0x71, 0x74, 0x70, 0x61, 0x91, 0x9d, 0xa5, 0x69, 0x66, 0x75, 0x52,
  0xa8, 0x74, 0x6b, 0x78, 0xb8, 0x6c, 0xa1, 0x63, 0x8b, 0x85, 0x7c, 0x9e,
  0xa9, 0x7d, 0x7d, 0x73, 0x64, 0xa8, 0x87, 0xa4, 0x81, 0x68, 0x83, 0x91,
  0x63, 0x90, 0x88, 0x64, 0x7d, 0x9f, 0x78, 0x4c, 0x81, 0x62, 0x60, 0x91,
  0x5a, 0x9e, 0x84, 0xc2, 0x86, 0x5b, 0x7c, 0x8f, 0x71, 0x92, 0x80, 0x5b,
  0x4b, 0xa2, 0x77, 0x55, 0x6e, 0x76, 0x93, 0x9b, 0xa1, 0x97, 0x89, 0x7b,
  0x8d, 0x99, 0x85, 0x9a, 0x6b, 0x9d, 0x73, 0x95, 0x89, 0x6f, 0xaa, 0x8e,
  0x86, 0x6d, 0x86, 0x85, 0x7d, 0xa5, 0x76, 0x8d, 0x50, 0x5d, 0x9d, 0x53,
  0x6d, 0x67, 0x86, 0x6e, 0x77, 0x8a, 0xa1, 0xa5, 0x90, 0x90, 0xa1, 0x94,
  0x6d, 0x8e, 0x6e, 0xb3, 0x61, 0x92, 0x5a, 0x6e, 0x7e, 0x73, 0x5b, 0x8c,
  0x70, 0x7e, 0x72, 0xa5, 0x8e, 0x8b, 0x75, 0xa2, 0x59, 0x7b, 0x92, 0x86,
  0x8b, 0x94, 0x60, 0x76, 0x86, 0x6f, 0xa8, 0x52, 0x75, 0x8a, 0x8d, 0x8b,
  0x62, 0xa5, 0xa8, 0x96, 0x87, 0x97, 0x86, 0xa8, 0x72, 0x86, 0x4d, 0x61,
  0x45, 0x8f, 0x8b, 0x47, 0x9c, 0x46, 0x80, 0x97, 0x54, 0x9e, 0x52, 0x73,
  0x4f, 0x89, 0x57, 0x9f, 0x47, 0x7b, 0x9a, 0x70, 0x82, 0xa0, 0x86, 0x7a,
  0x90, 0x5d, 0x90, 0x55, 0xa7, 0x75, 0x6f, 0x4f, 0x62, 0x90, 0x79, 0x8c,
  0x6c, 0x80, 0x4b, 0xa7, 0x68, 0x72, 0x92, 0x88, 0x89, 0x7b, 0xba, 0x6c,
  0x5c, 0x7b, 0x5f, 0x88, 0x7e, 0xb3, 0x5d, 0x74, 0x3f, 0x66, 0x66, 0x86,
  0xa0, 0x88, 0x81, 0x67, 0x59, 0x94, 0x6c, 0x60, 0x9b, 0x77, 0xb8, 0x73,
  0x6e, 0x70, 0x9e, 0x90, 0x78, 0xa5, 0x8d, 0xa9, 0x8a, 0x62, 0x85, 0x92,
  0x7c, 0x9f, 0x69, 0xa8, 0x4b, 0x60, 0x70, 0x50, 0xa9, 0xa5, 0x8c, 0xa2,
  0x59, 0x6d, 0x9f, 0xa2, 0x9b, 0x82, 0x85, 0x74, 0x5f, 0x8d, 0x6a, 0xcd,
  0x80, 0x67, 0x77, 0x79, 0x6e, 0x68, 0x7b, 0x6c, 0x7f, 0x59, 0x61, 0x57,
  0x32, 0x99, 0x7d, 0x71, 0x9b, 0x5f, 0x72, 0x91, 0x8b, 0x9b, 0x8e, 0xc4,
  0x92, 0x92, 0xad, 0x54, 0x6e, 0x92, 0x7b, 0x9c, 0x6d, 0x5f, 0x5e, 0x55,
  0x47, 0x70, 0x86, 0x51, 0x6c, 0x6d, 0x72, 0x8f, 0x6b, 0x7e, 0x62, 0x63,
  0x78, 0x4c, 0x60, 0x7a, 0x6c, 0x7c, 0x83, 0x9e, 0x9e, 0x8a, 0x82, 0x6b,
  0x5e, 0x77, 0xa4, 0x50, 0x8c, 0x6b, 0x71, 0x78, 0x60, 0x73, 0x84, 0x63,
  0x8e, 0xab, 0x99, 0x8a, 0x7b, 0x86, 0x6a, 0x90, 0x96, 0x94, 0x86, 0x9e,
  0x6a, 0x77, 0x8b, 0x47, 0x96, 0x70, 0x76, 0x8b, 0x43, 0x5f, 0x63, 0x7a,
  0xad, 0x95, 0xa0, 0xa6, 0x3a, 0x79, 0x84, 0x86, 0x80, 0x9f, 0xbb, 0x8f,
  0x6f, 0x67, 0x64, 0x6c, 0x57, 0x6b, 0xa8, 0x7c, 0x64, 0x87, 0x67, 0x7b,
  0x95, 0x7d, 0x71, 0x9e, 0x95, 0x8d, 0x63, 0x95, 0x73, 0xb0, 0x91, 0x63,
  0x8f, 0x7f, 0x70, 0x64, 0x87, 0x71, 0x90, 0x93, 0x53, 0x44, 0xb1, 0x88,
  0xa4, 0x81, 0x9e, 0xbc, 0x41, 0x37, 0xab, 0x7e, 0x71, 0x88, 0x83, 0x67,
  0x8c, 0x5a, 0xaa, 0xbc, 0x93, 0x69, 0x7b, 0x84, 0x6a, 0x72, 0x79, 0x73,
  0x7b, 0x7c, 0x82, 0x7b, 0x43, 0x63, 0x84, 0x86, 0xa1, 0x65, 0x5d, 0x6e,
  0x81, 0x5a, 0x7c, 0x87, 0x96, 0x93, 0x5e, 0x7b, 0xb1, 0x92, 0x6d, 0x93,
  0x65, 0x75, 0x9c, 0x7e, 0x7f, 0x54, 0x7b, 0x77, 0x51, 0x6e, 0x99, 0x86,
  0x93, 0x6d, 0x46, 0x57, 0x66, 0xa9, 0x5e, 0xb5, 0x6b, 0x65, 0x55, 0x88,
  0x99, 0x55, 0x53, 0xa4, 0x3a, 0x9f, 0x7e, 0xa6, 0x88, 0x8b, 0x75, 0x69,
  0x40, 0x98, 0x6b, 0x7b, 0x8d, 0x6c, 0x83, 0xb7, 0x33, 0x46, 0x44, 0x83,
  0xa3, 0x96, 0x66, 0x84, 0x7a, 0x61, 0x84, 0x76, 0x90, 0xb3, 0x87, 0x6d,
  0xa1, 0x67, 0x7b, 0x55, 0x83, 0x88, 0x63, 0x92, 0x6c, 0x80, 0x8b, 0x5e,
  0x93, 0x81, 0xb9, 0x7c, 0x6e, 0x55, 0x96, 0x92, 0x6d, 0x55, 0x78, 0x77,
  0x4d, 0x7b, 0x64, 0x8c, 0x95, 0x6a, 0x49, 0x85, 0xa1, 0x7c, 0x76, 0x91,
  0x9a, 0x8d, 0x73, 0x8c, 0x69, 0x60, 0x6c, 0xa5, 0x95, 0x87, 0x6e, 0x55,
  0x4c, 0x7e, 0x67, 0x93, 0x8b, 0x5c, 0x6f, 0xa9, 0x6c, 0x66, 0x56, 0x61,
  0x8d, 0x67, 0x92, 0x78, 0x5f, 0x65, 0x70, 0x93, 0x6d, 0x7b, 0x8c, 0x66,
  0x78, 0x68, 0xa0, 0x9d, 0x72, 0x9a, 0x57, 0x68, 0x67, 0x5b, 0x76, 0x56,
  0x73, 0x78, 0x96, 0xa9, 0x7c, 0x8f, 0xa6, 0x98, 0xa0, 0x99, 0x98, 0x8d,
  0x96, 0xaf, 0x96, 0x5e, 0x66, 0x6f, 0xa5, 0x7e, 0x35, 0x42, 0x8e, 0xb9,
  0x6a, 0x98, 0xaa, 0x91, 0xa4, 0x61, 0x77, 0x71, 0xa3, 0x9f, 0xb2, 0x85,
  0xbc, 0x84, 0x8f, 0x81, 0xac, 0x80, 0x93, 0x81, 0x51, 0x89, 0x6c, 0x5d,
  0x9e, 0x89, 0x7a, 0x6b, 0x43, 0x34, 0x93, 0x57, 0x92, 0xbc, 0x83, 0x61,
  0x35, 0x5c, 0xa3, 0x7c, 0xa0, 0x86, 0x4e, 0x8b, 0x6c, 0x4d, 0x73, 0x5b,
  0xc4, 0x74, 0x57, 0x97, 0x91, 0x4f, 0x73, 0x7e, 0xab, 0x87, 0x69, 0x6c,
  0x64, 0x63, 0x77, 0x6f, 0x94, 0x89, 0x4c, 0x85, 0x59, 0x07, 0x88, 0x8a,
  0x62, 0x88, 0x71, 0x7e, 0x54, 0x3c, 0x98, 0x64, 0x80, 0x7f, 0x6c, 0x77,
  0x64, 0x35, 0x77, 0x7d, 0x97, 0x91, 0x65, 0xa6, 0x6e, 0x67, 0x6e, 0x53,
  0x86, 0x99, 0x58, 0x7a, 0x4f, 0x5d, 0xa8, 0xbd, 0x73, 0x45, 0x70, 0x69,
  0x95, 0x79, 0x75, 0x66, 0x6a, 0x7a, 0x72, 0x5d, 0x7a, 0x6f, 0x7b, 0xac,
  0xaa, 0x67, 0x66, 0x4b, 0x70, 0x92, 0x88, 0x63, 0x68, 0x9f, 0x77, 0xaf,
  0x3e, 0x6b, 0x61, 0x8c, 0x95, 0x7a, 0xa6, 0x9a, 0x8a, 0x89, 0x6a, 0xb1,
  0x8f, 0x55, 0x97, 0x66, 0x91, 0xa8, 0x95, 0x7b, 0xb7, 0x7f, 0x6e, 0x68,
  0x50, 0x45, 0xa1, 0x46, 0x79, 0xb1, 0x4c, 0xad, 0x61, 0xa4, 0x7c, 0x88,
  0x96, 0x4e, 0x5c, 0xa6, 0x78, 0xb6, 0x89, 0x9e, 0x82, 0x5e, 0xa5, 0x94,
  0x73, 0x65, 0x72, 0x6f, 0x5a, 0x6f, 0x79, 0x99, 0x2b, 0x5e, 0x52, 0x63,
  0x5d, 0x8a, 0x88, 0x73, 0x53, 0x4e, 0x82, 0x85, 0x97, 0x62, 0x83, 0xb1,
  0x79, 0x43, 0x9b, 0x48, 0x93, 0x5a, 0x89, 0xa2, 0x87, 0x2e, 0x71, 0x8d,
  0x67, 0x4e, 0x6e, 0x79, 0x49, 0x7d, 0x9d, 0x89, 0x81, 0x72, 0xa7, 0x77,
  0x6b, 0x28, 0x8b, 0x6d, 0x66, 0x8b, 0x7f, 0x81, 0x4f, 0x2e, 0x7a, 0xab,
  0x41, 0x7b, 0x7d, 0x67, 0x38, 0x44, 0x6a, 0x77, 0x70, 0x8a, 0xae, 0x60,
  0x80, 0x55, 0x5b, 0x64, 0x71, 0x7d, 0xb0, 0x51, 0x4d, 0x8e, 0x82, 0x95,
  0x70, 0x52, 0x7c, 0x95, 0x6f, 0x47, 0x8f, 0x9b, 0xad, 0xbd, 0xb3, 0x98,
  0x72, 0x54, 0x5f, 0x7f, 0x8f, 0x6e, 0x95, 0x5e, 0xb3, 0x80, 0x96, 0x67,
  0xad, 0x83, 0x98, 0x86, 0x88, 0x78, 0x9f, 0x4b, 0x93, 0x78, 0x77, 0xb5,
  0x8a, 0x66, 0xa0, 0x8a, 0x84, 0x9b, 0x99, 0xa7, 0x87, 0x9e, 0x85, 0x61,
  0x69, 0x7e, 0x82, 0x7a, 0x74, 0x6c, 0x8a, 0xb1, 0x69, 0x7c, 0x6b, 0xc3,
  0xa3, 0x8e, 0x4d, 0x85, 0x96, 0x6a, 0xa8, 0x6e, 0xbb, 0xaf, 0xb0, 0x5a,
  0x93, 0x94, 0x71, 0x83, 0xa4, 0x81, 0x90, 0x5b, 0xbb, 0x58, 0x8b, 0x7c,
  0x3a, 0x4d, 0xba, 0x41, 0x75, 0x72, 0x99, 0x9f, 0x0d, 0x05, 0x7e, 0x6d,
  0x77, 0x5a, 0x65, 0xc5, 0x4d, 0x61, 0x9f, 0x4f, 0x61, 0x7b, 0x79, 0x79,
  0x4a, 0x77, 0x5f, 0x9e, 0x6c, 0x6d, 0x9a, 0x7c, 0x42, 0x75, 0x83, 0x77,
  0x76, 0x5a, 0x92, 0x83, 0x2b, 0x23, 0x6f, 0x99, 0x95, 0x6d, 0x61, 0x99,
  0x50, 0x33, 0x42, 0x8a, 0x9b, 0x76, 0x66, 0x89, 0x95, 0x26, 0x8c, 0x7d,
  0x8e, 0x79, 0x97, 0x84, 0x80, 0xb1, 0x6d, 0x3e, 0x93, 0x99, 0x8d, 0x7e,
  0x9b, 0x96, 0x83, 0x97, 0x7f, 0x50, 0x86, 0x7b, 0x7f, 0x62, 0x6a, 0x4d,
  0x52, 0x9a, 0xa2, 0x51, 0x70, 0x81, 0xb0, 0x9b, 0xa1, 0x5d, 0x6c, 0x76,
  0x9a, 0x93, 0x7f, 0x6e, 0x8d, 0x5f, 0x8e, 0x80, 0x64, 0x7c, 0x73, 0xa6,
  0x9a, 0x72, 0x68, 0x82, 0x90, 0xa5, 0x5a, 0x7e, 0x85, 0x4f, 0x79, 0x74,
  0x96, 0x7b, 0x95, 0xa9, 0x9e, 0x57, 0x7f, 0x7f, 0x45, 0x72, 0x91, 0x96,
  0x4b, 0x65, 0x83, 0x89, 0x82, 0x9b, 0x75, 0x46, 0x6c, 0x4b, 0x45, 0x9e,
  0xb8, 0xa7, 0x62, 0x6e, 0xaa, 0xa7, 0x70, 0x58, 0x8b, 0x87, 0x61, 0xa5,
  0x7a, 0x77, 0x84, 0x77, 0x1a, 0x33, 0x82, 0x68, 0x9f, 0x78, 0x83, 0x62,
  0x4c, 0x55, 0x8c, 0x69, 0x75, 0x69, 0x7c, 0x8f, 0x5b, 0x6a, 0x92, 0x83,
  0xa7, 0x75, 0x6d, 0x99, 0x7d, 0x37, 0x98, 0x96, 0x97, 0x7a, 0xa2, 0xb1,
  0x39, 0x55, 0xc3, 0x66, 0x48, 0x79, 0x77, 0x7d, 0x37, 0x17, 0x50, 0x65,
  0x71, 0x72, 0x7a, 0x96, 0x60, 0x58, 0x57, 0x3d, 0x7f, 0x62, 0x83, 0x78,
  0x67, 0x4d, 0x92, 0x7e, 0x47, 0x7c, 0x9f, 0x83, 0x8a, 0x97, 0x72, 0x80,
  0x9e, 0xa6, 0xab, 0x87, 0xb5, 0x69, 0xa7, 0x86, 0x75, 0xa4, 0x8a, 0x71,
  0x57, 0x65, 0xa5, 0x84, 0x83, 0x75, 0x9c, 0x74, 0x8a, 0x85, 0xa6, 0x97,
  0x5f, 0x7b, 0x69, 0x7d, 0x8d, 0x77, 0x79, 0x65, 0x7f, 0x54, 0xab, 0xba,
  0x6f, 0x6e, 0x43, 0x72, 0x6b, 0xa0, 0x86, 0x76, 0x60, 0x70, 0x76, 0x7c,
  0xaa, 0x58, 0x89, 0xae, 0x77, 0x73, 0x89, 0x86, 0x82, 0x7a, 0x95, 0xaf,
  0xa6, 0x70, 0x8c, 0x6d, 0x3f, 0xa9, 0x7f, 0x55, 0xb8, 0xa2, 0x5a, 0x69,
  0x76, 0x8a, 0x58, 0x9a, 0xe5, 0xda, 0x69, 0x81, 0xb7, 0xab, 0xb6, 0x85,
  0x5f, 0xa0, 0x96, 0x57, 0x9c, 0x8b, 0x93, 0x87, 0x6a, 0x42, 0x7f, 0x93,
  0x4d, 0x75, 0xb6, 0xc1, 0x6a, 0x30, 0x63, 0x7c, 0x49, 0x95, 0x72, 0x90,
  0x6e, 0x45, 0xaa, 0x5b, 0xa5, 0x8f, 0x98, 0xa7, 0x93, 0x6c, 0xa3, 0x8b,
  0x54, 0x96, 0x8b, 0x6d, 0x35, 0x5d, 0x87, 0x42, 0x72, 0xa8, 0x89, 0x67,
  0x1d, 0x32, 0x89, 0x8a, 0x68, 0x65, 0x72, 0x53, 0x44, 0x1b, 0x5b, 0x7e,
  0x7a, 0x84, 0x85, 0xab, 0x5b, 0x6c, 0x75, 0x90, 0x75, 0x82, 0x8b, 0x5d,
  0x87, 0xa8, 0x6b, 0x74, 0x79, 0x8f, 0x62, 0x59, 0x9e, 0x67, 0x8c, 0x6c,
  0x95, 0x7e, 0x99, 0x8a, 0x8f, 0x5f, 0x7a, 0x8a, 0x87, 0x93, 0x52, 0x9a,
  0x81, 0x58, 0x7f, 0x90, 0x73, 0x91, 0x6a, 0x8f, 0xd3, 0xa0, 0x60, 0x90,
  0x7a, 0x5b, 0xb5, 0x59, 0x77, 0x51, 0x82, 0x42, 0x81, 0x4c, 0x9a, 0x7e,
  0x67, 0x6c, 0x6c, 0x88, 0x51, 0x70, 0x59, 0x9c, 0x80, 0xa4, 0x82, 0x55,
  0x99, 0x63, 0xb0, 0x78, 0xb0, 0xa0, 0xc1, 0x6b, 0x91, 0x7e, 0x84, 0xa8,
  0xe6, 0x79, 0xa2, 0x5f, 0x5c, 0x84, 0x69, 0xb8, 0xbc, 0xae, 0x91, 0x8c,
  0xb0, 0x83, 0x8b, 0x3e, 0x67, 0x9f, 0x9b, 0xb6, 0x64, 0x5f, 0x8a, 0x7c,
  0x4e, 0x28, 0x84, 0x3f, 0x98, 0x53, 0x91, 0x6b, 0x91, 0x47, 0x92, 0x50,
  0x95, 0x5e, 0xb5, 0x78, 0x5e, 0x5f, 0xa0, 0x68, 0x8f, 0xa6, 0x7f, 0x9c,
  0x48, 0x4b, 0x6c, 0x8d, 0x90, 0x88, 0x94, 0x83, 0x18, 0x41, 0x9d, 0x57,
  0x84, 0x6c, 0xba, 0x81, 0x39, 0x3c, 0x45, 0x98, 0x6a, 0x8f, 0x69, 0x68,
  0x1f, 0x22, 0xb7, 0x68, 0x6e, 0xa7, 0x69, 0x6f, 0x80, 0x84, 0xa3, 0x9e,
  0x70, 0x90, 0x85, 0x86, 0xc5, 0xa4, 0x8a, 0x45, 0x8d, 0x44, 0xab, 0x6b,
  0x97, 0x7b, 0x82, 0x9c, 0x4e, 0xb3, 0x99, 0xab, 0x6d, 0x77, 0x97, 0x69,
  0x9d, 0x56, 0xb9, 0x8c, 0x53, 0x5e, 0xa7, 0x48, 0xa0, 0xa2, 0x94, 0x81,
  0x8f, 0x9c, 0x89, 0xa0, 0x9c, 0x89, 0x9c, 0x51, 0x4d, 0x32, 0x65, 0xb3,
  0x4f, 0x7a, 0xad, 0x87, 0x6c, 0x61, 0x92, 0xb7, 0x9f, 0xa2, 0x92, 0x78,
  0x96, 0x8d, 0xae, 0x89, 0x58, 0x64, 0xa5, 0x5b, 0xa1, 0x90, 0x81, 0x4e,
  0x9c, 0x85, 0xb5, 0x92, 0xa7, 0x82, 0xab, 0xb3, 0x78, 0x79, 0xa4, 0x6d,
  0xaa, 0xd7, 0xaa, 0x7b, 0xc2, 0x76, 0x76, 0x4f, 0x63, 0xb5, 0x97, 0x7d,
  0x73, 0x78, 0x84, 0x8c, 0x58, 0x24, 0x89, 0x7b, 0x99, 0x72, 0xb0, 0xb4,
  0x90, 0x4a, 0x69, 0x94, 0xad, 0xa1, 0xbc, 0xaa, 0x82, 0x66, 0x6c, 0x4d,
  0xa8, 0x94, 0x80, 0x81, 0x81, 0x5f, 0x8d, 0x93, 0xa1, 0x94, 0x68, 0x71,
  0x75, 0x6c, 0x8a, 0x7e, 0x88, 0x7d, 0x54, 0x6f, 0x1f, 0x01, 0x80, 0xaa,
  0x8f, 0x6d, 0x90, 0xa2, 0x29, 0x38, 0xb2, 0x83, 0x4e, 0x56, 0x98, 0xbe,
  0x63, 0x7c, 0xa4, 0x8a, 0x67, 0x7c, 0x85, 0x98, 0x8d, 0x8c, 0xa9, 0x44,
  0x85, 0x92, 0x9b, 0x73, 0x8e, 0x7a, 0xa2, 0x79, 0x93, 0x65, 0x74, 0x76,
  0x44, 0x65, 0xb5, 0x87, 0x8b, 0x8f, 0x6c, 0x6b, 0x90, 0x5d, 0x80, 0x80,
  0x6e, 0x6f, 0x6d, 0xb3, 0x78, 0x86, 0x7c, 0x93, 0x57, 0x50, 0x45, 0x66,
  0x40, 0x80, 0x57, 0x96, 0x7d, 0x5f, 0x44, 0x93, 0x74, 0x6e, 0x7b, 0x8f,
  0x8c, 0x6e, 0x77, 0x60, 0x79, 0xaf, 0x85, 0x6d, 0x46, 0xb8, 0x96, 0x4c,
  0x8f, 0xa4, 0x8c, 0x84, 0x9f, 0x91, 0x68, 0xab, 0x9e, 0x94, 0x6d, 0x9b,
  0x78, 0x99, 0x94, 0xb5, 0xbb, 0xbc, 0x5b, 0x62, 0x9b, 0x6c, 0x86, 0x64,
  0xac, 0x99, 0x93, 0x86, 0x8e, 0xb6, 0xad, 0xa8, 0x57, 0x3d, 0x6f, 0x63,
  0x84, 0x8d, 0x8d, 0x8c, 0xa4, 0x57, 0x53, 0x6e, 0x97, 0x4f, 0x61, 0x94,
  0x99, 0x69, 0xbb, 0x63, 0x7e, 0x84, 0x94, 0x67, 0x7c, 0x87, 0x87, 0x65,
  0x9a, 0x86, 0x91, 0x5a, 0x3b, 0x41, 0x57, 0x6d, 0x8e, 0x87, 0xbb, 0x84,
  0x74, 0x5b, 0x67, 0x70, 0x6b, 0x60, 0x5d, 0x81, 0x6a, 0x1c, 0x7c, 0x54,
  0xa3, 0x86, 0x8f, 0x92, 0x92, 0x65, 0x85, 0xc1, 0x75, 0x54, 0x68, 0x56,
  0xa2, 0xa6, 0x5b, 0x84, 0x70, 0x97, 0x86, 0x77, 0x77, 0x81, 0x68, 0x8f,
  0x9a, 0x9b, 0x85, 0xb1, 0x74, 0x6f, 0x74, 0x4c, 0x73, 0x96, 0x72, 0x7b,
  0x75, 0x4a, 0x7d, 0x97, 0x9e, 0x8c, 0xa9, 0x6b, 0xa6, 0x81, 0x6c, 0xc0,
  0x5c, 0xbe, 0x67, 0x68, 0x93, 0x7b, 0x88, 0x71, 0xac, 0x86, 0x68, 0x77,
  0x72, 0x86, 0xa8, 0x5e, 0x8b, 0x6e, 0x91, 0x84, 0xab, 0x66, 0x88, 0x85,
  0x5f, 0x83, 0xad, 0xc0, 0xa8, 0x8c, 0xa9, 0xbd, 0x74, 0xb5, 0x9b, 0xa9,
  0x89, 0xb7, 0xb7, 0xb6, 0x65, 0x99, 0x99, 0x8d, 0xbf, 0x99, 0x67, 0xab,
  0xa7, 0x7c, 0x57, 0xa2, 0x68, 0x9a, 0x88, 0x6e, 0x8e, 0x60, 0xae, 0x8f,
  0x74, 0x45, 0x97, 0x6e, 0xa4, 0x7b, 0xbd, 0x92, 0x7e, 0x68, 0xbc, 0x97,
  0x87, 0x53, 0x94, 0x68, 0x8b, 0x35, 0x95, 0x8a, 0x88, 0x78, 0x78, 0x64,
  0x87, 0x46, 0x5a, 0xa9, 0x52, 0x62, 0xac, 0x7e, 0x91, 0x8c, 0x7a, 0x93,
  0x9e, 0x52, 0x7a, 0x9d, 0x95, 0x52, 0x9c, 0x58, 0x70, 0x99, 0x8e, 0x99,
  0x8f, 0x38, 0xa4, 0x74, 0x7c, 0x66, 0x69, 0x73, 0x9b, 0x81, 0x73, 0x9b,
  0x8b, 0x5c, 0xad, 0x79, 0x6b, 0xa1, 0xb8, 0xb0, 0x7e, 0x4d, 0x75, 0x67,
  0x81, 0x6f, 0x81, 0xb1, 0x6c, 0x7b, 0x90, 0xad, 0x84, 0x7c, 0x92, 0x81,
  0x7e, 0x78, 0x69, 0x8f, 0xa0, 0x3f, 0x7b, 0x6f, 0xb3, 0xb4, 0x87, 0x4f,
  0x79, 0x99, 0x96, 0x77, 0xba, 0x67, 0x84, 0x96, 0x77, 0x76, 0x4b, 0x68,
  0xad, 0x99, 0x62, 0xb9, 0x72, 0x7c, 0x6e, 0x75, 0xb0, 0x73, 0x70, 0x84,
  0x9b, 0x5b, 0xae, 0x7f, 0xb9, 0x6b, 0x85, 0x74, 0x7f, 0x97, 0xa9, 0x7c,
  0x58, 0x8c, 0x51, 0xc5, 0x99, 0x6f, 0x74, 0xbf, 0x6c, 0x47, 0x81, 0x9f,
  0x57, 0xb6, 0x90, 0x86, 0x7e, 0x8d, 0xab, 0xa7, 0x8b, 0x83, 0x8e, 0x53,
  0x75, 0x9d, 0x57, 0x80, 0x72, 0x72, 0x59, 0x8c, 0x82, 0x61, 0x41, 0x6b,
  0x5f, 0x7d, 0x6a, 0x8e, 0x61, 0x6c, 0xab, 0x7d, 0x64, 0x23, 0x78, 0x7f,
  0x4e, 0x7c, 0x6e, 0xa1, 0xa4, 0x38, 0x75, 0x7c, 0x65, 0x9c, 0x73, 0x6d,
  0x70, 0x7c, 0x81, 0x7f, 0x92, 0x92, 0xa8, 0x8a, 0x5f, 0x54, 0x80, 0x74,
  0x5c, 0x86, 0x77, 0xa1, 0x5d, 0x48, 0x5c, 0x90, 0x91, 0xb6, 0x49, 0x92,
  0x89, 0x85, 0x74, 0x86, 0x66, 0x7a, 0x77, 0x75, 0xa3, 0x7f, 0x88, 0x86,
  0x9c, 0x5d, 0x8c, 0x7b, 0x8d, 0x71, 0x61, 0x68, 0x9b, 0x78, 0x9a, 0x63,
  0xaf, 0x5e, 0x67, 0x95, 0x7f, 0x89, 0xa1, 0x8b, 0xa5, 0x56, 0xc0, 0x94,
  0x62, 0x91, 0x71, 0x94, 0x82, 0x88, 0xbc, 0x99, 0x6c, 0x90, 0xa0, 0xb3,
  0x9b, 0xc3, 0x52, 0x97, 0x82, 0xc1, 0x9f, 0x7a, 0x8f, 0x93, 0xa6, 0xc0,
  0x7c, 0x8e, 0x7f, 0x91, 0x9d, 0x97, 0x7b, 0xa6, 0x47, 0x71, 0xac, 0x65,
  0x7f, 0x95, 0x7b, 0xc4, 0x6d, 0x70, 0x9c, 0x59, 0x80, 0x6f, 0x8a, 0x90,
  0x90, 0x77, 0x9d, 0x4d, 0x8b, 0xbd, 0xb6, 0x69, 0x8e, 0x93, 0xb0, 0x75,
  0x6e, 0x9d, 0x88, 0x4e, 0x8e, 0x6d, 0x7e, 0x50, 0x57, 0x5f, 0x9c, 0x81,
  0x74, 0x60, 0xb1, 0xa2, 0x84, 0x6d, 0x98, 0x6d, 0x45, 0x99, 0x7f, 0x8c,
  0x8a, 0x80, 0x94, 0xa8, 0x90, 0x8a, 0xa4, 0x8b, 0x72, 0x4b, 0x8c, 0x99,
  0x82, 0x57, 0xb8, 0x6b, 0x8a, 0x6f, 0x7d, 0x86, 0x6b, 0xa6, 0xba, 0x87,
  0x8d, 0xa6, 0x9b, 0x70, 0x96, 0x6a, 0x95, 0x8a, 0x81, 0x6a, 0x4b, 0xb4,
  0x87, 0x79, 0x8f, 0x92, 0x96, 0x77, 0x60, 0x70, 0x5b, 0x95, 0x95, 0x82,
  0x6f, 0x47, 0x81, 0x72, 0xa0, 0x8b, 0xb8, 0xac, 0x95, 0xab, 0x60, 0xb7,
  0x62, 0x91, 0xa5, 0xab, 0x96, 0x94, 0x99, 0x6f, 0x72, 0x7d, 0x5d, 0x65,
  0x80, 0x57, 0x6a, 0x52, 0x86, 0x8b, 0x66, 0x61, 0x76, 0x5b, 0x91, 0x6e,
  0x92, 0x54, 0xb0, 0x9b, 0x8c, 0x9d, 0x78, 0xa9, 0x69, 0xac, 0xac, 0x94,
  0x6e, 0x66, 0x86, 0x87, 0xaa, 0x95, 0xbd, 0x9e, 0x70, 0xab, 0xd3, 0x72,
  0x8a, 0x96, 0x8c, 0x92, 0x87, 0x6b, 0x7d, 0x7d, 0x87, 0x5e, 0x86, 0x55,
  0x84, 0x8b, 0x4f, 0xa0, 0x85, 0x4e, 0x87, 0x88, 0x9d, 0x5f, 0x5a, 0x96,
  0xb6, 0x9e, 0x96, 0x47, 0x8c, 0x72, 0xaa, 0x4e, 0xa4, 0x95, 0x8d, 0xa6,
  0x8e, 0xb2, 0xa1, 0x9d, 0x46, 0x6a, 0x86, 0x68, 0x7c, 0x35, 0x92, 0x45,
  0x61, 0xa7, 0x6d, 0x95, 0x70, 0x6d, 0xae, 0x94, 0x93, 0x67, 0x84, 0x42,
  0x9d, 0x4e, 0xa2, 0x95, 0x9c, 0x6e, 0x95, 0x86, 0x64, 0x76, 0x88, 0x71,
  0x51, 0x94, 0x82, 0x93, 0x9b, 0x5e, 0x6b, 0x48, 0x6b, 0x68, 0x82, 0xc0,
  0x71, 0x71, 0x7c, 0x85, 0x59, 0xaf, 0x8c, 0x7c, 0x8a, 0x85, 0x4f, 0x85,
  0x72, 0x5c, 0x83, 0x84, 0x64, 0xb2, 0x8f, 0x80, 0x87, 0x7f, 0x97, 0xad,
  0x97, 0x7a, 0x8c, 0x8e, 0x60, 0x8b, 0x5d, 0xa1, 0x95, 0xbb, 0x67, 0x73,
  0x8f, 0x5e, 0x6f, 0x62, 0x85, 0xb8, 0x99, 0x94, 0x69, 0x4a, 0xae, 0xbe,
  0x69, 0xaa, 0xa0, 0x85, 0x80, 0x8a, 0x8b, 0x69, 0x83, 0x7c, 0x6d, 0x4e,
  0x72, 0x8b, 0x74, 0x68, 0x81, 0x87, 0x95, 0xb3, 0x74, 0xb5, 0x95, 0xaa,
  0xb1, 0x8e, 0xc0, 0xa3, 0x81, 0x88, 0x86, 0xb7, 0x5e, 0x73, 0x45, 0x95,
  0x64, 0x69, 0x7e, 0xa1, 0xa4, 0x5f, 0xa2, 0x7a, 0x71, 0x80, 0x4a, 0x8e,
  0x7b, 0x9d, 0xab, 0x60, 0x82, 0x7c, 0x97, 0x5d, 0x65, 0x93, 0x82, 0x77,
  0x94, 0x95, 0x6a, 0x89, 0x99, 0x7e, 0x67, 0x6f, 0x8f, 0x68, 0x8f, 0x6c,
  0x54, 0x66, 0x40, 0x8f, 0x98, 0xa2, 0xa2, 0x85, 0x85, 0x93, 0x72, 0x88,
  0x78, 0xa3, 0x83, 0x6d, 0x80, 0x88, 0x76, 0x62, 0x6e, 0x8a, 0x76, 0x8d,
  0x69, 0x93, 0x77, 0x92, 0x8f, 0x98, 0x95, 0x96, 0x5c, 0x78, 0x76, 0x42,
  0xab, 0xbb, 0x52, 0x6a, 0x89, 0x72, 0x5a, 0x89, 0x74, 0x63, 0xb8, 0x8b,
  0x81, 0x97, 0x84, 0x84, 0x7c, 0x7b, 0x8a, 0xa1, 0x81, 0x94, 0x82, 0x96,
  0x84, 0x6d, 0x95, 0xb8, 0x9a, 0xa7, 0x61, 0x64, 0x52, 0x8c, 0x67, 0x6b,
  0x7d, 0x89, 0x79, 0x82, 0x99, 0x5a, 0xb3, 0x97, 0x78, 0x9d, 0x75, 0xbb,
  0x62, 0xa1, 0x65, 0x67, 0x5e, 0x9c, 0x7a, 0x66, 0x78, 0x9e, 0x81, 0xae,
  0x8b, 0xa7, 0x92, 0x70, 0x9d, 0x8c, 0x84, 0x5b, 0x97, 0x9e, 0x5a, 0xca,
  0xa9, 0x54, 0x97, 0xa2, 0x92, 0x92, 0xcd, 0x4a, 0xc4, 0xa3, 0x9b, 0x59,
  0x33, 0x7b, 0x8a, 0x6a, 0x85, 0xa8, 0x64, 0x90, 0xac, 0xb9, 0x7f, 0x73,
  0x73, 0xb5, 0x79, 0x7e, 0x65, 0x90, 0x55, 0x7e, 0x6a, 0x87, 0x98, 0x68,
  0x6e, 0x77, 0xb2, 0x97, 0x9d, 0x97, 0x54, 0x7d, 0x5e, 0x85, 0x59, 0x71,
  0x5b, 0x66, 0x8c, 0xb7, 0x48, 0x5e, 0x96, 0x99, 0x54, 0x99, 0x5a, 0xad,
  0x58, 0x7e, 0x84, 0x7e, 0x82, 0x84, 0x74, 0x94, 0x71, 0xb2, 0x91, 0x81,
  0x8a, 0x6d, 0xa5, 0x58, 0x62, 0x65, 0x88, 0x93, 0x68, 0xa5, 0xb7, 0x90,
  0x71, 0x81, 0x52, 0x9e, 0x8b, 0xa7, 0x6e, 0x66, 0x52, 0xa0, 0xb5, 0xa8,
  0x95, 0x67, 0x6f, 0x78, 0x9d, 0x9d, 0x90, 0x93, 0x7e, 0x9d, 0xa2, 0x51,
  0x3c, 0x67, 0x8a, 0x9a, 0x93, 0x6e, 0x56, 0x89, 0x4d, 0x74, 0x82, 0x76,
  0x5f, 0x44, 0x88, 0x45, 0x66, 0x89, 0xa3, 0x90, 0x79, 0x4b, 0x99, 0x99,
  0x75, 0xb6, 0x6e, 0x5c, 0x95, 0xb6, 0x95, 0x7a, 0x6f, 0x9e, 0x9f, 0xa9,
  0x64, 0xb0, 0x63, 0x87, 0x7d, 0x9a, 0x58, 0x9d, 0x8c, 0x74, 0x69, 0xc1,
  0x90, 0x86, 0x66, 0x8e, 0xb5, 0x82, 0x79, 0x97, 0x4b, 0x87, 0x9c, 0x76,
  0xb4, 0xb7, 0x98, 0x6c, 0x21, 0x66, 0xb1, 0x98, 0x87, 0x72, 0x90, 0x93,
  0x9a, 0xaa, 0x60, 0x97, 0x8b, 0x75, 0x70, 0x6e, 0x62, 0x8f, 0x85, 0x7f,
  0x86, 0x67, 0x8c, 0x7d, 0x61, 0x98, 0x82, 0x65, 0x7e, 0xa0, 0xad, 0x7a,
  0x57, 0x85, 0x6e, 0x6f, 0x70, 0x51, 0x53, 0x97, 0x2d, 0x75, 0x8b, 0x70,
  0x81, 0x50, 0x7f, 0x70, 0x53, 0x4e, 0x62, 0x96, 0x92, 0x93, 0x5d, 0xa4,
  0x54, 0x8c, 0x5c, 0x52, 0xc2, 0x4e, 0x81, 0x95, 0x6d, 0xa8, 0xa0, 0x50,
  0x8e, 0x7e, 0x5b, 0x71, 0x51, 0x8b, 0x56, 0x93, 0x6a, 0x58, 0x5b, 0x76,
  0x1e, 0x6f, 0x78, 0xb1, 0x73, 0x8d, 0x8d, 0xa5, 0x69, 0x78, 0x76, 0x5d,
  0x7f, 0x54, 0x77, 0x9f, 0x5d, 0x74, 0x50, 0x95, 0x82, 0xa4, 0x4f, 0x81,
  0x66, 0x73, 0x81, 0x9a, 0x72, 0x75, 0x87, 0x48, 0x33, 0x53, 0x48, 0x8a,
  0x6d, 0xbe, 0x78, 0x86, 0x57, 0x93, 0x4a, 0x4d, 0x84, 0x66, 0x7a, 0x55,
  0x41, 0x8d, 0x4c, 0x5c, 0x92, 0x6d, 0xb3, 0x85, 0x5f, 0x91, 0x59, 0x65,
  0xaa, 0x7d, 0x93, 0xc2, 0xa7, 0x8a, 0x97, 0x8a, 0x96, 0x82, 0x7f, 0xa7,
  0x85, 0x8c, 0xc2, 0xac, 0x89, 0x52, 0x7f, 0x83, 0x01, 0x3d, 0x8d, 0x6c,
  0x72, 0x79, 0xb1, 0xb0, 0x7f, 0x75, 0x89, 0x58, 0xb2, 0x44, 0x68, 0x6e,
  0x66, 0x69, 0x80, 0x71, 0x6b, 0x85, 0x59, 0x9b, 0x66, 0x96, 0x63, 0x8a,
  0xad, 0x6d, 0x62, 0xae, 0x67, 0x3a, 0x7d, 0x9b, 0xa2, 0x7a, 0x87, 0xb1,
  0x58, 0x6e, 0x44, 0x56, 0x93, 0x50, 0x60, 0x7b, 0x62, 0x4f, 0x6d, 0xaa,
  0x8f, 0x91, 0x90, 0x82, 0x75, 0x99, 0x6b, 0x8b, 0x64, 0x60, 0x83, 0x84,
  0x65, 0x79, 0xb4, 0x85, 0x62, 0x84, 0xa2, 0x9b, 0x52, 0x74, 0x86, 0x5d,
  0x9d, 0x92, 0x74, 0x97, 0x62, 0x7c, 0x8e, 0x92, 0xc1, 0x5e, 0x96, 0x73,
  0x53, 0x85, 0xab, 0x8b, 0x71, 0x74, 0x7d, 0x7d, 0x33, 0x8c, 0x79, 0x55,
  0x85, 0x5e, 0x6f, 0x8f, 0x58, 0x92, 0x84, 0x83, 0x7a, 0x78, 0x76, 0x89,
  0x7c, 0x8c, 0x51, 0x75, 0x70, 0x62, 0x8c, 0x6c, 0x79, 0x84, 0x65, 0x77,
  0x6c, 0xa3, 0x7c, 0x94, 0x57, 0x75, 0x69, 0xc7, 0x7b, 0x7f, 0x58, 0x85,
  0x7b, 0x89, 0xb6, 0x88, 0xa8, 0x8e, 0x8d, 0x94, 0x7c, 0xa5, 0x74, 0x8a,
  0x9a, 0xa3, 0x6a, 0xa0, 0x51, 0x81, 0x9b, 0x9c, 0x8d, 0xa3, 0xa3, 0x77,
  0x48, 0x27, 0x95, 0x4d, 0xa1, 0x5d, 0x50, 0x94, 0x87, 0x79, 0x80, 0xb1,
  0x70, 0x5c, 0x4e, 0x8f, 0x79, 0x64, 0x90, 0x85, 0xae, 0xa7, 0x5a, 0x95,
  0x8e, 0x8c, 0xad, 0x73, 0x63, 0xa0, 0x97, 0x7b, 0x73, 0x51, 0x96, 0x4a,
  0x3b, 0xa2, 0x71, 0x95, 0x82, 0x4b, 0x73, 0x70, 0xb1, 0x80, 0x6c, 0x7e,
  0x6f, 0x96, 0x69, 0x63, 0x98, 0xc0, 0x63, 0x64, 0x88, 0x5d, 0x83, 0x4f,
  0x90, 0x6f, 0xb4, 0x61, 0x72, 0x83, 0x45, 0x86, 0xaa, 0xa3, 0x8e, 0xa8,
  0x83, 0x4e, 0x79, 0x7a, 0x69, 0x5b, 0x77, 0x7b, 0x60, 0x6a, 0x93, 0x82,
  0x76, 0x56, 0xa5, 0x6d, 0xa2, 0x6a, 0x94, 0x58, 0x95, 0x74, 0x76, 0x73,
  0x80, 0x88, 0x4f, 0x90, 0x48, 0x95, 0x7b, 0x82, 0x74, 0x41, 0x7e, 0x9b,
  0x8b, 0x88, 0x94, 0x73, 0x85, 0x68, 0x7e, 0x97, 0x6c, 0x85, 0x7e, 0x6e,
  0xa7, 0x81, 0x65, 0x66, 0x94, 0x90, 0x80, 0x70, 0x8c, 0x9e, 0x68, 0x6a,
  0x73, 0x5d, 0x8b, 0x92, 0x75, 0x6f, 0x80, 0x74, 0x9b, 0x9e, 0x80, 0x85,
  0x9e, 0x6d, 0xa3, 0xa8, 0x89, 0xaa, 0x7f, 0x59, 0x59, 0x80, 0xa7, 0x99,
  0x88, 0x60, 0x5a, 0x6f, 0x24, 0x36, 0x6d, 0x72, 0x60, 0xb6, 0x81, 0x92,
  0x76, 0xa9, 0xa2, 0x8b, 0x65, 0x99, 0xbe, 0xb2, 0x7c, 0x5d, 0x90, 0x71,
  0x71, 0x6c, 0x8f, 0x88, 0xa3, 0x76, 0x86, 0x46, 0x70, 0x84, 0x70, 0x68,
  0x76, 0x5e, 0xae, 0x98, 0x7c, 0x71, 0xbb, 0x7e, 0x87, 0x6a, 0x7c, 0x55,
  0x4a, 0x95, 0x6c, 0x93, 0x7d, 0x58, 0x92, 0x75, 0x90, 0x82, 0x8f, 0x85,
  0x96, 0x6e, 0x6c, 0x8e, 0xac, 0x81, 0xb3, 0x66, 0xad, 0x7b, 0xa0, 0x6c,
  0x9b, 0x73, 0x8f, 0x99, 0x66, 0x71, 0x55, 0x63, 0x7e, 0x81, 0x9d, 0x6c,
  0x85, 0x90, 0x3a, 0xaa, 0x53, 0x8b, 0x65, 0x8c, 0x94, 0x69, 0x69, 0x48,
  0x43, 0x84, 0x6b, 0x92, 0x80, 0x76, 0x9c, 0x72, 0x55, 0x8d, 0xa7, 0x8d,
  0x78, 0x37, 0x84, 0x5e, 0x61, 0xb5, 0x61, 0x83, 0xc0, 0x76, 0x66, 0x75,
  0x46, 0x71, 0xa5, 0x85, 0x7a, 0x80, 0x7d, 0xa5, 0x95, 0x6b, 0x5f, 0xa7,
  0x81, 0x94, 0x9a, 0x8f, 0x80, 0x7c, 0x7b, 0x70, 0x9d, 0xa2, 0x5f, 0x77,
  0xbd, 0x83, 0x84, 0x7a, 0x9b, 0x8b, 0x8c, 0x90, 0xa4, 0xa7, 0x97, 0x92,
  0x5c, 0x8f, 0x87, 0xa6, 0x7d, 0x95, 0x7d, 0x7d, 0x51, 0x4f, 0xab, 0x6f,
  0x6c, 0x5f, 0x5f, 0x5c, 0xcd, 0x7e, 0x90, 0x6d, 0x73, 0x57, 0x7f, 0x9d,
  0xac, 0x8f, 0x7c, 0x8e, 0x88, 0x93, 0x7e, 0x4a, 0x79, 0x6c, 0xa7, 0x5e,
  0x82, 0x81, 0x87, 0x86, 0x76, 0x75, 0xa9, 0x6f, 0x8c, 0x79, 0xb5, 0x77,
  0x86, 0x61, 0x83, 0x58, 0x63, 0x82, 0x6b, 0x71, 0x91, 0x8b, 0x9b, 0x51,
  0x76, 0x8f, 0x9e, 0x57, 0x9e, 0xa9, 0x78, 0x56, 0xa7, 0x6a, 0x69, 0x81,
  0x58, 0x9e, 0x6e, 0x4a, 0xa5, 0x5d, 0xa5, 0x7d, 0x80, 0x80, 0x60, 0xa1,
  0x7b, 0x66, 0x8f, 0x7b, 0x6a, 0x93, 0x96, 0x7d, 0xb0, 0x4d, 0x6c, 0x5b,
  0x9f, 0x87, 0x85, 0x9b, 0x71, 0x7e, 0x86, 0x67, 0x82, 0x7f, 0x7b, 0xa5,
  0x6b, 0x69, 0x87, 0x84, 0x85, 0x9d, 0x74, 0x74, 0xa0, 0x59, 0xbb, 0x7d,
  0xab, 0x91, 0x78, 0x8c, 0x6d, 0x56, 0x9d, 0x98, 0xb0, 0x9c, 0x52, 0x81,
  0x89, 0x86, 0x8e, 0x70, 0xb4, 0x9d, 0xa3, 0x76, 0x79, 0xa3, 0x7d, 0x5e,
  0x7c, 0x55, 0x89, 0x5d, 0x97, 0x92, 0x8f, 0x7c, 0x52, 0x73, 0xb2, 0x6f,
  0x89, 0x66, 0x7a, 0x62, 0x79, 0x62, 0xb6, 0x50, 0xb2, 0x68, 0x66, 0x79,
  0x1d, 0x61, 0xb4, 0x45, 0x7d, 0x66, 0xb3, 0x84, 0x6f, 0x96, 0x93, 0x4c,
  0x87, 0x7d, 0x99, 0x8a, 0xb9, 0x77, 0xa2, 0x75, 0xad, 0x6e, 0x72, 0x73,
  0x7f, 0x99, 0x7c, 0x86, 0x8e, 0xa1, 0x7d, 0x7c, 0x56, 0x71, 0x7f, 0xb3,
  0x56, 0x87, 0x71, 0x81, 0xa3, 0x7a, 0x96, 0x8a, 0x6a, 0x87, 0x49, 0x95,
  0x94, 0x90, 0x6c, 0x84, 0xa9, 0x70, 0x56, 0x83, 0xb9, 0x98, 0x82, 0x80,
  0xa2, 0x7a, 0x8f, 0x48, 0x7f, 0x9c, 0x96, 0x7d, 0x9f, 0x72, 0x8c, 0x57,
  0x80, 0x59, 0x51, 0x79, 0x72, 0x73, 0x5f, 0x6b, 0xa5, 0x76, 0xad, 0x99,
  0x76, 0x6b, 0x7a, 0x8d, 0x94, 0x4d, 0x5f, 0x62, 0x8f, 0x79, 0x8b, 0x8d,
  0x9e, 0xa9, 0x9e, 0x70, 0x6d, 0x66, 0x68, 0x6b, 0x5e, 0x8b, 0x90, 0x68,
  0x65, 0xad, 0x70, 0x7f, 0x96, 0x9f, 0x67, 0x50, 0x8f, 0x81, 0x89, 0x9e,
  0x6a, 0xb8, 0xab, 0x9a, 0x81, 0xa9, 0xa4, 0x72, 0x74, 0x9a, 0x97, 0x87,
  0x60, 0x9a, 0x7c, 0x75, 0x88, 0x7e, 0x6a, 0x8a, 0x7a, 0x82, 0x8e, 0xa7,
  0xa0, 0x5b, 0xb6, 0x88, 0xa2, 0x7f, 0x7d, 0x5a, 0x76, 0x7f, 0x81, 0xa0,
  0x68, 0x85, 0x90, 0x7d, 0x2d, 0x0d, 0x69, 0x67, 0x8d, 0x57, 0x87, 0x91,
  0x79, 0x80, 0xa3, 0x82, 0x61, 0x7b, 0x8b, 0x8b, 0x99, 0x6b, 0x97, 0x6e,
  0x8d, 0x9b, 0x6c, 0x9b, 0x91, 0x92, 0x71, 0x61, 0x8f, 0x8d, 0x60, 0x96,
  0x84, 0x7f, 0x6f, 0xae, 0x98, 0x84, 0x48, 0x8e, 0x70, 0x86, 0x80, 0x77,
  0x93, 0x97, 0x6b, 0x56, 0xa3, 0x8f, 0x70, 0xaf, 0xd0, 0x94, 0x7a, 0x83,
  0xa9, 0x81, 0x6a, 0x96, 0x8d, 0x7b, 0x90, 0x70, 0x92, 0x9e, 0x54, 0x6d,
  0x8e, 0x59, 0x99, 0x8e, 0xaf, 0x51, 0x71, 0x9f, 0x79, 0x96, 0x82, 0xa9,
  0x9c, 0x87, 0xa4, 0x75, 0x97, 0x68, 0x5e, 0x9e, 0x82, 0x7d, 0x5d, 0x4b,
  0x85, 0x73, 0x89, 0x8f, 0xbd, 0xb7, 0xa8, 0x75, 0x6b, 0xba, 0x72, 0x4f,
  0xa3, 0x74, 0x8c, 0x88, 0x87, 0x54, 0x78, 0x9b, 0x86, 0x99, 0x80, 0xc8,
  0x7d, 0x73, 0x76, 0x9a, 0x94, 0xc1, 0x82, 0x88, 0x96, 0x6e, 0x72, 0x9a,
  0x9a, 0x73, 0x8a, 0x78, 0x5e, 0x95, 0x96, 0x90, 0x8b, 0x9e, 0x90, 0x8b,
  0x96, 0x65, 0x76, 0x80, 0x89, 0x57, 0x9f, 0x62, 0x8a, 0x5f, 0x88, 0x64,
  0x83, 0x3e, 0x9a, 0x8a, 0x70, 0x73, 0x7b, 0x7b, 0x50, 0x47, 0x67, 0x7c,
  0x8c, 0x7d, 0x52, 0x6a, 0x71, 0x7b, 0xba, 0x86, 0xc6, 0xa9, 0x76, 0x97,
  0xb8, 0x83, 0x73, 0x65, 0x90, 0x7d, 0x8d, 0x6d, 0x9b, 0xbd, 0x9b, 0x78,
  0x8d, 0xa1, 0x73, 0xb5, 0x8c, 0x8c, 0x7c, 0x80, 0x7f, 0x73, 0x73, 0x53,
  0x7f, 0x7e, 0x45, 0x76, 0x7e, 0x82, 0x7b, 0x5d, 0x74, 0xa1, 0x76, 0x8d,
  0xd1, 0x6e, 0x70, 0x6b, 0x8f, 0x86, 0x9c, 0xb2, 0x76, 0x95, 0x68, 0x86,
  0x73, 0x82, 0x6f, 0x84, 0x5c, 0x86, 0x99, 0x8c, 0x97, 0x82, 0x91, 0x73,
  0x8a, 0x8f, 0x56, 0x6d, 0x90, 0xa7, 0x8a, 0x87, 0x7b, 0x88, 0x8f, 0x96,
  0x7e, 0x7e, 0x73, 0x7b, 0x5b, 0x8f, 0x7b, 0x5f, 0x74, 0xa6, 0xaa, 0x86,
  0x78, 0x72, 0xa3, 0x46, 0x6e, 0x7e, 0x92, 0x68, 0xa3, 0x62, 0x8c, 0x61,
  0xb4, 0x80, 0x83, 0x93, 0x4c, 0x48, 0x4b, 0x77, 0x85, 0x90, 0x91, 0x8a,
  0x7a, 0x7a, 0x83, 0x8f, 0xb6, 0x91, 0x54, 0x82, 0x59, 0xb7, 0x8e, 0x94,
  0xa9, 0x8f, 0x7e, 0x84, 0xb4, 0x74, 0x67, 0x8a, 0x54, 0x67, 0x85, 0x85,
  0xab, 0x80, 0x92, 0x60, 0x55, 0x67, 0x84, 0x97, 0x7e, 0xa4, 0x8c, 0x69,
  0x3a, 0x54, 0x5d, 0x73, 0x6c, 0xb2, 0x7e, 0x84, 0x83, 0x5d, 0x84, 0x80,
  0xab, 0x65, 0x72, 0x75, 0xb4, 0x4a, 0x9d, 0x80, 0x93, 0x7e, 0x80, 0x61,
  0x76, 0x9d, 0x87, 0xbd, 0x74, 0x9b, 0xbf, 0x88, 0x71, 0x8c, 0xa3, 0x77,
  0x4f, 0x6e, 0x7d, 0xa7, 0x8d, 0x6b, 0x9a, 0x9e, 0x9b, 0x92, 0x5f, 0x7f,
  0x84, 0xb6, 0x92, 0x9b, 0xcf, 0x58, 0x9c, 0x7b, 0xbc, 0x9a, 0x86, 0x8d,
  0x68, 0x80, 0x7c, 0x67, 0x4d, 0xa2, 0x6c, 0x9d, 0x98, 0x7e, 0x8a, 0x6c,
  0xa1, 0x8a, 0x5f, 0xb3, 0x9a, 0x6d, 0x61, 0x9a, 0x8c, 0x9c, 0x7d, 0x75,
  0x90, 0x9b, 0x92, 0x97, 0xa3, 0x8a, 0x71, 0x91, 0x9c, 0x77, 0x7f, 0x7d,
  0x94, 0x8c, 0x99, 0x88, 0x93, 0x6c, 0x71, 0x94, 0x8b, 0x8a, 0x87, 0x6d,
  0x7b, 0x6f, 0xa6, 0x7f, 0x5e, 0x8f, 0x91, 0x54, 0x89, 0x6f, 0x9b, 0x5a,
  0x7f, 0xa2, 0x92, 0xa2, 0x88, 0x67, 0x81, 0x7a, 0x78, 0x61, 0x8c, 0x5f,
  0x95, 0x85, 0xa6, 0x65, 0x93, 0x6e, 0x87, 0x5e, 0x5d, 0x85, 0x5b, 0xa0,
  0x5f, 0x74, 0x68, 0x67, 0x8d, 0x7e, 0xa7, 0x7c, 0x5e, 0x70, 0x8f, 0x7a,
  0x79, 0xa2, 0x96, 0x81, 0x3f, 0x56, 0x78, 0x95, 0x6d, 0xb4, 0x9b, 0x75,
  0x4a, 0x99, 0x6b, 0x8b, 0x67, 0xb4, 0xba, 0x9e, 0x49, 0x7f, 0x5a, 0x49,
  0x56, 0x4e, 0xa2, 0x78, 0x87, 0x91, 0x84, 0xc0, 0xa8, 0x61, 0x67, 0x5e,
  0x57, 0x96, 0x87, 0x6d, 0x4d, 0x9c, 0x88, 0x77, 0x64, 0x4d, 0x53, 0x58,
  0x62, 0x7d, 0x49, 0x8a, 0x8a, 0x8c, 0x87, 0x77, 0x91, 0x7c, 0x62, 0x83,
  0x6b, 0x9d, 0x81, 0xbb, 0x6d, 0x69, 0x5a, 0x9b, 0xa0, 0x97, 0x56, 0x72,
  0x82, 0x84, 0x8c, 0x5f, 0xa8, 0x7c, 0x65, 0xae, 0x53, 0x92, 0x85, 0x96,
  0x9a, 0xa8, 0x7e, 0x79, 0x88, 0x52, 0x71, 0x89, 0x79, 0x98, 0x6c, 0xa2,
  0x8f, 0x7a, 0x4a, 0x63, 0xc6, 0xc5, 0x80, 0x77, 0x66, 0x62, 0x49, 0x97,
  0x72, 0xb0, 0x55, 0x82, 0x9d, 0x9c, 0xbe, 0x9e, 0x89, 0x5e, 0x57, 0x5d,
  0x4c, 0x6b, 0x8b, 0x70, 0x90, 0x73, 0x85, 0x77, 0x69, 0x9c, 0x9d, 0x83,
  0x6b, 0x5a, 0x93, 0x75, 0xc0, 0x5c, 0x5c, 0xb7, 0x60, 0x8b, 0x8f, 0x52,
  0x80, 0x89, 0x82, 0x59, 0x6e, 0x69, 0x80, 0x9a, 0xa3, 0x70, 0x54, 0x84,
  0x5a, 0x6c, 0x70, 0xa9, 0x83, 0x48, 0x85, 0xb0, 0x57, 0x58, 0x83, 0x83,
  0x9d, 0xa5, 0x75, 0x83, 0x5a, 0xb0, 0x7f, 0x83, 0x8d, 0x74, 0x73, 0x73,
  0x82, 0x6c, 0xa3, 0x52, 0xa0, 0x75, 0x97, 0x90, 0x5b, 0x71, 0x4a, 0x92,
  0x82, 0x74, 0x6f, 0x5e, 0x93, 0x90, 0x7c, 0x99, 0x4d, 0x65, 0x88, 0x59,
  0x6a, 0x7a, 0xa4, 0x82, 0x7b, 0x85, 0x91, 0x4d, 0x67, 0x7e, 0xae, 0x85,
  0x92, 0x61, 0x9d, 0x73, 0xb1, 0x9b, 0xa1, 0xaa, 0x54, 0x87, 0x7d, 0x97,
  0x87, 0x9a, 0x94, 0x60, 0xb3, 0x76, 0x92, 0x6c, 0xbb, 0x96, 0x68, 0x9b,
  0x6e, 0x6a, 0x7c, 0x90, 0x78, 0xa8, 0x75, 0x51, 0xab, 0x8e, 0xad, 0x5d,
  0xb7, 0xa4, 0x66, 0x99, 0x57, 0x8c, 0x96, 0x6a, 0xbc, 0xb2, 0x95, 0xa1,
  0x7b, 0x7b, 0x90, 0x97, 0x92, 0xd1, 0xa1, 0x58, 0x4e, 0x87, 0x73, 0x77,
  0xa8, 0x91, 0x88, 0x7a, 0x83, 0x96, 0x74, 0xae, 0x6f, 0x7b, 0x85, 0x80,
  0x3c, 0x87, 0x7e, 0x62, 0x5b, 0x84, 0x52, 0xb4, 0xaa, 0x66, 0x96, 0x89,
  0x7a, 0x7f, 0x73, 0x4d, 0x83, 0x84, 0x80, 0x87, 0x84, 0x72, 0x7e, 0x69,
  0x75, 0x5b, 0x97, 0x64, 0x62, 0x8e, 0x98, 0x78, 0x5b, 0x99, 0xb5, 0x75,
  0x3a, 0x68, 0x73, 0x7c, 0xab, 0x8a, 0xb9, 0x86, 0x72, 0x61, 0xa3, 0x94,
  0x79, 0x76, 0x76, 0x60, 0x6f, 0x46, 0x59, 0x7d, 0x7a, 0x9c, 0x96, 0xa9,
  0x96, 0x78, 0x83, 0x82, 0x70, 0x59, 0x8d, 0x86, 0x8e, 0x96, 0x91, 0x7d,
  0x8d, 0x78, 0x81, 0x41, 0x97, 0x9f, 0xa7, 0x8f, 0x54, 0xa4, 0x80, 0x80,
  0x71, 0x79, 0x66, 0xac, 0x9a, 0x71, 0x74, 0x9b, 0x83, 0xa0, 0x7c, 0x99,
  0x6b, 0x68, 0x6c, 0x52, 0x77, 0xc8, 0x6a, 0xa1, 0x9b, 0x4e, 0x57, 0x80,
  0xa5, 0xb7, 0x8f, 0x96, 0x8a, 0xa9, 0x67, 0x60, 0x91, 0xc3, 0x7d, 0x73,
  0x87, 0x7e, 0x8f, 0x78, 0x67, 0x8a, 0x4c, 0xad, 0x8e, 0x9d, 0xaf, 0x66,
  0x8d, 0xa9, 0x98, 0x98, 0x81, 0x4c, 0x70, 0x8c, 0x7e, 0x78, 0x8e, 0x83,
  0x82, 0x9d, 0x6f, 0x98, 0x9c, 0x95, 0x78, 0x8f, 0xaa, 0x4b, 0x46, 0x75,
  0x90, 0x7a, 0x86, 0x4f, 0x69, 0x95, 0x64, 0x7d, 0x64, 0x63, 0x94, 0x6b,
  0x79, 0x54, 0xa9, 0xbc, 0x82, 0xb6, 0x9f, 0x9a, 0x6d, 0x85, 0x5a, 0x7d,
  0x8b, 0x8a, 0x92, 0x78, 0x9e, 0x83, 0x61, 0x8c, 0x53, 0x51, 0x71, 0x8f,
  0x6f, 0x64, 0xa6, 0x7a, 0x37, 0x31, 0x87, 0x9e, 0xb1, 0x49, 0x98, 0x96,
  0x7f, 0x75, 0x80, 0xaa, 0x63, 0x8e, 0x6d, 0x7e, 0x49, 0x78, 0x85, 0xa8,
  0x39, 0xb8, 0x7d, 0x8e, 0x6a, 0x53, 0x6d, 0x66, 0x97, 0x69, 0x85, 0x9d,
  0xb4, 0x95, 0x77, 0x96, 0x99, 0x53, 0x67, 0x61, 0x6f, 0xa2, 0x97, 0x56,
  0x99, 0x66, 0x6e, 0x95, 0x9b, 0x6d, 0x7d, 0x7f, 0x91, 0x90, 0x89, 0x63,
  0xb2, 0xa1, 0x8f, 0x77, 0x77, 0x82, 0x7e, 0x61, 0x9b, 0xb5, 0x5c, 0x65,
  0x90, 0x9c, 0x7c, 0xbd, 0xbd, 0xc2, 0x6c, 0xbb, 0x9b, 0x8f, 0x7b, 0x7c,
  0xb3, 0xb5, 0x64, 0x83, 0x6a, 0x52, 0x86, 0x7b, 0x87, 0x84, 0x66, 0x8c,
  0xa7, 0xac, 0x56, 0x77, 0x8a, 0x8e, 0xb3, 0x8d, 0x57, 0x6d, 0x6d, 0xb1,
  0x6a, 0x74, 0x8d, 0x63, 0x94, 0xa9, 0x8f, 0xb0, 0x6b, 0x92, 0x57, 0x8e,
  0xb2, 0x6c, 0x78, 0x55, 0x74, 0x57, 0x73, 0x7f, 0x4f, 0x6d, 0xa8, 0x66,
  0x91, 0x64, 0x59, 0x42, 0x9d, 0x5d, 0xa3, 0xa0, 0x58, 0x5f, 0x63, 0x9d,
  0x7f, 0x5b, 0x88, 0x9c, 0x7b, 0x79, 0x91, 0x9c, 0x92, 0x8a, 0xa5, 0x6a,
  0x3f, 0x41, 0x95, 0x83, 0x67, 0x73, 0x75, 0x8a, 0x44, 0x6b, 0x62, 0x79,
  0x88, 0x70, 0x78, 0x9c, 0x5f, 0x70, 0x47, 0xb1, 0x8a, 0x6d, 0x8f, 0x54,
  0x64, 0x46, 0x8c, 0x94, 0x66, 0xa0, 0x76, 0x57, 0x88, 0x4c, 0x76, 0x5c,
  0x72, 0x55, 0x6f, 0x67, 0xed, 0x9a, 0x53, 0x81, 0x95, 0x48, 0x4e, 0x6a,
  0xc2, 0x84, 0x70, 0x79, 0x82, 0xb7, 0x8d, 0x6c, 0xa4, 0x98, 0x4f, 0xa6,
  0x8f, 0xa1, 0x67, 0x90, 0xcc, 0xda, 0x6e, 0x8b, 0x8b, 0x98, 0xad, 0x6f,
  0xd5, 0xad, 0x54, 0xa6, 0xa7, 0x8f, 0x89, 0x8b, 0xce, 0xd7, 0x47, 0xb0,
  0x75, 0x8a, 0x4e, 0x7e, 0xa1, 0xa3, 0x4d, 0xa9, 0x7a, 0x84, 0x58, 0x7c,
  0x73, 0x74, 0x95, 0x67, 0x9a, 0x86, 0xb3, 0x6a, 0x6d, 0xab, 0x67, 0x6f,
  0xa8, 0x63, 0x48, 0x5f, 0x84, 0xb3, 0x56, 0x65, 0x64, 0x7c, 0x82, 0xb0,
  0xbe, 0x70, 0x73, 0x5c, 0x4f, 0x71, 0x96, 0x8a, 0x85, 0x82, 0x96, 0x55,
  0x8c, 0x7c, 0x84, 0x51, 0x90, 0x73, 0x95, 0x58, 0xa1, 0xa0, 0xc4, 0x88,
  0xa8, 0xab, 0x7c, 0x6d, 0x74, 0x63, 0x6a, 0x7b, 0x96, 0x79, 0x80, 0x93,
  0x69, 0x7c, 0x86, 0x9a, 0x5e, 0x49, 0x63, 0x51, 0x5b, 0xa1, 0xbe, 0x6c,
  0x5a, 0x5c, 0x79, 0x71, 0xb7, 0x89, 0x57, 0x78, 0x6e, 0x94, 0x76, 0x7c,
  0x6d, 0xb6, 0x78, 0x91, 0x3e, 0x26, 0x9c, 0x5a, 0x7f, 0x9c, 0x66, 0x6c,
  0x6b, 0x7c, 0x60, 0x8d, 0x9d, 0x62, 0x75, 0x75, 0xff, 0x9a, 0x6d, 0x85,
  0x99, 0x64, 0x76, 0x5e, 0xd4, 0xb6, 0x7e, 0x87, 0x61, 0x92, 0x9d, 0x7b,
  0x8b, 0x91, 0x77, 0x6a, 0x7c, 0x60, 0x78, 0x94, 0xa7, 0xb2, 0x74, 0x89,
  0x86, 0x78, 0xa2, 0x6d, 0xcf, 0xb4, 0x69, 0x77, 0x66, 0x97, 0x67, 0x7b,
  0xa2, 0xd4, 0xae, 0x86, 0x90, 0x6f, 0x76, 0x64, 0x88, 0xa0, 0x6a, 0x54,
  0x98, 0x61, 0x87, 0xa4, 0x8f, 0x80, 0x87, 0x8e, 0x9e, 0x6b, 0x90, 0x81,
  0x59, 0x8a, 0x58, 0xa3, 0x4a, 0x6f, 0x83, 0x78, 0x8e, 0x70, 0x6a, 0x57,
  0x92, 0xac, 0x96, 0x6e, 0x80, 0x69, 0x7b, 0x75, 0x93, 0x95, 0x51, 0x7a,
  0xa0, 0x97, 0x79, 0x6e, 0x6b, 0x8b, 0x9e, 0x69, 0x75, 0x49, 0x61, 0x9d,
  0x86, 0x7e, 0xbf, 0x7f, 0x86, 0x76, 0xa6, 0x8d, 0x86, 0x74, 0x8a, 0x8d,
  0x4c, 0x6b, 0xaf, 0x6b, 0x9b, 0x5a, 0x88, 0xb4, 0x8c, 0x5e, 0x86, 0x76,
  0x76, 0x50, 0x6d, 0x86, 0x59, 0x86, 0x7a, 0x58, 0x9f, 0x54, 0xb8, 0x72,
  0x67, 0x43, 0xbe, 0x6e, 0x6e, 0x9d, 0x9d, 0x99, 0x66, 0x4a, 0x8d, 0x69,
  0x5b, 0x5c, 0xa9, 0x8c, 0x69, 0x40, 0x92, 0x54, 0x92, 0xaa, 0x90, 0x83,
  0xf5, 0xbb, 0xa0, 0x90, 0x97, 0x3f, 0x59, 0x44, 0xd1, 0xc9, 0x65, 0x3e,
  0x86, 0x79, 0x8e, 0x85, 0xb2, 0xbe, 0x97, 0x8c, 0x44, 0x99, 0x98, 0x57,
  0xe2, 0xc4, 0x87, 0x65, 0x87, 0x5d, 0x9b, 0x86, 0xc3, 0x88, 0x58, 0x9a,
  0x9f, 0x71, 0x7c, 0x76, 0x99, 0xd3, 0xc0, 0xa1, 0x9e, 0x92, 0xc0, 0x78,
  0x88, 0x9d, 0xa1, 0x8e, 0x76, 0x7f, 0x78, 0xae, 0x71, 0xbb, 0x94, 0x75,
  0x6f, 0x7d, 0x72, 0x73, 0x9a, 0x90, 0x5d, 0x83, 0x53, 0x66, 0x99, 0x91,
  0x7c, 0x75, 0x7d, 0x8a, 0x94, 0x89, 0x8a, 0x84, 0x8b, 0xa5, 0x9e, 0x83,
  0x84, 0x80, 0x93, 0x85, 0x50, 0x77, 0xa5, 0x8e, 0x60, 0x8a, 0x89, 0xb5,
  0x84, 0x57, 0x51, 0x88, 0x8a, 0xbf, 0x9d, 0x72, 0x89, 0x8a, 0xa2, 0x6f,
  0x96, 0x73, 0x8b, 0xa3, 0x8c, 0xa5, 0x55, 0x67, 0x83, 0x8b, 0x7e, 0x7a,
  0x4c, 0x52, 0x78, 0xa4, 0x7c, 0x77, 0x81, 0x58, 0x35, 0x57, 0x6b, 0x6d,
  0x81, 0x4f, 0x9f, 0x95, 0x60, 0x5c, 0x89, 0x58, 0x82, 0x92, 0x6c, 0x68,
  0x55, 0x27, 0x5a, 0x7e, 0x60, 0x48, 0x8b, 0x78, 0x86, 0x37, 0x6e, 0x93,
  0xac, 0xaf, 0x76, 0x9b, 0xcb, 0xb4, 0x84, 0x9d, 0x99, 0x6e, 0x81, 0x54,
  0x9d, 0xd3, 0x8a, 0x68, 0x8a, 0x82, 0x78, 0x71, 0x6f, 0x82, 0x8e, 0x9a,
  0x90, 0x4e, 0x9c, 0xa2, 0x9b, 0xa9, 0x55, 0x72, 0x5a, 0x50, 0x69, 0x83,
  0xbd, 0x9a, 0x74, 0xa9, 0x7d, 0x68, 0xa8, 0x7f, 0xa1, 0xb9, 0xa8, 0xb7,
  0x82, 0xac, 0x7c, 0xac, 0x63, 0xa8, 0xa5, 0xa1, 0x59, 0x87, 0x9b, 0x7f,
  0x82, 0x80, 0x51, 0x48, 0x6b, 0x8b, 0x6b, 0xad, 0x70, 0x79, 0x81, 0xac,
  0x7a, 0x91, 0x69, 0xbf, 0x63, 0x7e, 0x7c, 0x70, 0x94, 0x68, 0x69, 0x9b,
  0x89, 0x88, 0x94, 0x64, 0x78, 0xa4, 0x79, 0x9e, 0x9b, 0x94, 0x4c, 0x99,
  0x6a, 0xb1, 0x98, 0xb4, 0x72, 0x8d, 0x99, 0x85, 0x6d, 0x83, 0x5c, 0x87,
  0x8d, 0x66, 0x87, 0x90, 0xa9, 0x9a, 0x7a, 0x9f, 0x70, 0x6e, 0x85, 0x5c,
  0x8c, 0x5f, 0x6f, 0x76, 0x4a, 0x79, 0x75, 0x7d, 0x61, 0xb9, 0xb4, 0x83,
  0x4c, 0x76, 0x82, 0x72, 0xb3, 0x5e, 0x97, 0x71, 0x1d, 0x6f, 0x7e, 0xc2,
  0x94, 0x8d, 0x7b, 0x72, 0x5c, 0x44, 0x57, 0x62, 0x75, 0xa1, 0x8d, 0x7f,
  0x56, 0x33, 0x8c, 0xaa, 0x78, 0x64, 0x71, 0x92, 0x9f, 0xd8, 0x4a, 0xc0,
  0x91, 0x92, 0x7f, 0x78, 0x6d, 0x97, 0x84, 0xa3, 0x9a, 0xa3, 0x8f, 0x6f,
  0x8e, 0x9d, 0x93, 0x97, 0x7a, 0x71, 0x5a, 0x85, 0x7d, 0x8c, 0x95, 0x80,
  0xb9, 0x97, 0x4c, 0xb1, 0xce, 0xc9, 0x71, 0x6a, 0x98, 0x8d, 0x9d, 0x52,
  0x6b, 0x9e, 0x52, 0x71, 0x85, 0xaa, 0x87, 0xab, 0x74, 0x61, 0x9d, 0x5f,
  0x80, 0x79, 0x60, 0x97, 0x67, 0x89, 0x96, 0x51, 0x59, 0x93, 0x71, 0x96,
  0x61, 0x64, 0x8b, 0x75, 0x7e, 0xa0, 0x95, 0x9a, 0x84, 0x7e, 0x62, 0x4e,
  0x97, 0xae, 0x4a, 0x70, 0xa7, 0x6a, 0x76, 0x76, 0x5b, 0x83, 0x59, 0x7e,
  0x6b, 0xb3, 0x91, 0x71, 0x81, 0x7c, 0xa8, 0x7b, 0x6a, 0x65, 0x6e, 0x70,
  0x76, 0xbc, 0x7d, 0x52, 0x5d, 0x87, 0x8a, 0x70, 0xa8, 0x74, 0x98, 0x94,
  0x54, 0x8f, 0x97, 0x65, 0x8f, 0x98, 0x4c, 0x6d, 0x3d, 0x7f, 0x7e, 0x8e,
  0x64, 0x5c, 0x76, 0xb0, 0x0f, 0x81, 0x4e, 0x79, 0x8b, 0x60, 0x7d, 0x7c,
  0x35, 0x7f, 0xb1, 0x60, 0x74, 0x4b, 0x84, 0x78, 0x5a, 0x50, 0xb5, 0x90,
  0x49, 0x79, 0x71, 0xbb, 0x50, 0x25, 0x7c, 0x88, 0x62, 0x84, 0x52, 0x9a,
  0xbd, 0xa6, 0x62, 0x97, 0x83, 0xa9, 0x88, 0x7a, 0x8e, 0x99, 0x9d, 0x86,
  0x65, 0x91, 0xa3, 0x47, 0x95, 0xa3, 0x82, 0xb4, 0x9e, 0x74, 0x8c, 0x85,
  0x73, 0xa0, 0x7e, 0x8c, 0x61, 0x73, 0x5f, 0x93, 0x8e, 0x8d, 0xae, 0x90,
