/* Copyright 2018 The TensorFlow Authors. All Rights Reserved.

Licensed under the Apache License, Version 2.0 (the "License");
you may not use this file except in compliance with the License.
You may obtain a copy of the License at

    http://www.apache.org/licenses/LICENSE-2.0

Unless required by applicable law or agreed to in writing, software
distributed under the License is distributed on an "AS IS" BASIS,
WITHOUT WARRANTIES OR CONDITIONS OF ANY KIND, either express or implied.
See the License for the specific language governing permissions and
limitations under the License.
==============================================================================*/

// Automatically created from a TensorFlow Lite flatbuffer using the command:
// xxd -i tiny_conv.tflite > tiny_conv_simple_features_model_data.cc
// See the README for a full description of the creation process.

#include "tensorflow/lite/micro/examples/micro_speech/micro_features/tiny_conv_micro_features_model_data.h"

// We need to keep the data array aligned on some architectures.
#ifdef __has_attribute
#define HAVE_ATTRIBUTE(x) __has_attribute(x)
#else
#define HAVE_ATTRIBUTE(x) 0
#endif
#if HAVE_ATTRIBUTE(aligned) || (defined(__GNUC__) && !defined(__clang__))
#define DATA_ALIGN_ATTRIBUTE __attribute__((aligned(4)))
#else
#define DATA_ALIGN_ATTRIBUTE
#endif

const unsigned char
        g_tiny_conv_micro_features_model_data[] DATA_ALIGN_ATTRIBUTE = {
  0x20, 0x00, 0x00, 0x00, 0x54, 0x46, 0x4c, 0x33, 0x00, 0x00, 0x00, 0x00,
  0x00, 0x00, 0x12, 0x00, 0x1c, 0x00, 0x04, 0x00, 0x08, 0x00, 0x0c, 0x00,
  0x10, 0x00, 0x14, 0x00, 0x00, 0x00, 0x18, 0x00, 0x12, 0x00, 0x00, 0x00,
  0x03, 0x00, 0x00, 0x00, 0x18, 0x47, 0x00, 0x00, 0x10, 0x00, 0x00, 0x00,
  0x1c, 0x00, 0x00, 0x00, 0x2c, 0x00, 0x00, 0x00, 0x0c, 0x00, 0x00, 0x00,
  0x01, 0x00, 0x00, 0x00, 0xc0, 0x00, 0x00, 0x00, 0x01, 0x00, 0x00, 0x00,
  0x94, 0x00, 0x00, 0x00, 0x0f, 0x00, 0x00, 0x00, 0x54, 0x4f, 0x43, 0x4f,
  0x20, 0x43, 0x6f, 0x6e, 0x76, 0x65, 0x72, 0x74, 0x65, 0x64, 0x2e, 0x00,
  0x0a, 0x00, 0x00, 0x00, 0x60, 0x00, 0x00, 0x00, 0x58, 0x00, 0x00, 0x00,
  0x4c, 0x00, 0x00, 0x00, 0x44, 0x00, 0x00, 0x00, 0x3c, 0x00, 0x00, 0x00,
  0x34, 0x00, 0x00, 0x00, 0x28, 0x00, 0x00, 0x00, 0x1c, 0x00, 0x00, 0x00,
  0x10, 0x00, 0x00, 0x00, 0x04, 0x00, 0x00, 0x00, 0x12, 0xba, 0xff, 0xff,
  0x38, 0x00, 0x00, 0x00, 0x1a, 0xba, 0xff, 0xff, 0x00, 0x01, 0x00, 0x00,
  0x22, 0xba, 0xff, 0xff, 0xa0, 0x01, 0x00, 0x00, 0x2a, 0xba, 0xff, 0xff,
  0x7c, 0x40, 0x00, 0x00, 0xd8, 0xb9, 0xff, 0xff, 0xdc, 0xb9, 0xff, 0xff,
  0xe0, 0xb9, 0xff, 0xff, 0x3e, 0xba, 0xff, 0xff, 0x68, 0x42, 0x00, 0x00,
  0xec, 0xb9, 0xff, 0xff, 0xf0, 0xb9, 0xff, 0xff, 0x05, 0x00, 0x00, 0x00,
  0x31, 0x2e, 0x35, 0x2e, 0x30, 0x00, 0x00, 0x00, 0x08, 0x00, 0x0c, 0x00,
  0x04, 0x00, 0x08, 0x00, 0x08, 0x00, 0x00, 0x00, 0x08, 0x00, 0x00, 0x00,
  0x09, 0x00, 0x00, 0x00, 0x13, 0x00, 0x00, 0x00, 0x6d, 0x69, 0x6e, 0x5f,
  0x72, 0x75, 0x6e, 0x74, 0x69, 0x6d, 0x65, 0x5f, 0x76, 0x65, 0x72, 0x73,
  0x69, 0x6f, 0x6e, 0x00, 0x0c, 0xbb, 0xff, 0xff, 0x20, 0x00, 0x00, 0x00,
  0x14, 0x00, 0x00, 0x00, 0x08, 0x00, 0x00, 0x00, 0x28, 0x45, 0x00, 0x00,
  0x01, 0x00, 0x00, 0x00, 0x05, 0x00, 0x00, 0x00, 0x01, 0x00, 0x00, 0x00,
  0x03, 0x00, 0x00, 0x00, 0x08, 0x00, 0x00, 0x00, 0x9c, 0x3f, 0x00, 0x00,
  0x1c, 0x00, 0x00, 0x00, 0xf0, 0x40, 0x00, 0x00, 0x84, 0x44, 0x00, 0x00,
  0x80, 0x40, 0x00, 0x00, 0x0c, 0x40, 0x00, 0x00, 0x50, 0x41, 0x00, 0x00,
  0x68, 0x00, 0x00, 0x00, 0x9e, 0xbb, 0xff, 0xff, 0x00, 0x00, 0x00, 0x02,
  0x10, 0x00, 0x00, 0x00, 0x08, 0x00, 0x00, 0x00, 0x10, 0x00, 0x00, 0x00,
  0x1c, 0x00, 0x00, 0x00, 0x01, 0x00, 0x00, 0x00, 0x04, 0x00, 0x00, 0x00,
  0x0b, 0x00, 0x00, 0x00, 0x4d, 0x61, 0x74, 0x4d, 0x75, 0x6c, 0x5f, 0x62,
  0x69, 0x61, 0x73, 0x00, 0x84, 0xc0, 0xff, 0xff, 0x14, 0x00, 0x00, 0x00,
  0x04, 0x00, 0x00, 0x00, 0x01, 0x00, 0x00, 0x00, 0x00, 0x00, 0x00, 0x00,
  0x00, 0x00, 0x00, 0x00, 0x01, 0x00, 0x00, 0x00, 0x2d, 0x5b, 0x7f, 0x36,
  0x10, 0x00, 0x00, 0x00, 0x43, 0xfa, 0xff, 0xff, 0x0e, 0xf9, 0xff, 0xff,
  0x6d, 0x18, 0x00, 0x00, 0x3a, 0xf4, 0xff, 0xff, 0x02, 0xbc, 0xff, 0xff,
  0x00, 0x00, 0x00, 0x03, 0x10, 0x00, 0x00, 0x00, 0x07, 0x00, 0x00, 0x00,
  0x14, 0x00, 0x00, 0x00, 0x48, 0x00, 0x00, 0x00, 0x02, 0x00, 0x00, 0x00,
  0x04, 0x00, 0x00, 0x00, 0xa0, 0x0f, 0x00, 0x00, 0x31, 0x00, 0x00, 0x00,
  0x77, 0x65, 0x69, 0x67, 0x68, 0x74, 0x73, 0x5f, 0x71, 0x75, 0x61, 0x6e,
  0x74, 0x5f, 0x31, 0x2f, 0x46, 0x61, 0x6b, 0x65, 0x51, 0x75, 0x61, 0x6e,
  0x74, 0x57, 0x69, 0x74, 0x68, 0x4d, 0x69, 0x6e, 0x4d, 0x61, 0x78, 0x56,
  0x61, 0x72, 0x73, 0x2f, 0x74, 0x72, 0x61, 0x6e, 0x73, 0x70, 0x6f, 0x73,
  0x65, 0x00, 0x00, 0x00, 0x14, 0xbc, 0xff, 0xff, 0x2c, 0x00, 0x00, 0x00,
  0x20, 0x00, 0x00, 0x00, 0x14, 0x00, 0x00, 0x00, 0x04, 0x00, 0x00, 0x00,
  0x01, 0x00, 0x00, 0x00, 0x7f, 0x00, 0x00, 0x00, 0x00, 0x00, 0x00, 0x00,
  0x01, 0x00, 0x00, 0x00, 0x49, 0xfe, 0x55, 0x39, 0x01, 0x00, 0x00, 0x00,
  0x65, 0xff, 0xd5, 0x3c, 0x01, 0x00, 0x00, 0x00, 0x34, 0xa5, 0xd2, 0xbc,
  0x80, 0x3e, 0x00, 0x00, 0x71, 0x4f, 0x63, 0x38, 0xc0, 0x97, 0x88, 0x52,
  0x5e, 0x9d, 0x73, 0x53, 0xae, 0x4f, 0x7e, 0xc5, 0xb4, 0x5e, 0xab, 0x4e,
  0x86, 0xa5, 0x60, 0x48, 0x18, 0x7a, 0xaa, 0x52, 0x4d, 0x69, 0xac, 0x41,
  0x6b, 0x6b, 0x81, 0x6c, 0xb1, 0x38, 0x76, 0x5d, 0x30, 0x92, 0x62, 0x7a,
  0x64, 0x1e, 0x65, 0x6a, 0x62, 0x63, 0xaf, 0x71, 0x7e, 0x7f, 0xaa, 0x30,
  0xaa, 0x86, 0x4e, 0x6d, 0xc1, 0xa0, 0x94, 0x5c, 0x58, 0x67, 0x8b, 0x3e,
  0x4d, 0x9d, 0x87, 0x78, 0x7f, 0x76, 0x59, 0x6b, 0x4f, 0x92, 0xa8, 0x3b,
  0x93, 0xb2, 0x8a, 0x5c, 0xbe, 0xbf, 0xa6, 0xa3, 0x59, 0x50, 0x20, 0x6e,
  0xb7, 0x69, 0x72, 0xb2, 0x49, 0x9a, 0x7a, 0x6e, 0x7b, 0x64, 0x77, 0x77,
  0x73, 0x8d, 0x84, 0x19, 0x71, 0x97, 0xdd, 0xce, 0x8d, 0x86, 0x6e, 0x60,
  0x66, 0x8d, 0x91, 0x51, 0x7f, 0x61, 0xa4, 0x70, 0xc5, 0x51, 0x78, 0xd4,
  0x74, 0x2f, 0x84, 0x8f, 0x90, 0xac, 0xa6, 0x47, 0x16, 0x74, 0xa4, 0x3d,
  0x66, 0x98, 0x5c, 0x97, 0x39, 0xc2, 0x3a, 0x6f, 0x9b, 0x4f, 0xb7, 0x21,
  0x53, 0x57, 0x5b, 0x89, 0xa4, 0x9b, 0x90, 0x81, 0xcf, 0xca, 0x64, 0xa7,
  0x40, 0x6a, 0x80, 0x36, 0x66, 0x62, 0xb0, 0x8b, 0x46, 0x49, 0x88, 0x3e,
  0xaa, 0xad, 0x7a, 0x35, 0x5d, 0x36, 0x62, 0x2c, 0x98, 0x59, 0x59, 0xac,
  0xc4, 0x86, 0x50, 0xac, 0x17, 0xa7, 0x7b, 0x50, 0x5f, 0xc1, 0xc1, 0x36,
  0x82, 0x9f, 0x82, 0x8c, 0x57, 0x72, 0x99, 0x62, 0x54, 0x80, 0xc2, 0x1b,
  0x9e, 0x67, 0x81, 0x49, 0x4d, 0x91, 0xaa, 0x2c, 0xd8, 0x73, 0xdc, 0x79,
  0xa3, 0xc9, 0x80, 0x34, 0xa9, 0x7d, 0xb7, 0x4a, 0x72, 0x96, 0xcb, 0x27,
  0x97, 0xb8, 0x5f, 0x5b, 0x61, 0x5b, 0xaa, 0xbb, 0xde, 0x85, 0xbc, 0x87,
  0x81, 0x65, 0x6c, 0x58, 0xa1, 0x81, 0xa5, 0x91, 0xaa, 0x88, 0xa6, 0xa6,
  0xa0, 0x94, 0x46, 0x5c, 0xa9, 0x81, 0x81, 0x6b, 0x8f, 0x7e, 0x73, 0x66,
  0x71, 0x78, 0x7d, 0x79, 0xb7, 0x67, 0x76, 0x34, 0x15, 0xba, 0x43, 0x8b,
  0x8d, 0x7c, 0x93, 0x90, 0x89, 0x6a, 0x99, 0x2e, 0x99, 0x94, 0x6a, 0x7c,
  0x4b, 0xb9, 0x56, 0x4f, 0xa5, 0x94, 0x7f, 0xaf, 0x58, 0x82, 0xa8, 0x4d,
  0x76, 0xc1, 0xae, 0xc4, 0xb1, 0x22, 0xa2, 0xbe, 0x8a, 0x5f, 0x66, 0xc5,
  0x9f, 0x8f, 0x82, 0x2d, 0xb9, 0xcf, 0xa8, 0x56, 0x75, 0xcf, 0x80, 0x50,
  0x47, 0xa9, 0x8c, 0x89, 0x5c, 0x6c, 0x43, 0x34, 0x3f, 0x8f, 0x70, 0x9e,
  0x4e, 0x60, 0x93, 0x4c, 0x69, 0x68, 0xa4, 0x65, 0x86, 0xa2, 0x86, 0x80,
  0x61, 0x86, 0x8c, 0x2c, 0x77, 0x4a, 0x2c, 0x76, 0xaa, 0xb5, 0x70, 0x5b,
  0x97, 0x66, 0x1f, 0x32, 0x80, 0x76, 0x4e, 0x48, 0xac, 0x6a, 0x4d, 0x7e,
  0x76, 0x8f, 0xc8, 0x6a, 0xa2, 0x9e, 0xb1, 0x62, 0x8a, 0x91, 0x19, 0x53,
  0x7d, 0x9e, 0x7c, 0x73, 0x97, 0x65, 0x6f, 0x6d, 0x38, 0xad, 0x74, 0x94,
  0x27, 0x4e, 0x2b, 0x58, 0x1c, 0x86, 0x64, 0x3e, 0x1b, 0xc9, 0x74, 0x54,
  0x6d, 0x98, 0x9d, 0x44, 0x9c, 0xb8, 0x5e, 0x15, 0xbe, 0x68, 0x72, 0x6d,
  0x73, 0xc8, 0xb9, 0x2d, 0x5c, 0x34, 0x48, 0x54, 0x79, 0x9e, 0x6a, 0x67,
  0x81, 0x84, 0x76, 0x38, 0x75, 0x7b, 0x62, 0x9b, 0x86, 0x85, 0x63, 0x38,
  0x29, 0x66, 0x7f, 0x52, 0x5d, 0xaf, 0x6b, 0x35, 0xaa, 0x52, 0xa3, 0x73,
  0x93, 0x6d, 0x88, 0x29, 0x5e, 0x88, 0x48, 0x3e, 0x8b, 0xb2, 0xc5, 0x66,
  0x9f, 0x8b, 0x3f, 0x75, 0xa3, 0x8e, 0x6f, 0x84, 0x64, 0x28, 0x42, 0xb4,
  0x4c, 0x56, 0x9b, 0x58, 0x4d, 0x9d, 0x7b, 0x99, 0x85, 0x54, 0x8b, 0xa8,
  0x3f, 0x29, 0x8d, 0x91, 0x8e, 0xaa, 0x83, 0x5f, 0x6f, 0x80, 0x0e, 0x5d,
  0x91, 0x34, 0xa7, 0x77, 0x58, 0x9c, 0x25, 0xaf, 0x8c, 0xd5, 0xbe, 0x8b,
  0x87, 0xb7, 0x3e, 0x5b, 0xa1, 0xa8, 0x75, 0x08, 0x8d, 0x7d, 0x6f, 0x5b,
  0x45, 0xac, 0x6c, 0xb9, 0x86, 0x35, 0xbd, 0x5f, 0x8b, 0x91, 0x9c, 0x5d,
  0x4e, 0x67, 0x72, 0x7f, 0x59, 0x98, 0xb6, 0x6b, 0xa6, 0x97, 0xb6, 0x68,
  0xce, 0x54, 0x5c, 0x56, 0x5f, 0x99, 0x63, 0x3a, 0x95, 0x77, 0x69, 0x65,
  0x69, 0x6f, 0x2a, 0x27, 0x5f, 0x89, 0xa2, 0x4f, 0x52, 0x7c, 0xbe, 0xb2,
  0x3d, 0xab, 0x8f, 0x21, 0x9a, 0x6a, 0x28, 0x47, 0x5b, 0x52, 0x85, 0x67,
  0xc7, 0x79, 0x3c, 0x3c, 0x71, 0x58, 0xa9, 0x6f, 0x8d, 0xbb, 0x75, 0xbb,
  0x96, 0x87, 0xa2, 0x8a, 0x88, 0x1e, 0x2c, 0x42, 0xb7, 0xa1, 0x54, 0x1b,
  0x7b, 0x87, 0x93, 0x6f, 0x81, 0x98, 0x95, 0xaf, 0x4e, 0xad, 0x22, 0x6e,
  0x4c, 0xa7, 0xde, 0x64, 0xc9, 0x6a, 0x7c, 0x42, 0x59, 0x7a, 0x71, 0x51,
  0x82, 0x65, 0x4c, 0x5b, 0x8c, 0x72, 0xbc, 0x44, 0x92, 0x6b, 0x66, 0x5f,
  0x77, 0x5a, 0x61, 0x95, 0x8d, 0x5c, 0x72, 0x39, 0xc3, 0xba, 0x41, 0xa5,
  0xae, 0xaf, 0x7a, 0x7e, 0xaf, 0x80, 0x9c, 0x7f, 0x32, 0xa7, 0x6e, 0x5c,
  0xb0, 0x3c, 0xa3, 0x52, 0x75, 0x35, 0x87, 0x37, 0xc3, 0x6e, 0xc0, 0x42,
  0x5a, 0xb1, 0x57, 0x46, 0x86, 0xa7, 0x79, 0xa9, 0xac, 0xc6, 0x86, 0x4c,
  0x96, 0x77, 0x61, 0x44, 0x65, 0xb0, 0xa8, 0x7a, 0x70, 0x89, 0x4e, 0x4b,
  0xbf, 0xb7, 0x62, 0x61, 0x95, 0x74, 0x78, 0x22, 0x50, 0xab, 0x53, 0x99,
  0xd1, 0x71, 0x64, 0xa2, 0x6d, 0x69, 0x5b, 0x7f, 0x4d, 0xa9, 0x1f, 0x12,
  0x69, 0x8b, 0x9a, 0x73, 0x61, 0x84, 0xac, 0xa0, 0x79, 0x95, 0x7b, 0x7f,
  0x83, 0x6c, 0x9c, 0xa4, 0xbe, 0x93, 0x60, 0x65, 0x61, 0xa3, 0xa9, 0x64,
  0x79, 0x46, 0x60, 0x5e, 0x5d, 0x31, 0xb5, 0x4b, 0xba, 0x56, 0x60, 0x53,
  0x7c, 0x30, 0x9c, 0x71, 0x20, 0x5c, 0x78, 0x57, 0x34, 0x60, 0x4b, 0x6f,
  0x66, 0xa2, 0x7b, 0x87, 0x75, 0x7b, 0x6d, 0x84, 0x7f, 0x7a, 0xbc, 0x80,
  0x4a, 0x74, 0x90, 0x42, 0xc9, 0x4f, 0x7f, 0x9c, 0xaf, 0xa4, 0x46, 0x2e,
  0x98, 0x7c, 0x7d, 0x54, 0x80, 0x7f, 0x49, 0x67, 0xb3, 0x80, 0x4e, 0x3f,
  0x89, 0x3e, 0x94, 0x1b, 0x98, 0x53, 0x4d, 0x9e, 0xd0, 0xb2, 0x8f, 0xb3,
  0x2c, 0x52, 0x87, 0xc3, 0x61, 0x9d, 0x70, 0x09, 0x3a, 0x73, 0x17, 0x45,
  0x73, 0x35, 0xa6, 0x81, 0x60, 0x94, 0x44, 0x46, 0xbb, 0x2e, 0xa5, 0x3f,
  0x80, 0x97, 0x09, 0xa3, 0xa5, 0x82, 0x94, 0x77, 0x30, 0xdd, 0x35, 0x45,
  0x64, 0xac, 0x61, 0x6b, 0x45, 0xca, 0x87, 0xc5, 0x44, 0x1f, 0x51, 0x6c,
  0x82, 0x3e, 0x32, 0x72, 0x7f, 0x33, 0xce, 0x39, 0xb1, 0x74, 0x58, 0x99,
  0x4d, 0xa5, 0x4a, 0x80, 0xb4, 0x5e, 0x8d, 0x46, 0x5d, 0xa8, 0x56, 0x47,
  0x3a, 0x93, 0x8b, 0xcf, 0x6a, 0xa9, 0x85, 0x3c, 0x96, 0x93, 0x0c, 0x7b,
  0x88, 0x60, 0x9d, 0x93, 0x82, 0x9c, 0x8f, 0x40, 0x7e, 0x9b, 0x85, 0x77,
  0xca, 0xbb, 0x4c, 0x4e, 0x40, 0x54, 0x8c, 0x75, 0xb0, 0x76, 0x79, 0xb6,
  0x51, 0x72, 0x94, 0x57, 0x4b, 0xb5, 0x51, 0x4d, 0x6e, 0x6d, 0x67, 0x88,
  0xa6, 0x6f, 0x81, 0xa0, 0x2f, 0x4e, 0xe0, 0x97, 0xa6, 0xa4, 0x88, 0x50,
  0x89, 0x84, 0x34, 0x39, 0xb5, 0x44, 0x7e, 0x42, 0x5a, 0xa6, 0xba, 0x3a,
  0xc7, 0xa9, 0x83, 0x4a, 0x6a, 0x8d, 0xba, 0x2c, 0xc8, 0xae, 0x68, 0x46,
  0x9c, 0x90, 0x50, 0xa9, 0xa3, 0xa3, 0x36, 0xad, 0x3f, 0x3e, 0xad, 0x2e,
  0x5e, 0x79, 0x21, 0x74, 0xa7, 0x8c, 0x27, 0x79, 0x75, 0x8f, 0x5b, 0x5f,
  0xa9, 0x28, 0x61, 0x0d, 0xa4, 0x96, 0x71, 0x82, 0xb6, 0xb8, 0x89, 0x93,
  0x59, 0x43, 0x69, 0x81, 0x8c, 0x85, 0x88, 0xa1, 0x6b, 0x96, 0x40, 0x67,
  0xcf, 0x85, 0x87, 0x39, 0x7d, 0x54, 0x2b, 0x9e, 0xce, 0x9b, 0x45, 0x5b,
  0xa6, 0x94, 0x74, 0xa4, 0xb7, 0x47, 0xaa, 0x24, 0x8a, 0x7d, 0x79, 0x62,
  0x67, 0xdd, 0xaa, 0x29, 0x76, 0x93, 0x7c, 0x55, 0xbc, 0x54, 0x4e, 0x22,
  0x49, 0x71, 0x81, 0x19, 0xae, 0x92, 0x8a, 0x80, 0x5e, 0x74, 0x62, 0x98,
  0x5b, 0x5e, 0x71, 0x12, 0x88, 0xb4, 0x6a, 0x62, 0x5f, 0x91, 0x80, 0x80,
  0x59, 0x7f, 0x5e, 0x7e, 0xd1, 0x65, 0xd0, 0x16, 0xad, 0x96, 0x88, 0x7b,
  0x95, 0x66, 0x50, 0x4b, 0x53, 0x94, 0x7e, 0xc3, 0xa1, 0x78, 0x52, 0x96,
  0xb3, 0x61, 0x83, 0x68, 0x40, 0x83, 0x7a, 0x43, 0x60, 0xb2, 0x11, 0x83,
  0x84, 0xab, 0x6e, 0x9b, 0xcb, 0x35, 0x0b, 0x59, 0x79, 0x6e, 0x8f, 0x83,
  0x89, 0x44, 0x54, 0x44, 0x69, 0x8f, 0x94, 0x43, 0xae, 0xd9, 0x72, 0xa1,
  0x9e, 0x48, 0x5a, 0x46, 0x87, 0x47, 0x84, 0xce, 0x70, 0xbf, 0x26, 0x4b,
  0x63, 0xbb, 0x56, 0x81, 0xb1, 0x6f, 0xa1, 0x61, 0x60, 0xd6, 0x3c, 0x65,
  0xc3, 0x72, 0x89, 0x6b, 0xa1, 0xb5, 0x29, 0x43, 0x9a, 0x64, 0xcf, 0x2a,
  0xa6, 0x9c, 0x48, 0x3d, 0x7b, 0x6c, 0x7a, 0x62, 0x4f, 0x48, 0x6b, 0x1a,
  0xa1, 0x8d, 0x6b, 0x4f, 0xb6, 0x9c, 0x71, 0xc9, 0x77, 0x48, 0x3f, 0x60,
  0x45, 0xa4, 0x7f, 0x81, 0xa1, 0x88, 0x3b, 0x1e, 0xaa, 0xa1, 0x68, 0x76,
  0x3b, 0xc3, 0x8f, 0x68, 0x6f, 0xa4, 0x8d, 0x48, 0x87, 0xcb, 0x98, 0x5a,
  0x95, 0x94, 0x5c, 0x6c, 0x4e, 0x81, 0x57, 0xae, 0x79, 0x21, 0xb9, 0x72,
  0xa1, 0x54, 0xb9, 0x59, 0xc9, 0x2e, 0xc3, 0xb3, 0x28, 0x29, 0xa0, 0x35,
  0x65, 0x79, 0x30, 0x8a, 0xbd, 0x73, 0x84, 0x8b, 0x3e, 0x89, 0x87, 0x82,
  0x29, 0x6d, 0x8c, 0x48, 0x58, 0xdc, 0x4c, 0x6e, 0xae, 0x99, 0x5b, 0x0d,
  0x76, 0x60, 0x37, 0x8b, 0x64, 0x7e, 0x4f, 0xc9, 0x5c, 0x93, 0x37, 0xbe,
  0xda, 0x54, 0xa5, 0x66, 0xae, 0x7d, 0x09, 0x75, 0x51, 0x74, 0x7c, 0xc1,
  0x2d, 0xb3, 0x53, 0x8b, 0x55, 0x92, 0x76, 0x22, 0x91, 0x57, 0x43, 0x89,
  0x46, 0x4d, 0xd8, 0x7c, 0x46, 0x76, 0x47, 0x77, 0xab, 0x76, 0xdf, 0x3b,
  0x47, 0x8f, 0x90, 0xce, 0x3a, 0x58, 0x7a, 0x66, 0x9b, 0xa0, 0x3f, 0x68,
  0x5e, 0xb7, 0xa8, 0x2b, 0x7e, 0x5f, 0x43, 0xc1, 0x43, 0x7d, 0x75, 0x17,
  0x5f, 0x80, 0x58, 0x86, 0x86, 0xc5, 0x74, 0x99, 0xd2, 0x5c, 0x30, 0x9b,
  0x8f, 0x97, 0xa1, 0x41, 0x4a, 0x8d, 0x34, 0x81, 0x72, 0xc1, 0x84, 0x44,
  0x79, 0xc3, 0xc7, 0x72, 0xb4, 0x9b, 0x8b, 0x56, 0x3c, 0x48, 0x3e, 0x5a,
  0x3c, 0x63, 0xa7, 0x58, 0x98, 0xba, 0x58, 0xb3, 0x63, 0x65, 0xb7, 0x2b,
  0xad, 0x65, 0x41, 0xc4, 0x8e, 0x1d, 0x83, 0x2a, 0x6b, 0x47, 0x31, 0xce,
  0x84, 0x98, 0x87, 0x50, 0xb7, 0x54, 0x69, 0xc5, 0x7d, 0x6c, 0x72, 0x8e,
  0x96, 0x8e, 0x78, 0x8f, 0x49, 0x60, 0x74, 0x6d, 0x6b, 0x84, 0x59, 0x95,
  0xa5, 0x77, 0x42, 0x88, 0x60, 0xd3, 0x27, 0x6d, 0x74, 0x23, 0x36, 0x58,
  0x8c, 0x31, 0x50, 0x8b, 0x71, 0x7c, 0x4d, 0xa5, 0x94, 0x64, 0xb4, 0x72,
  0x57, 0x59, 0x83, 0x52, 0x72, 0x74, 0x8d, 0x4f, 0xdd, 0x4f, 0x97, 0xc6,
  0xc0, 0xc5, 0x85, 0x96, 0x53, 0x34, 0x9e, 0x6f, 0x59, 0x9b, 0x28, 0x97,
  0x6f, 0xab, 0x40, 0x79, 0xca, 0x6f, 0x8a, 0x68, 0x65, 0x98, 0x94, 0x5f,
  0xa6, 0x60, 0x45, 0x93, 0x8d, 0x5c, 0x8e, 0x57, 0xd2, 0x51, 0x76, 0xda,
  0xba, 0xb1, 0x9f, 0xb7, 0x61, 0x53, 0x3c, 0x86, 0x9e, 0x3f, 0x70, 0x52,
  0x8b, 0x83, 0x41, 0x62, 0x98, 0xb9, 0xd0, 0x5e, 0x72, 0x73, 0x2d, 0x99,
  0xa5, 0xa0, 0x62, 0x64, 0x5d, 0x5f, 0x3d, 0xa2, 0x54, 0x60, 0x50, 0x3d,
  0x53, 0xa0, 0x64, 0xa8, 0x53, 0x53, 0x93, 0x1d, 0xd8, 0xa4, 0x56, 0x4e,
  0x4d, 0x56, 0xc9, 0x45, 0x68, 0x48, 0x46, 0x95, 0x75, 0x8d, 0xbe, 0x59,
  0x4c, 0xac, 0xb3, 0x59, 0x91, 0x90, 0x5f, 0x20, 0x86, 0x99, 0xad, 0x21,
  0x8e, 0x90, 0xad, 0xa8, 0x60, 0x82, 0x3d, 0xc5, 0x52, 0x6f, 0xb1, 0x39,
  0xbd, 0x97, 0xa8, 0x55, 0x55, 0x77, 0x79, 0x51, 0xc5, 0xb7, 0x96, 0x67,
  0x33, 0x52, 0xa5, 0x93, 0x81, 0xaf, 0x61, 0x84, 0xc2, 0xb1, 0x80, 0x78,
  0x85, 0xa8, 0x6c, 0x6f, 0x84, 0x62, 0x9a, 0xa1, 0x61, 0x7f, 0x38, 0x59,
  0x83, 0x2d, 0xa8, 0x61, 0xb0, 0x89, 0x53, 0x5d, 0xa3, 0x8c, 0xcf, 0x47,
  0x70, 0xb8, 0x7f, 0x40, 0x7f, 0x8c, 0x80, 0x7e, 0x6b, 0x8b, 0x6a, 0xc2,
  0x48, 0x8e, 0xa6, 0x77, 0xb8, 0xa6, 0x7f, 0x61, 0xb7, 0x30, 0x70, 0x95,
  0x23, 0x6b, 0x44, 0x6a, 0xbf, 0x4c, 0x4b, 0x40, 0x69, 0xd5, 0x50, 0x7b,
  0x9f, 0x3d, 0xa1, 0x2f, 0xb5, 0x61, 0x7b, 0xbf, 0x73, 0x74, 0x5a, 0x7a,
  0x8a, 0x45, 0xa8, 0x2f, 0x89, 0xa7, 0x99, 0x75, 0xb0, 0x77, 0xc0, 0x42,
  0x43, 0x5e, 0xcb, 0x7a, 0x7c, 0x9d, 0x8d, 0x94, 0x4e, 0x7f, 0x99, 0x4f,
  0x7f, 0x9f, 0xba, 0x73, 0xa9, 0x2c, 0x5e, 0x37, 0xbc, 0x6f, 0xa7, 0xc5,
  0x94, 0x33, 0x87, 0x7e, 0x8d, 0xc2, 0x8c, 0x78, 0x87, 0x2f, 0xc7, 0xa2,
  0x62, 0x9d, 0x3e, 0x95, 0x97, 0xad, 0x5b, 0x88, 0xd3, 0x6e, 0xb4, 0x9a,
  0x9c, 0x87, 0x87, 0x6b, 0xca, 0xa2, 0x42, 0x4e, 0xa3, 0x91, 0x90, 0x54,
  0x83, 0xc1, 0x8a, 0x56, 0x6a, 0x6f, 0x99, 0xb9, 0x38, 0xbc, 0x4e, 0x4e,
  0xc4, 0xaf, 0x82, 0x62, 0x87, 0x42, 0x5a, 0x9b, 0x81, 0x75, 0xa2, 0x2f,
  0xa5, 0x61, 0x96, 0xb6, 0x82, 0x54, 0xa7, 0x6b, 0x7a, 0x5c, 0x28, 0x2e,
  0x4c, 0x81, 0x67, 0x6d, 0xb7, 0x92, 0x5b, 0x62, 0x52, 0x84, 0xb1, 0x6d,
  0x8b, 0x53, 0x93, 0x88, 0x6e, 0x9e, 0xd7, 0x8a, 0x8b, 0x67, 0xb4, 0x4b,
  0x79, 0x9e, 0x2b, 0x58, 0xa9, 0x82, 0x49, 0x9a, 0x5e, 0xd7, 0xa8, 0x74,
  0xba, 0x7a, 0x48, 0x6d, 0x96, 0x78, 0xb8, 0x46, 0x3f, 0x77, 0x77, 0xc4,
  0x90, 0x90, 0x2a, 0x5c, 0x60, 0x82, 0x77, 0xd5, 0x81, 0x8e, 0x59, 0x72,
  0xab, 0xb1, 0xbe, 0x72, 0x86, 0xb2, 0x80, 0x55, 0x5b, 0x90, 0x55, 0x7a,
  0x53, 0x70, 0x3b, 0xbd, 0xa3, 0x5d, 0x7e, 0x5d, 0x81, 0xb3, 0x23, 0x4b,
  0xc9, 0x50, 0x7f, 0x5b, 0x29, 0x50, 0xcb, 0x3c, 0x6a, 0x8f, 0xb5, 0x60,
  0x30, 0x89, 0x53, 0xaf, 0x97, 0x66, 0x9c, 0x6d, 0xa1, 0x51, 0x72, 0xa4,
  0x82, 0xab, 0x88, 0xa5, 0x49, 0xa5, 0x57, 0x9f, 0x67, 0xa5, 0xa7, 0x35,
  0x6d, 0x96, 0x84, 0x98, 0xb9, 0xbd, 0x62, 0x4f, 0x2f, 0x69, 0x8e, 0x63,
  0x59, 0x6c, 0x98, 0xad, 0xaa, 0x87, 0x52, 0x36, 0xc5, 0x86, 0x44, 0x77,
  0xcc, 0x4c, 0x83, 0x55, 0x5d, 0x90, 0x7d, 0x31, 0x88, 0xb1, 0x72, 0x97,
  0x8d, 0x94, 0x4a, 0x70, 0x86, 0x71, 0x59, 0xc2, 0x98, 0x68, 0x21, 0x63,
  0x2a, 0xd8, 0x70, 0x5b, 0x6f, 0x91, 0x33, 0x64, 0x5a, 0xb0, 0xca, 0x84,
  0x9c, 0x5e, 0x58, 0x80, 0x87, 0x72, 0x78, 0x6d, 0x5a, 0x68, 0x7f, 0x45,
  0x2c, 0xa5, 0x71, 0xb4, 0xd0, 0x84, 0x72, 0xb3, 0x7c, 0x73, 0xba, 0x45,
  0xbc, 0x5c, 0x4b, 0x7c, 0x94, 0xbb, 0x9b, 0x6b, 0x60, 0x5d, 0x69, 0x8b,
  0x7b, 0x9c, 0x74, 0x67, 0x79, 0xb5, 0xa0, 0x74, 0x68, 0x9d, 0x68, 0xae,
  0x4f, 0xa5, 0x4d, 0x59, 0x60, 0x91, 0x8b, 0x63, 0xbe, 0x27, 0x72, 0xad,
  0xc7, 0xb0, 0xad, 0x9f, 0xc3, 0xaa, 0x1a, 0x3d, 0x81, 0xa0, 0xd0, 0x5d,
  0x98, 0x6e, 0x55, 0x74, 0x7d, 0xc9, 0x8e, 0x92, 0x9e, 0xc8, 0x5a, 0x8f,
  0x95, 0x88, 0xa5, 0x36, 0xbe, 0x73, 0x94, 0x7f, 0x1b, 0x4c, 0x67, 0x41,
  0xd7, 0x95, 0xcd, 0xc3, 0x74, 0xc2, 0x6a, 0x82, 0x5f, 0x35, 0x4d, 0x50,
  0x83, 0xc7, 0x5b, 0x96, 0xcc, 0xad, 0xac, 0xd0, 0xd8, 0x89, 0x3d, 0x82,
  0xbe, 0x53, 0xa0, 0x3b, 0x86, 0x57, 0x90, 0x72, 0xc3, 0x51, 0xb4, 0x84,
  0x94, 0x77, 0x7e, 0x70, 0xa2, 0x95, 0x33, 0x73, 0x5c, 0x62, 0x9b, 0x5b,
  0xa2, 0x8a, 0x9c, 0x4d, 0x63, 0x5c, 0x7c, 0x7b, 0x1f, 0x79, 0x60, 0x9c,
  0x51, 0x36, 0x94, 0xa4, 0x79, 0xd5, 0x95, 0x79, 0x80, 0xb1, 0x7e, 0x34,
  0x71, 0xa3, 0x7e, 0x21, 0x7c, 0x85, 0xc2, 0x52, 0x52, 0xa0, 0xaf, 0x2a,
  0x56, 0xb1, 0x57, 0x3d, 0x6f, 0x8e, 0x58, 0x1a, 0x8f, 0x8b, 0x68, 0x48,
  0x5d, 0x6f, 0x89, 0x32, 0x5f, 0x63, 0x9c, 0x68, 0xc8, 0x5a, 0x7c, 0x9e,
  0x7e, 0xa0, 0x69, 0x5e, 0x8c, 0x70, 0x64, 0x2b, 0xa5, 0xb6, 0x25, 0x9a,
  0x6a, 0x97, 0x8a, 0x47, 0x7e, 0x4d, 0x8c, 0xb6, 0xb4, 0x44, 0x55, 0x51,
  0x60, 0x90, 0x2e, 0x57, 0x6a, 0xd9, 0x58, 0x6e, 0x84, 0x82, 0x59, 0x4d,
  0x6c, 0x8b, 0x98, 0x86, 0x80, 0x6c, 0x9d, 0xa4, 0x5d, 0x86, 0x4f, 0x6a,
  0x51, 0x95, 0x47, 0x86, 0x74, 0x52, 0x8b, 0x60, 0x82, 0x7e, 0x94, 0x67,
  0x73, 0x46, 0x61, 0xca, 0xa6, 0x7a, 0x35, 0x82, 0x25, 0x4f, 0x94, 0x68,
  0x5c, 0x8b, 0x5f, 0xa7, 0x2d, 0x47, 0x9a, 0x82, 0xb4, 0x43, 0x85, 0xb9,
  0x78, 0xd7, 0x3d, 0x8f, 0x94, 0xc1, 0xbc, 0x39, 0xdd, 0x92, 0x67, 0x67,
  0x2e, 0xb1, 0xd4, 0x9d, 0x4a, 0x66, 0x7e, 0x96, 0x6c, 0x78, 0x84, 0x35,
  0xb0, 0x86, 0x76, 0x87, 0x71, 0x81, 0x2f, 0x5e, 0xc4, 0x9d, 0xa5, 0x57,
  0xa2, 0x1f, 0x9c, 0x69, 0x51, 0x89, 0x5c, 0x3a, 0x62, 0xa4, 0x2f, 0x9d,
  0x89, 0xb8, 0x6a, 0x99, 0xb1, 0xd6, 0x90, 0x51, 0x49, 0xcc, 0x8e, 0x5e,
  0x81, 0x25, 0x7e, 0x7c, 0x79, 0x87, 0x60, 0xc7, 0x44, 0x77, 0x73, 0x5f,
  0x57, 0xb2, 0x33, 0x85, 0x88, 0x52, 0xa2, 0x1b, 0xc1, 0xb8, 0x2f, 0x9c,
  0xad, 0x9c, 0x9f, 0x60, 0x26, 0x21, 0x19, 0x6f, 0x7f, 0x8f, 0xac, 0x84,
  0xb6, 0x45, 0x75, 0x5a, 0x7e, 0x4b, 0xba, 0x88, 0xb0, 0x78, 0xc8, 0x6d,
  0x50, 0x71, 0x96, 0x75, 0xa5, 0x49, 0x7e, 0x41, 0x7b, 0x3d, 0x50, 0x85,
  0x84, 0x8b, 0x9c, 0x52, 0x89, 0x70, 0x49, 0x6c, 0xc1, 0x8b, 0x72, 0x8d,
  0x62, 0x82, 0x8a, 0x5f, 0x63, 0x8d, 0x67, 0x5b, 0xa3, 0x69, 0x92, 0x76,
  0x7c, 0xb7, 0x2d, 0xba, 0x8f, 0xa3, 0x50, 0x42, 0x64, 0x8a, 0x58, 0xdb,
  0x99, 0x72, 0x5f, 0x56, 0x33, 0x71, 0x97, 0xb4, 0x79, 0x8e, 0x56, 0x9b,
  0x46, 0xb2, 0x87, 0x6d, 0x34, 0xc1, 0x70, 0xa9, 0x88, 0x3f, 0x42, 0xdc,
  0x85, 0xa9, 0x6a, 0x67, 0x9e, 0x88, 0x5a, 0xc1, 0x66, 0x9e, 0x9d, 0x9a,
  0xa2, 0x4d, 0x99, 0x53, 0x92, 0x5b, 0x9f, 0x69, 0x40, 0x6f, 0x65, 0x80,
  0x6b, 0x76, 0x38, 0x6f, 0x49, 0x43, 0x50, 0x51, 0x83, 0x56, 0x44, 0x80,
  0xb9, 0x71, 0x69, 0x68, 0x8c, 0x9a, 0x20, 0xc1, 0xb1, 0x6b, 0x6e, 0xc3,
  0x89, 0xbf, 0x8c, 0xa4, 0x4c, 0x77, 0x67, 0x40, 0x29, 0xc4, 0x5b, 0x9c,
  0x8e, 0xa0, 0x91, 0x89, 0xc2, 0x56, 0x9e, 0x64, 0x58, 0x3a, 0xcc, 0x75,
  0xac, 0x43, 0xad, 0x84, 0x87, 0xa5, 0x53, 0x77, 0x98, 0x51, 0x42, 0x82,
  0xac, 0xac, 0xd3, 0x96, 0x99, 0x3b, 0x51, 0xca, 0xd7, 0x6b, 0xaa, 0x72,
  0x6a, 0x93, 0x89, 0xbd, 0x44, 0xab, 0xa3, 0xb6, 0x5c, 0xb2, 0x68, 0x70,
  0xa2, 0x8c, 0x48, 0x7c, 0x80, 0xa5, 0x9b, 0x70, 0xc2, 0x5c, 0x7a, 0x6f,
  0xb2, 0x6c, 0x83, 0x41, 0x5f, 0x82, 0x94, 0x90, 0xc0, 0x64, 0x99, 0x38,
  0x3a, 0x9e, 0x56, 0x75, 0xc6, 0xb0, 0x73, 0x7c, 0x83, 0xa7, 0x6b, 0x4a,
  0xac, 0x91, 0x76, 0xa5, 0xb4, 0xc9, 0x65, 0x9e, 0x7c, 0x34, 0x5b, 0x27,
  0x45, 0x52, 0x7d, 0x75, 0x63, 0x74, 0x6c, 0xb2, 0x28, 0x6b, 0x33, 0x8c,
  0x8d, 0xa5, 0x84, 0x65, 0x97, 0x8d, 0x25, 0x4f, 0x8d, 0x59, 0x89, 0x5f,
  0x81, 0x6e, 0xad, 0x7f, 0xac, 0x91, 0xa6, 0x88, 0xaf, 0x60, 0x8b, 0x49,
  0x1b, 0xa2, 0x83, 0x60, 0xb7, 0x54, 0x61, 0x9b, 0x3b, 0x65, 0x7c, 0x60,
  0x49, 0x4b, 0x82, 0x5a, 0x78, 0xc1, 0xa8, 0x88, 0x9c, 0x58, 0x70, 0x84,
  0x67, 0x9f, 0x97, 0xae, 0x96, 0x6d, 0x9e, 0x99, 0xaf, 0x53, 0x76, 0x5f,
  0xbb, 0x5f, 0x7f, 0x6c, 0x4f, 0xad, 0xbb, 0xcf, 0x99, 0x8a, 0x72, 0x48,
  0xd2, 0xcf, 0x48, 0x90, 0xc6, 0x1f, 0x73, 0x68, 0x50, 0x5d, 0xa2, 0x81,
  0xa1, 0x51, 0x33, 0x51, 0x3a, 0x63, 0xc2, 0x91, 0x5b, 0xa9, 0x50, 0x86,
  0x5c, 0x96, 0xd3, 0x75, 0xbd, 0x6c, 0x2c, 0x25, 0x84, 0x51, 0x8a, 0x4d,
  0x64, 0xa8, 0x87, 0x80, 0x89, 0x5b, 0x83, 0x33, 0x98, 0x66, 0x86, 0x5b,
  0x67, 0xb9, 0x9e, 0x65, 0x55, 0x9a, 0x6c, 0x9a, 0x57, 0x8d, 0x33, 0x24,
  0x57, 0x79, 0x35, 0x73, 0xb7, 0x48, 0xb2, 0x68, 0xa7, 0x7c, 0x40, 0x57,
  0xb3, 0x8e, 0x92, 0x59, 0x4c, 0xd2, 0x5a, 0xa0, 0x9a, 0x59, 0x90, 0x80,
  0xb4, 0x42, 0xac, 0x63, 0x69, 0x8b, 0xa7, 0x90, 0x78, 0x65, 0x8e, 0x78,
  0x72, 0x8c, 0x96, 0x5a, 0x91, 0x64, 0x63, 0xbe, 0x9e, 0x3f, 0x94, 0x2d,
  0x35, 0x40, 0x66, 0x37, 0xb1, 0x73, 0x9a, 0x68, 0xaa, 0x95, 0x82, 0x3e,
  0x61, 0xc1, 0x96, 0x38, 0x81, 0x34, 0x7a, 0x3b, 0xb8, 0x7c, 0x98, 0x5d,
  0x58, 0xdf, 0x8e, 0x59, 0x56, 0x38, 0x79, 0xad, 0x89, 0x77, 0x2b, 0x56,
  0x6e, 0x6c, 0x7e, 0x5a, 0xbc, 0x83, 0xa5, 0x7d, 0x99, 0x56, 0xd0, 0x91,
  0x3d, 0x53, 0x89, 0x6a, 0x6f, 0x7d, 0x9f, 0x3b, 0x6f, 0x76, 0x73, 0x64,
  0x8c, 0x77, 0xaa, 0xbe, 0x77, 0xdf, 0x4e, 0x80, 0x3a, 0x96, 0x84, 0x77,
  0xce, 0xaf, 0x5e, 0x90, 0x9a, 0xac, 0x91, 0x79, 0x47, 0x9c, 0x76, 0xab,
  0x86, 0xa9, 0x5c, 0x91, 0x84, 0x63, 0x92, 0x55, 0x4b, 0x7d, 0xc8, 0x5a,
  0x9b, 0x5f, 0x73, 0x2a, 0x72, 0x71, 0x80, 0x70, 0x59, 0x81, 0x30, 0xa5,
  0x4e, 0xb3, 0x56, 0xa6, 0x9a, 0x9f, 0x5e, 0x89, 0x6c, 0xd8, 0x88, 0x5b,
  0xc6, 0x7a, 0x34, 0x4e, 0x8c, 0x66, 0x7d, 0x7b, 0x4a, 0xb6, 0xa6, 0xba,
  0xaa, 0x9a, 0x72, 0xa7, 0x5b, 0x8f, 0x57, 0x61, 0x88, 0x42, 0x92, 0x54,
  0x82, 0x93, 0xb8, 0x92, 0x67, 0xa1, 0x7f, 0x6b, 0xab, 0x9d, 0x4c, 0xa1,
  0x9c, 0xac, 0xab, 0x35, 0x94, 0x8b, 0x86, 0x6c, 0x72, 0xdd, 0x7f, 0x92,
  0x6c, 0x6a, 0x91, 0x6e, 0xac, 0xda, 0xa4, 0x6f, 0xaf, 0x2a, 0x20, 0xa2,
  0x96, 0x74, 0x49, 0x50, 0xa4, 0xa9, 0xa9, 0x29, 0x51, 0x97, 0x43, 0xa5,
  0x8c, 0x62, 0xa3, 0x84, 0x71, 0x91, 0x56, 0x32, 0x89, 0x96, 0x43, 0x89,
  0x8a, 0xac, 0x7d, 0x71, 0x6a, 0xb5, 0x96, 0x7e, 0x7e, 0x36, 0x8f, 0x56,
  0x7c, 0x7c, 0x99, 0x63, 0x50, 0xc1, 0x5a, 0x72, 0x5c, 0x99, 0x56, 0xa5,
  0x66, 0x70, 0x4d, 0x3f, 0x9a, 0x7c, 0x7d, 0xb5, 0xb5, 0x6d, 0x91, 0xb0,
  0x70, 0x8c, 0x2d, 0x6c, 0xa2, 0xb4, 0xb8, 0x61, 0x89, 0x65, 0x68, 0x54,
  0xc8, 0xad, 0x7a, 0xa2, 0xaa, 0xdd, 0x54, 0xa9, 0xc3, 0x79, 0xb9, 0x3f,
  0xb0, 0xb8, 0x8c, 0x70, 0x31, 0x87, 0x7d, 0xbc, 0x35, 0xbe, 0x2b, 0x38,
  0xa5, 0x61, 0xb4, 0x24, 0x6b, 0x4e, 0x7a, 0xac, 0xbe, 0x7e, 0x63, 0x16,
  0x42, 0x76, 0x8d, 0x72, 0x72, 0x75, 0xb1, 0x66, 0x73, 0x79, 0x77, 0xb1,
  0xa0, 0x75, 0x74, 0x7e, 0x3f, 0xc7, 0xa8, 0x4f, 0xb0, 0x54, 0x90, 0x64,
  0x42, 0x55, 0x40, 0x36, 0x8b, 0x30, 0x4d, 0xc0, 0x5d, 0x68, 0xcb, 0xd2,
  0x4b, 0x83, 0x93, 0x84, 0x9e, 0x96, 0xad, 0x6f, 0x6d, 0x7b, 0xae, 0x76,
  0x6f, 0x30, 0x5c, 0x29, 0x76, 0xb4, 0x58, 0x66, 0xcc, 0x84, 0x64, 0x5d,
  0x35, 0x6f, 0x67, 0x9d, 0xbb, 0x87, 0x93, 0x9d, 0x53, 0x3c, 0xca, 0x2a,
  0xad, 0x4f, 0x6f, 0x60, 0xb2, 0x8b, 0xad, 0x5a, 0x78, 0x80, 0x8e, 0x73,
  0xaf, 0xcd, 0x5d, 0x93, 0x33, 0x70, 0x56, 0x76, 0x4d, 0xb4, 0x58, 0x62,
  0xbc, 0xa2, 0xa6, 0xa4, 0x86, 0x5b, 0x59, 0x40, 0x88, 0x66, 0xbb, 0xa1,
  0x68, 0x20, 0xac, 0x2a, 0x62, 0xbc, 0x8f, 0x80, 0x55, 0x44, 0x91, 0x6c,
  0x96, 0x54, 0x8a, 0xc3, 0x8f, 0xdb, 0x85, 0x7e, 0x9b, 0x7b, 0x51, 0xc4,
  0x5d, 0xd9, 0x5e, 0xc5, 0x6e, 0x68, 0x7a, 0x79, 0xc0, 0xc4, 0xc0, 0x7f,
  0x89, 0x54, 0x7a, 0x92, 0x6d, 0xbb, 0xb1, 0x87, 0xc3, 0x2f, 0xbb, 0x49,
  0x9d, 0x54, 0x7c, 0x88, 0x95, 0x37, 0x4d, 0x29, 0x8f, 0xab, 0x3f, 0x8d,
  0xae, 0x84, 0x83, 0x56, 0x7c, 0xa2, 0x5f, 0x5b, 0xc5, 0xae, 0x40, 0x4b,
  0x6e, 0xa1, 0x4f, 0xab, 0x8d, 0xaf, 0xce, 0x3e, 0x82, 0x68, 0x5a, 0x63,
  0xaf, 0x4e, 0x89, 0xc6, 0x72, 0xb5, 0xa3, 0x94, 0x50, 0x69, 0x7e, 0xa0,
  0xa3, 0x5b, 0x81, 0x3e, 0xa0, 0x58, 0x98, 0x94, 0x58, 0x39, 0x75, 0xb8,
  0x85, 0x6c, 0x62, 0x51, 0xb6, 0x63, 0x35, 0x77, 0x7f, 0xa6, 0x93, 0x40,
  0xd8, 0x8a, 0xa2, 0x40, 0x71, 0x5e, 0x64, 0x5f, 0x8d, 0xc8, 0x74, 0x60,
  0x45, 0x55, 0x4e, 0x3a, 0x63, 0x8b, 0x84, 0x6b, 0x6d, 0x3c, 0x7b, 0xae,
  0x8d, 0x9b, 0x66, 0x6f, 0xcc, 0x96, 0x55, 0x46, 0xae, 0x4f, 0x80, 0x9c,
  0x5f, 0x89, 0xad, 0x9f, 0xb3, 0xc2, 0xaf, 0xb7, 0x6d, 0x3d, 0x9c, 0x87,
  0x9a, 0x96, 0x8f, 0xc2, 0xa1, 0x64, 0x8e, 0xbe, 0x59, 0xae, 0x8c, 0x85,
  0x88, 0xa4, 0x86, 0xa9, 0x72, 0x27, 0x5f, 0xc1, 0x6a, 0x20, 0x77, 0xa3,
  0xad, 0xa0, 0x21, 0x6d, 0xdc, 0xa9, 0x47, 0x5a, 0x6d, 0x4b, 0x9e, 0x8b,
  0xa7, 0xd4, 0x7c, 0xad, 0x4e, 0x8a, 0x53, 0xaf, 0x6b, 0x7c, 0x67, 0x8e,
  0x57, 0x74, 0x8c, 0xb9, 0x74, 0x6b, 0x95, 0x9c, 0xb9, 0x8d, 0x7a, 0x7e,
  0xbb, 0x65, 0xb2, 0x69, 0xa8, 0x64, 0x4b, 0x59, 0xa9, 0x61, 0x30, 0x9d,
  0x85, 0x8f, 0x71, 0x9e, 0x6a, 0xb3, 0x84, 0x4b, 0x63, 0x83, 0x66, 0x99,
  0x65, 0x9c, 0x7b, 0x8b, 0x80, 0xb9, 0x69, 0x96, 0x88, 0x61, 0x5f, 0xba,
  0x9c, 0x32, 0xb0, 0xa3, 0x6b, 0x9c, 0x97, 0x49, 0xaa, 0xc2, 0x73, 0x51,
  0x41, 0x57, 0xa5, 0x7c, 0xb3, 0x53, 0x6f, 0x98, 0xbe, 0xa7, 0x65, 0x9f,
  0x8c, 0x75, 0x7f, 0xd5, 0x55, 0x7d, 0x76, 0x6a, 0x36, 0xa0, 0xb4, 0x45,
  0x70, 0x8d, 0x91, 0xb7, 0x39, 0x87, 0x35, 0x6b, 0xc5, 0x65, 0x9f, 0x8e,
  0x94, 0x78, 0xa8, 0x4b, 0xa1, 0x61, 0xb2, 0x66, 0xbc, 0x65, 0x9e, 0xbb,
  0x33, 0xc1, 0x39, 0x6b, 0x77, 0x9c, 0x9a, 0x7a, 0x8c, 0x3c, 0x96, 0xac,
  0xa4, 0x76, 0xde, 0xa2, 0xa8, 0x5a, 0x74, 0x35, 0x47, 0x81, 0x46, 0x2c,
  0xa2, 0x94, 0x6d, 0x55, 0x83, 0x51, 0x46, 0xa6, 0x96, 0xbb, 0x19, 0x25,
  0x90, 0xbe, 0xac, 0x7a, 0x91, 0x53, 0x1b, 0x2c, 0x42, 0x5c, 0x47, 0x48,
  0x99, 0xbb, 0x7e, 0xa1, 0xb8, 0x9d, 0x77, 0x3c, 0x4a, 0x58, 0x50, 0x9b,
  0x4e, 0xa9, 0x9f, 0x63, 0x89, 0x85, 0x96, 0x32, 0xbe, 0xa4, 0x98, 0x73,
  0xa0, 0x96, 0x60, 0x75, 0xad, 0xbb, 0xc9, 0x53, 0x78, 0x8a, 0x8d, 0x62,
  0xa1, 0x77, 0x93, 0x6d, 0x42, 0x70, 0x76, 0x49, 0x84, 0x8f, 0xa0, 0x4f,
  0xa9, 0x70, 0xce, 0xa8, 0xae, 0x42, 0x8b, 0x5f, 0xab, 0x67, 0x95, 0x4d,
  0x57, 0x4a, 0x69, 0x9b, 0x8d, 0x3a, 0x7c, 0x98, 0x25, 0x85, 0x60, 0x68,
  0xa1, 0x7c, 0x6a, 0x43, 0x85, 0x89, 0x72, 0x6f, 0x4d, 0x68, 0xd3, 0x5a,
  0x5a, 0xd4, 0x7a, 0x89, 0x61, 0xb2, 0x61, 0x6c, 0x9b, 0x60, 0x4c, 0xa9,
  0x9c, 0xa5, 0x4f, 0xad, 0x86, 0xdb, 0x36, 0x43, 0x64, 0xa5, 0x5c, 0x38,
  0x4f, 0x51, 0x69, 0x89, 0x7f, 0x72, 0x46, 0x68, 0xa0, 0xa5, 0x84, 0x74,
  0x48, 0xd7, 0xb4, 0x6d, 0x67, 0x7f, 0xbb, 0x79, 0x77, 0x97, 0xca, 0x76,
  0x7f, 0x9c, 0xb1, 0x85, 0x5c, 0x9b, 0x5a, 0x53, 0x51, 0x92, 0x9f, 0x64,
  0x82, 0x90, 0xa3, 0x85, 0x5a, 0x7e, 0xa0, 0x28, 0x76, 0xb7, 0x7d, 0xaa,
  0x7d, 0x39, 0x7a, 0x62, 0x21, 0x98, 0x6e, 0x57, 0x3d, 0xc9, 0xd9, 0x9d,
  0x72, 0x82, 0x31, 0xa9, 0xa3, 0xa7, 0x72, 0x77, 0x2c, 0x89, 0x49, 0x2a,
  0x64, 0x8a, 0x5f, 0x3f, 0x81, 0xbc, 0xb0, 0x8c, 0x80, 0x72, 0x75, 0x84,
  0x75, 0x8d, 0x42, 0xa3, 0x8b, 0x77, 0xd8, 0x38, 0x5c, 0x80, 0x62, 0x7e,
  0x44, 0x92, 0x95, 0xbf, 0x48, 0xab, 0x7a, 0xa4, 0x87, 0x7e, 0x43, 0x7a,
  0x44, 0x5d, 0x86, 0x8d, 0x4a, 0x76, 0x5f, 0x4f, 0xb3, 0x5f, 0x5e, 0x78,
  0x2f, 0x83, 0x85, 0x67, 0x23, 0x6d, 0x97, 0x4d, 0x71, 0x6c, 0x32, 0xce,
  0xa0, 0xc2, 0xcc, 0x5c, 0x4e, 0x36, 0xcf, 0x8a, 0x53, 0x68, 0x6c, 0x46,
  0x8e, 0xbc, 0x75, 0xb2, 0x2f, 0x8f, 0x47, 0x86, 0xac, 0x54, 0x3e, 0xbc,
  0x77, 0x64, 0x7d, 0x8f, 0x92, 0xcb, 0x73, 0x5f, 0xaa, 0x77, 0x5f, 0x3c,
  0xb7, 0x5a, 0xbb, 0x98, 0xbb, 0x4c, 0x77, 0x42, 0x8a, 0xad, 0xab, 0xbe,
  0x72, 0x91, 0x38, 0xa1, 0x85, 0x8b, 0x7a, 0x27, 0xd5, 0x5f, 0xa3, 0xaa,
  0x98, 0x85, 0x99, 0xc8, 0xa2, 0x75, 0x50, 0xc1, 0x7e, 0x6f, 0x7a, 0x73,
  0x27, 0x6e, 0x4f, 0x7e, 0x38, 0x5d, 0x38, 0x73, 0x3a, 0x9f, 0x40, 0xd0,
  0x91, 0x51, 0x3f, 0xa4, 0x95, 0xb5, 0x8a, 0x6b, 0x86, 0x60, 0xc1, 0x83,
  0x66, 0xa2, 0x15, 0xb1, 0x4e, 0x5e, 0x25, 0x60, 0xb9, 0x6d, 0x7e, 0x5a,
  0xbf, 0x70, 0xca, 0x77, 0x3c, 0x3f, 0x60, 0xc1, 0x81, 0x58, 0x7e, 0x7b,
  0xa5, 0x30, 0x50, 0xd3, 0x7c, 0x61, 0x80, 0x57, 0x73, 0x75, 0x35, 0xb6,
  0xaf, 0xb0, 0xb9, 0xb0, 0xa6, 0x4e, 0x2e, 0xae, 0x20, 0x8f, 0x4c, 0x70,
  0x41, 0x59, 0x7f, 0x8f, 0x58, 0x9e, 0xa4, 0x67, 0x7c, 0x81, 0xa7, 0x8e,
  0xb1, 0xa6, 0x86, 0x90, 0x5e, 0xa5, 0x87, 0x4b, 0x45, 0x57, 0xc3, 0x93,
  0x3f, 0x47, 0x88, 0x82, 0x61, 0x86, 0x7c, 0x30, 0x70, 0x5d, 0xa2, 0x74,
  0x58, 0x9e, 0x9c, 0x76, 0x9d, 0x5f, 0x89, 0xda, 0x44, 0x94, 0x8d, 0xc6,
  0x84, 0x5f, 0xb2, 0x4f, 0x6b, 0x64, 0xcb, 0x5a, 0x60, 0xc6, 0x6f, 0x4d,
  0x6f, 0x5b, 0xb9, 0x8e, 0x61, 0x48, 0x83, 0x7b, 0xa8, 0x5c, 0x8e, 0x8c,
  0xce, 0xa4, 0x4c, 0xa4, 0x56, 0x5f, 0xa4, 0x8f, 0x9d, 0xa5, 0x8f, 0x32,
  0x64, 0x68, 0x40, 0xb9, 0xb5, 0x40, 0x61, 0x75, 0x69, 0x63, 0xb5, 0x6c,
  0x8f, 0x4a, 0x62, 0x90, 0x4b, 0xcc, 0x53, 0x67, 0x5a, 0x6e, 0x41, 0x38,
  0x9b, 0x3a, 0x93, 0x71, 0x8e, 0x4e, 0x71, 0xcd, 0x7e, 0x9b, 0xd7, 0xac,
  0x92, 0xb7, 0x6c, 0x98, 0xa3, 0x88, 0xaf, 0x3d, 0x73, 0xb8, 0x7f, 0x5d,
  0x65, 0x7f, 0x54, 0xac, 0x4a, 0x6d, 0x69, 0x45, 0xac, 0x7c, 0x54, 0x99,
  0xbc, 0x69, 0x81, 0x7b, 0x56, 0x96, 0x73, 0x5d, 0x68, 0x60, 0xc1, 0xce,
  0x4a, 0x4c, 0xb8, 0x7b, 0x6c, 0x6b, 0xb1, 0x94, 0x45, 0xa9, 0xb7, 0x65,
  0x90, 0x47, 0x26, 0x8e, 0x65, 0xa3, 0x62, 0xa6, 0x56, 0x7d, 0x5c, 0x6d,
  0x52, 0x44, 0x2b, 0x96, 0x81, 0x8a, 0x80, 0x70, 0x91, 0x6a, 0x66, 0x9d,
  0x6a, 0x51, 0x93, 0x29, 0x56, 0x89, 0xa4, 0xcb, 0x7b, 0xec, 0x6d, 0xa3,
  0x6f, 0x35, 0xb2, 0xd4, 0x84, 0x65, 0x38, 0x6f, 0x3a, 0x9e, 0x96, 0x7d,
  0x9a, 0x66, 0xcd, 0x37, 0x6f, 0x6f, 0x7b, 0x99, 0xc7, 0x66, 0x5f, 0x80,
  0x99, 0x7c, 0x8b, 0x67, 0xa5, 0x4f, 0x33, 0x73, 0xa0, 0x66, 0x43, 0xa9,
  0x6c, 0x99, 0x72, 0x90, 0x6d, 0x84, 0x7b, 0x75, 0x33, 0xc4, 0x7e, 0x90,
  0x6d, 0xaa, 0xa6, 0x73, 0x83, 0xa2, 0x6d, 0x99, 0x5d, 0xa5, 0x6e, 0x6b,
  0x71, 0x88, 0x66, 0x85, 0x92, 0xab, 0x8d, 0xb2, 0x82, 0x83, 0x2b, 0x76,
  0x72, 0x54, 0x75, 0x44, 0x60, 0x83, 0x7a, 0x89, 0xe2, 0x75, 0x24, 0xbd,
  0x92, 0x98, 0x86, 0x6f, 0xa4, 0x23, 0x4e, 0x88, 0xda, 0x69, 0x7e, 0x86,
  0x79, 0x7d, 0x1f, 0xb3, 0xaf, 0x84, 0x8e, 0x44, 0xd6, 0x7d, 0x6e, 0x81,
  0x46, 0xa7, 0x61, 0x8c, 0xa1, 0x6a, 0xc2, 0xb8, 0x78, 0xd7, 0xb1, 0x72,
  0xa6, 0x1e, 0x7e, 0xaa, 0x47, 0x2b, 0xbd, 0x99, 0x6f, 0xb4, 0x8e, 0x7c,
  0x5e, 0x55, 0x87, 0x8a, 0xac, 0x49, 0x20, 0x98, 0x2b, 0x92, 0x5e, 0xc5,
  0x71, 0x49, 0x6c, 0x73, 0x58, 0x77, 0x57, 0xb7, 0x39, 0xb3, 0x58, 0xa4,
  0x80, 0x73, 0x75, 0x61, 0x64, 0x61, 0x2d, 0x8c, 0x72, 0xaa, 0x7b, 0x79,
  0xa4, 0x3e, 0x79, 0x4c, 0x8b, 0x74, 0x83, 0x8d, 0xc7, 0x58, 0x35, 0x7f,
  0x7c, 0x89, 0x85, 0x60, 0xa7, 0x78, 0x49, 0x4a, 0x63, 0x32, 0x8c, 0x54,
  0x6e, 0x84, 0x9b, 0x9c, 0x27, 0x6a, 0x81, 0x6d, 0x62, 0x51, 0x50, 0xad,
  0xac, 0x83, 0x73, 0x74, 0x79, 0x7c, 0x5b, 0x80, 0x7c, 0x5f, 0x79, 0x4c,
  0x9e, 0x66, 0x64, 0x99, 0xd2, 0x72, 0x9d, 0x5f, 0xd1, 0xb3, 0xcf, 0x7b,
  0xb2, 0x7b, 0xa3, 0x67, 0x77, 0x46, 0x85, 0x7f, 0xb6, 0x40, 0xb3, 0x94,
  0x96, 0x72, 0x96, 0x8f, 0x7a, 0x54, 0x95, 0x66, 0xab, 0x4d, 0x65, 0x7d,
  0x55, 0x80, 0x92, 0x9d, 0x9a, 0x54, 0x8e, 0x88, 0x50, 0x95, 0x4f, 0x78,
  0xab, 0x90, 0xcc, 0x6f, 0x81, 0xa7, 0xb6, 0x7d, 0x75, 0x9f, 0xa0, 0xa2,
  0x82, 0xb4, 0x49, 0x74, 0x57, 0x65, 0x72, 0x92, 0x50, 0x74, 0xa0, 0x79,
  0x8b, 0x76, 0x30, 0xbb, 0x68, 0x1a, 0x8d, 0x95, 0x89, 0xa6, 0x67, 0x97,
  0x93, 0xc7, 0x78, 0xca, 0x74, 0xa9, 0xd7, 0x72, 0x62, 0x57, 0x7e, 0xc7,
  0xb1, 0x90, 0x94, 0xa4, 0xb5, 0x6a, 0x6e, 0xb8, 0x79, 0x72, 0x38, 0x57,
  0x4e, 0xae, 0xb5, 0x55, 0xaa, 0x92, 0x97, 0x7c, 0x59, 0x61, 0x7a, 0x9d,
  0x9c, 0x4f, 0x57, 0x2e, 0x72, 0x72, 0x94, 0x77, 0x96, 0x53, 0x7a, 0xaa,
  0xd3, 0x27, 0x8e, 0x6f, 0x6c, 0x65, 0xa1, 0x49, 0x9e, 0x6a, 0x73, 0x7d,
  0x83, 0x5c, 0xbc, 0x5a, 0x36, 0xca, 0x5d, 0x6e, 0x71, 0xa2, 0xd8, 0x6e,
  0x5a, 0xb8, 0xb7, 0x8b, 0x6a, 0xca, 0x49, 0x7f, 0x9e, 0x7f, 0xad, 0x46,
  0x7e, 0xae, 0xd3, 0x59, 0x73, 0x73, 0xab, 0xa0, 0x42, 0x42, 0x85, 0xab,
  0x84, 0xd8, 0xb9, 0x85, 0x4d, 0x66, 0x81, 0x68, 0xcf, 0x77, 0x82, 0xb4,
  0x5d, 0x62, 0x7f, 0x6e, 0x45, 0x6f, 0x8e, 0xcf, 0x9f, 0x77, 0x4f, 0x90,
  0x43, 0x94, 0xa7, 0xa2, 0xc2, 0x76, 0x9c, 0x79, 0x80, 0x83, 0x73, 0xab,
  0x61, 0x6b, 0xc0, 0x71, 0x78, 0xcc, 0x87, 0x9b, 0x4e, 0x83, 0x9f, 0x9e,
  0x6c, 0xa3, 0x9c, 0xb5, 0x68, 0x45, 0x73, 0xa5, 0x7e, 0x47, 0x4e, 0x89,
  0xa1, 0x6f, 0xca, 0xad, 0x9d, 0x7f, 0x9c, 0xbf, 0x89, 0xd4, 0x94, 0x6a,
  0xa9, 0x63, 0x88, 0xfd, 0x6d, 0xcf, 0x61, 0xc4, 0xc8, 0x71, 0xd4, 0xfd,
  0xa1, 0x93, 0x86, 0x52, 0x7c, 0x64, 0x81, 0x40, 0xb5, 0xa8, 0x7d, 0x85,
  0x5e, 0x74, 0x7a, 0x5f, 0x8c, 0x3e, 0x30, 0x6f, 0x58, 0x86, 0x5c, 0x2a,
  0x8d, 0x63, 0x61, 0x88, 0xde, 0xaa, 0xb7, 0x38, 0x6a, 0x5d, 0x67, 0x58,
  0xaf, 0x7f, 0x7b, 0x5e, 0x68, 0x57, 0x6a, 0xaf, 0xa8, 0x64, 0x3e, 0x69,
  0x8e, 0x64, 0xb6, 0xaa, 0x7f, 0xc7, 0x84, 0x96, 0x51, 0xb8, 0xd0, 0x9e,
  0xcf, 0x42, 0x88, 0x62, 0x80, 0xbe, 0x5c, 0x82, 0xcd, 0x89, 0x98, 0x2e,
  0x6f, 0xb3, 0x92, 0x44, 0x61, 0x91, 0x8d, 0x9b, 0x8f, 0x34, 0x70, 0x4b,
  0x7c, 0x44, 0x91, 0x63, 0x66, 0x30, 0xab, 0x81, 0xab, 0xad, 0x80, 0xac,
  0x5c, 0xc1, 0x91, 0x98, 0xa9, 0x8c, 0xb2, 0xba, 0xba, 0xa3, 0x2d, 0x7b,
  0x9f, 0x3e, 0xa9, 0x91, 0x61, 0x6b, 0x2e, 0x78, 0x59, 0x6d, 0x9d, 0xab,
  0x74, 0x38, 0xca, 0xa5, 0xb6, 0x82, 0x91, 0xd3, 0x72, 0x8e, 0xc9, 0xb0,
  0x9c, 0xa2, 0x88, 0x8c, 0x3c, 0x3e, 0x69, 0xde, 0x7b, 0xbf, 0x8d, 0xdc,
  0xa7, 0x9c, 0xb8, 0x88, 0x4a, 0x9c, 0xcd, 0xb9, 0xa8, 0x56, 0x5e, 0xdf,
  0x7f, 0x62, 0xf3, 0xf5, 0x8d, 0x6c, 0x65, 0xb3, 0x3e, 0x79, 0x96, 0x5d,
  0x6e, 0xc6, 0x87, 0x63, 0xb4, 0xaa, 0x95, 0x7a, 0x74, 0x34, 0x9e, 0x6b,
  0x24, 0xb8, 0x76, 0x32, 0xb5, 0x8f, 0x3b, 0x61, 0x5f, 0x65, 0x5a, 0x6c,
  0x68, 0x4d, 0x91, 0x55, 0x46, 0x5f, 0x55, 0x43, 0x72, 0x43, 0x65, 0x89,
  0x9b, 0x47, 0xa1, 0x25, 0x7a, 0xab, 0x45, 0x6f, 0xa1, 0x88, 0x53, 0x81,
  0x34, 0x97, 0x74, 0x3e, 0x88, 0x5e, 0x99, 0x3c, 0x8b, 0x87, 0xa7, 0x6d,
  0x8d, 0x5e, 0x4b, 0x54, 0x76, 0x64, 0xc5, 0x58, 0x52, 0x58, 0xce, 0x63,
  0x33, 0x96, 0x2f, 0xa2, 0xb6, 0x6e, 0x75, 0x8b, 0xd3, 0xac, 0x7d, 0xa9,
  0x96, 0x4b, 0x62, 0x8e, 0x81, 0x1e, 0x6e, 0x92, 0x52, 0xd9, 0x86, 0xab,
  0x62, 0x44, 0xb9, 0x82, 0x50, 0xb3, 0x69, 0x9c, 0x59, 0x6c, 0xaf, 0xb8,
  0x6e, 0xa6, 0x85, 0x80, 0x4d, 0xa5, 0x71, 0x95, 0x87, 0xa1, 0x97, 0x80,
  0xc4, 0x99, 0x8b, 0xa2, 0xcd, 0x57, 0x9f, 0x8f, 0xcf, 0xdf, 0x8c, 0xc4,
  0x4d, 0x20, 0x7e, 0x68, 0xaa, 0xa1, 0x49, 0xcc, 0x9c, 0x69, 0x9f, 0xb3,
  0x59, 0xb3, 0x96, 0xdc, 0xa0, 0x1c, 0x74, 0xf5, 0x49, 0x8f, 0x89, 0x95,
  0x2f, 0x7d, 0x59, 0x51, 0x79, 0x5a, 0x44, 0x3e, 0xc7, 0xac, 0x75, 0x85,
  0x93, 0x63, 0xda, 0x47, 0x33, 0x4b, 0x58, 0x0e, 0xaa, 0x3e, 0xbb, 0x2a,
  0xd8, 0x3f, 0xa8, 0x36, 0xd2, 0x5d, 0x85, 0xb2, 0xad, 0x60, 0x6f, 0x57,
  0x77, 0x98, 0x75, 0x52, 0x38, 0x61, 0x9c, 0x50, 0x58, 0x85, 0x3f, 0x53,
  0xb2, 0xa6, 0x89, 0x5a, 0x79, 0x58, 0x88, 0x4e, 0xdf, 0x75, 0x84, 0x58,
  0x70, 0x4a, 0x85, 0x62, 0x81, 0x9b, 0x95, 0x75, 0xd9, 0x5c, 0x3a, 0x77,
  0xbf, 0x97, 0xc7, 0x54, 0x7c, 0x49, 0x46, 0x91, 0xa4, 0xc6, 0x72, 0x9c,
  0x31, 0x9c, 0x41, 0xc7, 0xa7, 0x77, 0x9a, 0xa4, 0x5d, 0xac, 0x4a, 0xba,
  0xb6, 0x4b, 0xb3, 0xb7, 0xa4, 0xab, 0xaa, 0x8f, 0x40, 0x90, 0x83, 0x99,
  0x66, 0x85, 0x63, 0x8a, 0x73, 0xa4, 0xa1, 0xd0, 0x2e, 0x8a, 0x7f, 0x7e,
  0x57, 0x98, 0x5e, 0xc3, 0x8a, 0xbf, 0x7f, 0xcd, 0x9d, 0xde, 0xab, 0x94,
  0x66, 0x96, 0x99, 0xa2, 0x5b, 0x6d, 0xdc, 0x70, 0xcd, 0xaf, 0x8b, 0xbe,
  0x7a, 0x47, 0xed, 0xa7, 0xaf, 0x5f, 0x6d, 0x8e, 0x30, 0xa0, 0xc7, 0xea,
  0x82, 0x9a, 0x60, 0x4a, 0x8e, 0x53, 0xbd, 0x73, 0x86, 0x66, 0xb8, 0x6e,
  0xab, 0x3c, 0x3c, 0x47, 0xc2, 0x58, 0x59, 0x45, 0xb2, 0x39, 0x65, 0x48,
  0x8e, 0xc1, 0x74, 0x1a, 0x82, 0x73, 0x8d, 0x26, 0x75, 0xce, 0xab, 0x3a,
  0x7d, 0x81, 0x6f, 0xb7, 0x82, 0x6f, 0x6b, 0x51, 0x3e, 0x60, 0xa6, 0x2d,
  0xa2, 0x62, 0x8d, 0x41, 0x62, 0x9a, 0xa0, 0x5d, 0xca, 0xa2, 0x44, 0x5d,
  0x88, 0x4d, 0x61, 0x44, 0x7d, 0xdb, 0x55, 0x7f, 0xa7, 0x54, 0x79, 0x3a,
  0x5e, 0xa8, 0x84, 0x98, 0x88, 0x4d, 0x97, 0x73, 0x9a, 0x53, 0x89, 0x49,
  0xa6, 0x58, 0xbb, 0x88, 0x85, 0x74, 0x9e, 0x46, 0x88, 0x89, 0x75, 0xb1,
  0x6c, 0x89, 0x9c, 0x83, 0x5b, 0x7e, 0xa0, 0x9b, 0x7c, 0x5e, 0x99, 0x7f,
  0x42, 0xd2, 0xbf, 0xb5, 0xd0, 0xb1, 0xbb, 0xa0, 0x45, 0x76, 0x72, 0x85,
  0x77, 0x31, 0xa9, 0x75, 0xd7, 0x43, 0x74, 0xc0, 0x5d, 0x8a, 0x9a, 0xb9,
  0x7d, 0x67, 0x82, 0x98, 0x64, 0xc0, 0xc3, 0x7f, 0x82, 0x53, 0x86, 0xce,
  0x84, 0x63, 0x6a, 0x75, 0x9f, 0x6c, 0x69, 0xc0, 0x53, 0xb1, 0x2b, 0x70,
  0x95, 0x69, 0x7a, 0xea, 0x71, 0x63, 0x31, 0xa8, 0xb5, 0x48, 0x71, 0x87,
  0x75, 0x3d, 0x78, 0x4c, 0x1e, 0x8e, 0x3c, 0xa6, 0x62, 0x9b, 0x64, 0x67,
  0x75, 0x6c, 0x79, 0x71, 0x37, 0x78, 0x80, 0x6f, 0x58, 0x5c, 0x4a, 0x37,
  0xbc, 0x66, 0x6d, 0x4b, 0x7f, 0xb0, 0x6b, 0x6d, 0xa9, 0x9e, 0x5e, 0xa2,
  0x72, 0x21, 0x76, 0x76, 0x87, 0x3e, 0x5c, 0x2e, 0x70, 0xb3, 0xa0, 0x91,
  0x40, 0x84, 0x9a, 0x8c, 0x78, 0x5d, 0x24, 0x7a, 0x74, 0xa2, 0x87, 0x7b,
  0x33, 0x5c, 0xb2, 0x4f, 0x4b, 0xa1, 0x2d, 0x4b, 0x33, 0xa5, 0x7e, 0x6d,
  0x5c, 0x6d, 0x7b, 0xab, 0x7c, 0x87, 0x80, 0x86, 0x89, 0x9d, 0x64, 0xa5,
  0x8b, 0x33, 0x39, 0x62, 0x54, 0xa1, 0x59, 0x8b, 0x78, 0x52, 0x3e, 0x4c,
  0xce, 0xcf, 0x83, 0xb1, 0x7c, 0xb3, 0x68, 0xa8, 0xb0, 0xbd, 0xc1, 0xa0,
  0x75, 0x8f, 0x7b, 0x59, 0x77, 0x70, 0x6d, 0x95, 0xa9, 0x68, 0x47, 0x6f,
  0x7b, 0x4a, 0x59, 0xaa, 0xa5, 0x21, 0x9a, 0x64, 0x2b, 0xa3, 0xa2, 0xe8,
  0x6e, 0xd8, 0x48, 0x77, 0x7f, 0x8f, 0x91, 0xb5, 0x78, 0xa2, 0x93, 0xe5,
  0x67, 0x98, 0xae, 0xb3, 0xaa, 0xaf, 0xcf, 0xcf, 0x8b, 0xbe, 0x66, 0x54,
  0xca, 0x98, 0x73, 0x8e, 0xa6, 0x60, 0x71, 0x61, 0x4f, 0x9d, 0x6a, 0x43,
  0x73, 0x41, 0x60, 0xa5, 0x98, 0x62, 0x9d, 0x55, 0x59, 0x70, 0x57, 0x15,
  0x94, 0xcf, 0x4f, 0x28, 0x58, 0x70, 0x98, 0x8e, 0x8f, 0x7e, 0x86, 0x55,
  0x3c, 0x9b, 0x7b, 0x93, 0xa1, 0x57, 0x30, 0xd9, 0x55, 0xba, 0x5e, 0x97,
  0x88, 0x6e, 0x90, 0x82, 0x68, 0x84, 0xa4, 0xc7, 0x62, 0x99, 0x32, 0x86,
  0x8b, 0x6f, 0xd4, 0x7e, 0x5b, 0x6b, 0x7c, 0x8f, 0x6a, 0x82, 0x54, 0x4e,
  0x9a, 0x45, 0x84, 0xaa, 0x58, 0x27, 0xae, 0x88, 0x85, 0xa3, 0x85, 0x5c,
  0x7f, 0x6b, 0x34, 0x79, 0xb6, 0xb3, 0x8e, 0x68, 0x6a, 0xd3, 0x31, 0xa5,
  0x45, 0xa5, 0x91, 0xac, 0x32, 0x9a, 0xa8, 0x73, 0x43, 0x5d, 0xa3, 0x62,
  0x7f, 0x68, 0x7a, 0x85, 0x9f, 0x77, 0xb7, 0xab, 0x31, 0x7f, 0x70, 0xc9,
  0x64, 0x48, 0x61, 0x85, 0x2e, 0x7f, 0xae, 0xd3, 0x6a, 0x93, 0x74, 0xbb,
  0x5c, 0xa4, 0x63, 0xce, 0x69, 0x61, 0xad, 0xd2, 0xab, 0x4f, 0xbe, 0xa4,
  0xbc, 0xad, 0x8a, 0xd1, 0xd3, 0x55, 0x60, 0xc7, 0x3d, 0x6d, 0xea, 0x77,
  0x40, 0x84, 0x9d, 0x64, 0x58, 0x35, 0x5c, 0x60, 0xc0, 0x4d, 0x6e, 0x47,
  0x2c, 0x94, 0x82, 0x80, 0xa8, 0x93, 0x77, 0x75, 0x4d, 0x79, 0x6b, 0x60,
  0x4c, 0x8c, 0x48, 0x6e, 0x69, 0x4f, 0x1a, 0x67, 0xcd, 0x22, 0x58, 0x65,
  0xb8, 0x7e, 0x8c, 0x87, 0x7a, 0x50, 0x5f, 0x58, 0x97, 0x85, 0x68, 0xae,
  0x4c, 0x78, 0x98, 0xb4, 0x91, 0x41, 0x86, 0x67, 0xaa, 0x42, 0xca, 0xaa,
  0x3a, 0xa9, 0x87, 0x5e, 0x89, 0xd2, 0x2c, 0x80, 0x4a, 0x6f, 0x7c, 0xd7,
  0x8c, 0x32, 0x7d, 0x2c, 0xc6, 0x9a, 0x47, 0x82, 0x97, 0x5d, 0x81, 0xd8,
  0x80, 0x86, 0x9b, 0x7a, 0x60, 0x6d, 0x30, 0x70, 0xb5, 0xbf, 0x84, 0x75,
  0x6d, 0x8f, 0x4d, 0x73, 0x7a, 0xb9, 0x93, 0x45, 0xa9, 0x79, 0xb5, 0x4c,
  0x7b, 0x77, 0xbf, 0x78, 0xb3, 0x56, 0x70, 0x87, 0xa3, 0xa5, 0x55, 0xb2,
  0x53, 0x6f, 0x33, 0x93, 0xb1, 0xc3, 0xb3, 0x81, 0x56, 0x22, 0x69, 0x72,
  0x4e, 0xa2, 0xd8, 0x65, 0x52, 0x4c, 0x4b, 0x98, 0x7b, 0x91, 0x97, 0xb8,
  0x51, 0x53, 0xc4, 0x9e, 0x49, 0x77, 0x99, 0xad, 0xc5, 0x5b, 0x60, 0xc4,
  0x5c, 0xb3, 0xd3, 0x5a, 0x48, 0x57, 0xb5, 0xa6, 0xd5, 0x91, 0x5f, 0x49,
  0x5a, 0x64, 0xa3, 0x5c, 0xd3, 0xa1, 0x9e, 0x3c, 0x46, 0x66, 0xbb, 0x76,
  0x99, 0x98, 0x35, 0xc0, 0x8b, 0xa8, 0x88, 0x5f, 0x2c, 0x9b, 0x41, 0x7f,
  0x6c, 0x59, 0x73, 0x50, 0xc8, 0x68, 0x5e, 0x94, 0x53, 0xda, 0xb2, 0x9c,
  0x56, 0x93, 0x85, 0x74, 0x98, 0x42, 0x88, 0x68, 0x8e, 0xb6, 0x5c, 0x6f,
  0x74, 0x97, 0xb0, 0x84, 0xde, 0x60, 0xba, 0x38, 0xae, 0x83, 0x4b, 0x82,
  0x3b, 0x87, 0x92, 0xb2, 0x65, 0x32, 0x67, 0x8e, 0x76, 0xb4, 0xa3, 0x94,
  0x9f, 0x87, 0xa3, 0x8f, 0x92, 0xba, 0x72, 0xae, 0x97, 0xc7, 0x56, 0x7e,
  0x20, 0xbf, 0x86, 0x66, 0x78, 0x91, 0x75, 0xc1, 0xd8, 0x95, 0x9d, 0x8c,
  0xc2, 0x98, 0x8c, 0xc0, 0x4d, 0x84, 0x6b, 0x41, 0x7a, 0xd2, 0xa4, 0xa9,
  0x7c, 0xbe, 0x6a, 0x8f, 0xb9, 0x3b, 0xb5, 0x63, 0x69, 0xc5, 0xc6, 0xbf,
  0xde, 0x7f, 0x37, 0x91, 0x8b, 0x86, 0x89, 0x8a, 0x3b, 0xab, 0x65, 0x6c,
  0xb6, 0x62, 0xc0, 0x7f, 0x64, 0xa0, 0xa6, 0xbf, 0xad, 0x8a, 0x6b, 0x7a,
  0x4c, 0x43, 0x96, 0x9a, 0x8d, 0x66, 0xae, 0xa1, 0x77, 0x29, 0x37, 0x98,
  0x72, 0x82, 0x8f, 0x3c, 0x78, 0x86, 0x60, 0x90, 0xb2, 0xae, 0x75, 0x77,
  0x4e, 0x4c, 0x92, 0x8e, 0xa6, 0x4e, 0x65, 0x2c, 0xb5, 0x76, 0x57, 0x5b,
  0xe1, 0x7c, 0x91, 0x42, 0x5b, 0x95, 0x91, 0x72, 0x5c, 0x7a, 0x8a, 0x55,
  0xde, 0x2c, 0x8c, 0x3d, 0xbc, 0x97, 0x74, 0xb4, 0xa4, 0x90, 0x5c, 0x5b,
  0x8d, 0xa8, 0x66, 0x7e, 0xa1, 0x6b, 0x58, 0xa2, 0x52, 0x4a, 0x7c, 0x90,
  0x2c, 0x9c, 0x3e, 0x84, 0x1d, 0x6d, 0x4e, 0x4a, 0x2a, 0x5f, 0xbe, 0x7d,
  0x53, 0xba, 0x8c, 0x4c, 0x6a, 0x48, 0x90, 0x96, 0x37, 0x3f, 0x6f, 0x4c,
  0xc3, 0x73, 0x70, 0x96, 0x8e, 0x85, 0x61, 0x92, 0xc5, 0x25, 0x9d, 0xc0,
  0x85, 0xa2, 0x6a, 0x69, 0x70, 0x44, 0x82, 0x61, 0x9e, 0xa8, 0x78, 0xb4,
  0x83, 0xbf, 0x81, 0xca, 0x71, 0x74, 0xa5, 0xaf, 0xba, 0x6c, 0x9b, 0x66,
  0x88, 0x96, 0xc1, 0x67, 0x72, 0x78, 0x5f, 0xba, 0x66, 0xd7, 0x47, 0x97,
  0x96, 0x7d, 0x59, 0x9b, 0x85, 0x7d, 0x8e, 0x61, 0x71, 0x4f, 0xa6, 0x77,
  0x5f, 0x4a, 0xbc, 0x9a, 0x5d, 0x47, 0xd0, 0x9f, 0x62, 0x62, 0xc7, 0x70,
  0x46, 0xb9, 0x84, 0xb6, 0x86, 0x9d, 0x9b, 0x5f, 0x61, 0x74, 0x7a, 0x5b,
  0x59, 0x48, 0x6f, 0x8b, 0x98, 0x5e, 0xaf, 0xc8, 0x51, 0x76, 0x7c, 0x3d,
  0xa0, 0x76, 0x7d, 0x6f, 0x2a, 0x9f, 0x8b, 0xa5, 0x73, 0x8b, 0xb4, 0x65,
  0x4a, 0xab, 0x5a, 0x93, 0x7c, 0x94, 0x46, 0x75, 0xbf, 0x60, 0x6d, 0x9d,
  0x36, 0x3a, 0xcb, 0x9d, 0x8d, 0xca, 0x89, 0x73, 0x5c, 0x91, 0x4f, 0x77,
  0x28, 0x81, 0xa8, 0x59, 0x71, 0x5f, 0x21, 0xb8, 0x70, 0x93, 0x30, 0xcb,
  0xa2, 0x76, 0xc1, 0x87, 0x73, 0x44, 0x6c, 0x73, 0x9a, 0x6c, 0xb2, 0x5d,
  0xb5, 0x3f, 0xd2, 0x81, 0x80, 0x61, 0x99, 0x95, 0xa8, 0x96, 0xa3, 0xaf,
  0x5f, 0x90, 0x43, 0xc7, 0x3c, 0xa9, 0xaf, 0x7e, 0xac, 0x74, 0xbd, 0x65,
  0xa1, 0x94, 0xd8, 0x46, 0x94, 0x76, 0xb3, 0xe6, 0x74, 0xa3, 0x80, 0x45,
  0x9f, 0xa2, 0x94, 0xd0, 0xa1, 0xc5, 0x6f, 0x56, 0x69, 0xc1, 0x51, 0xa2,
  0x7b, 0x5a, 0x86, 0x4e, 0x1d, 0x7c, 0xd6, 0x94, 0x81, 0x4d, 0xbd, 0x8d,
  0x57, 0x73, 0x8c, 0xc8, 0x70, 0x99, 0x67, 0xa0, 0x6e, 0x66, 0x74, 0x91,
  0xc2, 0x86, 0xcf, 0x70, 0x1b, 0x54, 0xd0, 0xb4, 0x5e, 0x72, 0xb3, 0xd5,
  0x9d, 0x66, 0x8a, 0xa3, 0x58, 0x93, 0x8f, 0x6c, 0xb1, 0x93, 0x43, 0xb5,
  0x59, 0x55, 0x2b, 0x79, 0x79, 0x82, 0x4b, 0x8f, 0x51, 0xdb, 0x65, 0x57,
  0xba, 0x9a, 0x7a, 0x45, 0x6d, 0x66, 0x5f, 0x97, 0x61, 0xd4, 0x90, 0x53,
  0xce, 0x40, 0x74, 0x90, 0x5c, 0x45, 0x99, 0x5a, 0x9c, 0x72, 0x73, 0x54,
  0x49, 0x2c, 0x3c, 0x80, 0xbc, 0xa6, 0xa3, 0xaa, 0x77, 0x58, 0x75, 0x93,
  0x75, 0xd6, 0x70, 0x7a, 0x8b, 0x9a, 0x9a, 0x72, 0x58, 0x2d, 0x92, 0x9a,
  0xb8, 0x8d, 0x50, 0x6a, 0x70, 0x63, 0x7c, 0x48, 0x9e, 0x8a, 0x62, 0x6c,
  0xd2, 0x69, 0x59, 0x9a, 0x56, 0xd3, 0x97, 0x36, 0x99, 0x66, 0x96, 0x91,
  0x7f, 0xaf, 0xc9, 0x5a, 0x3d, 0x67, 0x8f, 0x8b, 0xa2, 0x72, 0x58, 0x55,
  0x87, 0x45, 0x52, 0xa5, 0x83, 0x59, 0xd1, 0xc4, 0x88, 0x68, 0x9a, 0xb8,
  0x87, 0x43, 0x3b, 0xd0, 0x42, 0x87, 0xb6, 0x60, 0xc9, 0x8d, 0x62, 0x83,
  0xaf, 0x77, 0xb3, 0x8f, 0x42, 0xb5, 0x78, 0xb7, 0x61, 0x55, 0xc4, 0x36,
  0x78, 0x7f, 0x8e, 0x45, 0x63, 0x55, 0x7b, 0x8c, 0x8f, 0x95, 0x4f, 0x88,
  0xaa, 0x39, 0x65, 0x36, 0x70, 0x8f, 0x2d, 0x6a, 0x73, 0x74, 0xa2, 0x9d,
  0x80, 0x8f, 0x86, 0x37, 0xab, 0x4f, 0x5e, 0xb8, 0xc8, 0x8c, 0x30, 0x59,
  0x76, 0x60, 0x4d, 0x75, 0xac, 0x7f, 0xa9, 0x82, 0xb5, 0x99, 0x78, 0xa3,
  0xa5, 0x43, 0x8d, 0x97, 0x71, 0x9d, 0x4a, 0x7a, 0x8a, 0x87, 0x86, 0x97,
  0x87, 0x6f, 0xa2, 0x71, 0x61, 0xc0, 0xdf, 0xaa, 0x6c, 0xbd, 0x9a, 0x8e,
  0x8c, 0x5e, 0xa1, 0x99, 0x77, 0xdf, 0x3f, 0xb2, 0x9e, 0x73, 0x6d, 0xcb,
  0x98, 0x3e, 0x66, 0x38, 0x75, 0x70, 0x57, 0x90, 0x8f, 0x72, 0x74, 0x85,
  0x48, 0xa9, 0xa0, 0x52, 0x7c, 0x25, 0xa7, 0x38, 0x7a, 0x60, 0x65, 0x96,
  0x5e, 0x98, 0x5c, 0x3a, 0x85, 0x4b, 0x92, 0xa7, 0xb8, 0x34, 0x91, 0x94,
  0xd4, 0x3e, 0x86, 0x91, 0x3c, 0x50, 0x82, 0x93, 0x57, 0xa3, 0x64, 0xb7,
  0x4e, 0x63, 0x4a, 0x92, 0x64, 0xb5, 0xc6, 0xdb, 0x99, 0x79, 0x82, 0xae,
  0xc0, 0xa2, 0xa1, 0x98, 0x56, 0x67, 0x9c, 0xb1, 0x63, 0x58, 0x9b, 0x90,
  0x86, 0x6d, 0xa6, 0x9c, 0x8a, 0x5a, 0x44, 0xd7, 0x6b, 0x4b, 0xbd, 0x7b,
  0x5d, 0x8e, 0x58, 0x7d, 0xba, 0x97, 0x7f, 0x35, 0x94, 0x7f, 0xa6, 0x7e,
  0xb3, 0x21, 0x8b, 0x4b, 0xba, 0xb0, 0x6f, 0x2d, 0x5c, 0x7a, 0x67, 0xa7,
  0xc2, 0x55, 0x79, 0x95, 0x70, 0x87, 0x6a, 0x9d, 0x83, 0xa0, 0x57, 0x65,
  0xdd, 0xdb, 0x66, 0x83, 0x45, 0x59, 0x3f, 0xc0, 0x4f, 0xd8, 0x6f, 0x41,
  0x72, 0x75, 0x41, 0x7d, 0x93, 0x5c, 0x33, 0x49, 0xac, 0x97, 0x75, 0x98,
  0xd9, 0xa8, 0x8d, 0x86, 0x78, 0xa0, 0xa3, 0x56, 0x4d, 0xa8, 0x2e, 0xb4,
  0x45, 0xc6, 0x86, 0x5e, 0x49, 0x3c, 0x8d, 0xb2, 0x7d, 0x8e, 0x62, 0xb8,
  0x3e, 0x3d, 0x42, 0x84, 0x80, 0x4a, 0x51, 0x8e, 0x8a, 0xb4, 0xa9, 0xca,
  0xd3, 0x7d, 0x9e, 0x41, 0x41, 0xb3, 0x66, 0xcc, 0x44, 0x68, 0x6a, 0xd2,
  0xbc, 0x8e, 0x76, 0x93, 0xbb, 0xa1, 0x6e, 0x5f, 0xbe, 0x49, 0xba, 0xb2,
  0xa5, 0xb6, 0x4e, 0x96, 0x97, 0x98, 0x67, 0x59, 0x69, 0xbd, 0x99, 0x76,
  0x85, 0xb6, 0x4d, 0x57, 0x1a, 0x69, 0x7d, 0x59, 0x8a, 0x54, 0x45, 0x69,
  0x4a, 0x86, 0x85, 0x7b, 0x9e, 0xaf, 0xea, 0x4f, 0x85, 0x52, 0x8c, 0x8f,
  0x61, 0x99, 0x90, 0x34, 0x75, 0x84, 0x39, 0x91, 0x9b, 0xb7, 0x9d, 0x87,
  0x47, 0x8f, 0x89, 0x50, 0x69, 0xbb, 0x43, 0x99, 0xb2, 0x68, 0x92, 0x7f,
  0x8e, 0x9d, 0x92, 0x87, 0xa2, 0x41, 0x90, 0x95, 0x5a, 0x49, 0x73, 0x88,
  0x88, 0xcf, 0x9f, 0x91, 0x5d, 0x7b, 0x74, 0xb2, 0x8d, 0xaa, 0x7c, 0x77,
  0x96, 0x3b, 0x66, 0x41, 0x94, 0x7e, 0x88, 0xba, 0x85, 0x42, 0x45, 0x76,
  0x6c, 0x6a, 0x61, 0x43, 0x8f, 0x52, 0x65, 0x4a, 0xa4, 0xd1, 0x62, 0x43,
  0xca, 0xc0, 0x9f, 0x86, 0xb0, 0xa2, 0x8d, 0x41, 0x57, 0xa8, 0x64, 0x44,
  0x8b, 0x8f, 0x9b, 0xc3, 0x76, 0xb4, 0xb9, 0xb2, 0xd7, 0x7c, 0x6e, 0xbf,
  0x23, 0x4d, 0x9c, 0x6a, 0xd7, 0x69, 0x55, 0x9a, 0x8a, 0x67, 0x62, 0x93,
  0xbc, 0x94, 0x9a, 0xc6, 0xae, 0x6d, 0x92, 0x90, 0x6a, 0x8d, 0x81, 0xb5,
  0x3b, 0x90, 0x78, 0x62, 0x95, 0x96, 0x40, 0x3d, 0x4d, 0x25, 0x60, 0x4f,
  0x8c, 0xb4, 0xb5, 0x9f, 0x68, 0x6c, 0xac, 0x8b, 0x36, 0x68, 0x41, 0x77,
  0x60, 0xa0, 0xb5, 0x87, 0x7a, 0x45, 0x73, 0xab, 0xa9, 0x47, 0x91, 0x7f,
  0xa6, 0xdb, 0xd8, 0x44, 0x54, 0x89, 0xbb, 0x86, 0xce, 0x71, 0xcd, 0x31,
  0x21, 0x7d, 0x76, 0x3c, 0xb5, 0x5e, 0x90, 0x6d, 0x79, 0xa7, 0xa2, 0x70,
  0x7e, 0x88, 0xcb, 0x7d, 0x83, 0xa2, 0x71, 0x7b, 0x79, 0x76, 0x6e, 0x85,
  0x81, 0x43, 0x99, 0x90, 0xc1, 0x37, 0xde, 0x53, 0xde, 0x61, 0x6b, 0x26,
  0xb7, 0x43, 0x95, 0x36, 0x71, 0x94, 0x8c, 0x70, 0x72, 0x54, 0xa0, 0x7d,
  0x40, 0xc5, 0x55, 0x3f, 0x56, 0x43, 0x7c, 0x7a, 0x82, 0x83, 0x5c, 0x98,
  0x69, 0x7a, 0x8e, 0xc8, 0x52, 0x6e, 0x60, 0x92, 0x90, 0x49, 0xae, 0x99,
  0x4e, 0xa6, 0xa4, 0x5c, 0xa8, 0x76, 0x5d, 0xac, 0x7a, 0x55, 0x52, 0x7e,
  0x6a, 0x35, 0x23, 0xa9, 0x6d, 0x92, 0xb9, 0x87, 0xba, 0x96, 0x60, 0x73,
  0xae, 0x85, 0x6f, 0x80, 0xd9, 0x42, 0xa5, 0x3a, 0xb2, 0x54, 0x52, 0xc4,
  0x5b, 0x80, 0x9b, 0x43, 0xc1, 0x88, 0x99, 0x39, 0x7e, 0x36, 0xa5, 0x99,
  0x90, 0x4f, 0x82, 0x2e, 0xba, 0x55, 0xb8, 0x4c, 0x85, 0x81, 0x69, 0x69,
  0xb4, 0xde, 0x47, 0x51, 0xbf, 0xaa, 0xcc, 0x7a, 0x9e, 0x93, 0x79, 0x55,
  0xb7, 0x83, 0x85, 0xbc, 0xdc, 0xdc, 0xdd, 0x84, 0x75, 0x2e, 0x76, 0xb4,
  0xa2, 0x89, 0x7c, 0x6a, 0x7d, 0x31, 0x85, 0x6c, 0x84, 0xa8, 0x9d, 0xa5,
  0x60, 0x5d, 0x7d, 0x81, 0x4c, 0x44, 0x4d, 0xb1, 0xa1, 0xb2, 0x3f, 0x9c,
  0x27, 0x98, 0x76, 0x76, 0xc8, 0x61, 0x3e, 0xb6, 0x6d, 0x9a, 0x60, 0xb4,
  0xbc, 0x3f, 0xa7, 0x4a, 0x97, 0x40, 0x4c, 0xa4, 0x4a, 0xb5, 0x7d, 0x7c,
  0xa4, 0x82, 0x7f, 0x4d, 0x3e, 0x4b, 0x77, 0x64, 0xb6, 0xc9, 0x84, 0x47,
  0x82, 0x60, 0x8e, 0x6c, 0x5b, 0x5d, 0x6b, 0x81, 0x75, 0x84, 0x93, 0x7c,
  0xc7, 0x69, 0x87, 0x81, 0x8a, 0x7e, 0xb3, 0x8e, 0x7c, 0x3a, 0x72, 0x9a,
  0x47, 0x34, 0x7e, 0x89, 0xb6, 0xb0, 0x82, 0xa4, 0x3d, 0x96, 0x45, 0xb2,
  0xb3, 0xaf, 0xb0, 0x67, 0x4a, 0xc5, 0xac, 0x9e, 0x65, 0xbd, 0x7f, 0x41,
  0x38, 0x80, 0x50, 0x81, 0xa2, 0x7f, 0x6a, 0x73, 0x72, 0x6b, 0x71, 0x6d,
  0x75, 0x98, 0x82, 0xbb, 0x8a, 0x78, 0xa8, 0x55, 0x49, 0x8d, 0xbb, 0x8a,
  0x61, 0x71, 0xb2, 0x57, 0x95, 0x95, 0x91, 0x45, 0xa2, 0xbe, 0x6c, 0x84,
  0x78, 0x95, 0x41, 0x88, 0x5b, 0xcd, 0x95, 0xda, 0x7a, 0x8b, 0x86, 0xe2,
  0x8c, 0x22, 0xb4, 0x46, 0x51, 0x8a, 0xa1, 0x7a, 0xd3, 0xb9, 0x7c, 0x4d,
  0x9a, 0x6d, 0x64, 0x5e, 0x6c, 0x76, 0x77, 0x57, 0x72, 0x9c, 0x55, 0x68,
  0xb8, 0x60, 0x7d, 0x50, 0x51, 0xa9, 0x98, 0x4e, 0xc2, 0x99, 0x69, 0x71,
  0x68, 0x35, 0x7e, 0x93, 0x2e, 0x38, 0x3a, 0xc6, 0x9d, 0x4f, 0x99, 0x4b,
  0x6c, 0x77, 0x58, 0x8e, 0x28, 0x7d, 0xa5, 0x57, 0x75, 0x3c, 0x79, 0x5d,
  0x79, 0x67, 0x93, 0x60, 0x8c, 0xc1, 0xa6, 0x92, 0xb4, 0xa1, 0xa8, 0x6d,
  0x99, 0x77, 0x5f, 0x6c, 0x47, 0x7e, 0x35, 0x7d, 0x7f, 0x95, 0xc7, 0xc0,
  0xad, 0x2c, 0x50, 0x62, 0x73, 0xa2, 0x2e, 0x77, 0x58, 0x89, 0xda, 0x8b,
  0x50, 0x64, 0x72, 0x7a, 0x84, 0x65, 0xcd, 0xa6, 0x45, 0x5f, 0xc0, 0x3e,
  0x7a, 0x5f, 0x57, 0x6c, 0x76, 0xb8, 0x70, 0x82, 0x50, 0x88, 0xc3, 0xa9,
  0x8d, 0x5d, 0x63, 0x8d, 0xd0, 0x9b, 0x7c, 0x6c, 0x79, 0xd2, 0x6e, 0x6a,
  0x3d, 0x5f, 0x78, 0x3b, 0xa2, 0x85, 0x82, 0x96, 0xa9, 0x83, 0x7e, 0x75,
  0x73, 0x34, 0xcf, 0x8e, 0x8f, 0x6c, 0x82, 0xc7, 0xa2, 0x80, 0x6a, 0x5a,
  0x6c, 0x5c, 0x88, 0x94, 0xd2, 0x57, 0x99, 0x52, 0x21, 0x98, 0x8e, 0xb5,
  0xbc, 0xa7, 0x90, 0x6b, 0x7e, 0x84, 0xc3, 0xa2, 0xd5, 0x35, 0x6b, 0xb0,
  0x6a, 0xae, 0x99, 0x81, 0x9d, 0x90, 0x46, 0x6a, 0xa2, 0xa5, 0x82, 0x67,
  0xa5, 0xbc, 0x5b, 0xb7, 0x73, 0xa2, 0x7e, 0x69, 0xa0, 0x81, 0x98, 0xa9,
  0x8f, 0x87, 0xab, 0x63, 0x4a, 0x4c, 0x40, 0x3d, 0x77, 0x86, 0x7f, 0x7b,
  0xd5, 0x67, 0x89, 0x79, 0x86, 0xb1, 0x8a, 0x99, 0x8c, 0x92, 0x3a, 0xc1,
  0x62, 0xc6, 0xd9, 0xb3, 0x7c, 0xcf, 0x96, 0xbb, 0x52, 0x67, 0xc0, 0x5e,
  0x69, 0x81, 0x3c, 0x7e, 0xb7, 0x5c, 0x9e, 0xa5, 0x98, 0x4f, 0x6c, 0x47,
  0x85, 0xbb, 0x51, 0x60, 0x55, 0x7b, 0x89, 0x82, 0x64, 0x43, 0x73, 0xb6,
  0xb6, 0x66, 0xa4, 0x7d, 0x8b, 0x8b, 0xbc, 0xb1, 0x6f, 0xb0, 0xa9, 0x65,
  0x5c, 0x97, 0xca, 0x68, 0x72, 0xa1, 0xae, 0xa0, 0x62, 0xc2, 0x30, 0x6a,
  0x7c, 0x55, 0x8f, 0x8b, 0xa3, 0x8f, 0x64, 0xa1, 0x5f, 0x48, 0x76, 0x96,
  0x9e, 0xc9, 0xb7, 0x74, 0x92, 0x65, 0xbb, 0x50, 0xa0, 0x3e, 0x95, 0x62,
  0x6a, 0x94, 0x90, 0x63, 0x36, 0x73, 0x6b, 0x9e, 0xa1, 0xb8, 0x61, 0xa1,
  0x7a, 0xa5, 0x39, 0x64, 0x93, 0xbe, 0xac, 0xaf, 0xaa, 0x29, 0x8e, 0xac,
  0x79, 0x91, 0x7f, 0x6f, 0x8c, 0xa5, 0x8a, 0xb6, 0x60, 0x38, 0x46, 0x97,
  0x9a, 0x6d, 0xa6, 0x4a, 0x8a, 0x77, 0x72, 0x70, 0x8e, 0x68, 0x6e, 0x6a,
  0x87, 0xd5, 0x92, 0x9f, 0x88, 0x58, 0x57, 0x74, 0x33, 0xc4, 0x71, 0x87,
  0x60, 0xbf, 0x5e, 0x56, 0x62, 0x4b, 0x89, 0x67, 0x98, 0x9a, 0x53, 0x60,
  0x60, 0x9c, 0xb0, 0x73, 0x72, 0x4c, 0xb2, 0xaf, 0x83, 0x42, 0xa4, 0xbe,
  0x58, 0x23, 0x60, 0x88, 0x50, 0x5d, 0x3d, 0x9b, 0x97, 0x63, 0x57, 0xc0,
  0x38, 0x70, 0x69, 0x30, 0x5b, 0x3c, 0xb6, 0x97, 0x79, 0x4f, 0x73, 0xce,
  0x8f, 0x91, 0xae, 0x50, 0x82, 0x6d, 0x78, 0xbe, 0x65, 0x70, 0x8e, 0x8b,
  0x43, 0x7e, 0xa5, 0xd4, 0x7d, 0x61, 0x60, 0x69, 0xae, 0x6e, 0xc3, 0x5b,
  0x7c, 0x96, 0xa8, 0x8e, 0x85, 0x65, 0x93, 0x5b, 0x7a, 0x8c, 0xa8, 0xb4,
  0x4a, 0xb7, 0x67, 0x22, 0xb8, 0x88, 0xa6, 0x99, 0x9b, 0x33, 0x29, 0x4a,
  0x95, 0xc5, 0x65, 0x97, 0x92, 0xce, 0xcf, 0xbd, 0x5c, 0x7b, 0x7e, 0x9f,
  0x6f, 0x88, 0xa2, 0xcc, 0x8c, 0xb7, 0x8b, 0x85, 0x88, 0xa1, 0x6c, 0xa2,
  0x98, 0x6b, 0x6b, 0x86, 0x32, 0x92, 0x6a, 0xae, 0x7c, 0x7e, 0xbd, 0xb5,
  0x6d, 0x37, 0x77, 0x9f, 0x55, 0x8c, 0x94, 0x76, 0x8b, 0x98, 0x9d, 0x7a,
  0x79, 0x4a, 0x6e, 0x3c, 0x71, 0x61, 0x6e, 0x60, 0xaa, 0x84, 0x32, 0x6d,
  0x98, 0x36, 0xaa, 0x70, 0x90, 0x88, 0x67, 0x7b, 0xba, 0x9e, 0xa3, 0x9f,
  0x41, 0x81, 0x54, 0xcf, 0x62, 0x5a, 0x44, 0x73, 0x39, 0x7b, 0xa3, 0x99,
  0x80, 0xbd, 0xc7, 0x75, 0x45, 0x2c, 0x44, 0xae, 0x83, 0xb4, 0x8f, 0x74,
  0x83, 0x55, 0x5b, 0x80, 0x73, 0xd3, 0x59, 0x50, 0xb7, 0x68, 0x78, 0x69,
  0x2e, 0x63, 0x5a, 0x98, 0x98, 0x96, 0xb1, 0x89, 0x8e, 0x5b, 0x92, 0x63,
  0x95, 0xb6, 0x4a, 0x7b, 0x28, 0x53, 0x91, 0x7a, 0x26, 0x40, 0x64, 0x50,
  0x4e, 0x52, 0x7b, 0x9d, 0xb2, 0x85, 0x67, 0x37, 0x47, 0x91, 0x8d, 0x4c,
  0xa7, 0x29, 0x67, 0x7d, 0x91, 0xc2, 0x68, 0x44, 0x79, 0x8e, 0xad, 0x91,
  0x27, 0x88, 0xbc, 0x82, 0x2a, 0x79, 0x61, 0xc5, 0x84, 0x9c, 0x8f, 0x68,
  0x41, 0xbb, 0x5c, 0x5d, 0x36, 0x69, 0x56, 0x40, 0x51, 0x9e, 0x9a, 0xa9,
  0xdb, 0x78, 0xb4, 0x95, 0xa1, 0x33, 0x8a, 0x44, 0x45, 0x3a, 0xbe, 0x6c,
  0x8c, 0xa6, 0x6e, 0xd4, 0x81, 0x9e, 0x28, 0x98, 0x4c, 0x54, 0x91, 0x76,
  0x39, 0x88, 0x9d, 0xe0, 0x47, 0xa5, 0xa9, 0x8a, 0x4d, 0xd2, 0x9f, 0xa1,
  0x66, 0x74, 0xa2, 0x6b, 0xb6, 0xaf, 0x60, 0x86, 0x42, 0x8c, 0xb7, 0x56,
  0x50, 0x4e, 0x7a, 0x82, 0x8c, 0xb3, 0xa9, 0x8b, 0x98, 0x9e, 0xc3, 0x5f,
  0x9f, 0x27, 0x7d, 0x82, 0xc8, 0x88, 0x3e, 0xb4, 0x87, 0x83, 0x85, 0x42,
  0xd2, 0x47, 0x3f, 0x7f, 0x59, 0xd9, 0xdd, 0x79, 0x52, 0xde, 0x5c, 0x57,
  0x95, 0x3d, 0xb1, 0xa0, 0x2c, 0x32, 0x82, 0x87, 0x54, 0x6a, 0x50, 0xbe,
  0x9b, 0x66, 0x92, 0x9c, 0x55, 0x7a, 0x4d, 0x88, 0x73, 0x9b, 0x5e, 0x7b,
  0x95, 0x5a, 0x91, 0x64, 0x9a, 0x47, 0x37, 0x62, 0x18, 0x65, 0x6c, 0x63,
  0x97, 0xb5, 0x83, 0x3a, 0x84, 0x5a, 0x3a, 0x62, 0x94, 0xbf, 0x5c, 0x88,
  0x4d, 0x93, 0x40, 0x56, 0x88, 0xa0, 0x80, 0x8b, 0x49, 0xde, 0xc8, 0xc9,
  0x67, 0xd2, 0xa7, 0x74, 0x90, 0x58, 0xdd, 0x7c, 0x56, 0x9f, 0x85, 0xbf,
  0x27, 0xb9, 0x8f, 0xb4, 0xb8, 0x62, 0x8c, 0x74, 0x3c, 0x33, 0xb2, 0xb0,
  0x93, 0xcb, 0x41, 0x8f, 0x71, 0x8a, 0x53, 0x9a, 0x40, 0xde, 0x9f, 0xcc,
  0x80, 0x7e, 0x55, 0x72, 0x43, 0xb2, 0x80, 0x96, 0x80, 0x61, 0xb9, 0x87,
  0x87, 0x97, 0x45, 0x8d, 0x9a, 0x67, 0xa1, 0x81, 0x9a, 0xa6, 0x82, 0x51,
  0x9f, 0xc3, 0x5e, 0xbc, 0x8d, 0x8b, 0x87, 0x74, 0x95, 0x9f, 0x92, 0x72,
  0x60, 0x4a, 0x80, 0x6b, 0x79, 0x7f, 0xbd, 0x62, 0x4e, 0xad, 0xbf, 0xe3,
  0xbb, 0x86, 0x69, 0x7b, 0xaa, 0x47, 0x72, 0x9d, 0x9b, 0x82, 0x87, 0xa8,
  0xae, 0x72, 0x91, 0x87, 0x7d, 0x87, 0x71, 0xaa, 0xaf, 0x64, 0xc4, 0xda,
  0x5b, 0x8a, 0x5c, 0x50, 0x63, 0x92, 0x51, 0x57, 0xa9, 0x62, 0x8e, 0x61,
  0xad, 0xa2, 0x56, 0xcd, 0x6e, 0xd7, 0x9c, 0xa0, 0xa0, 0x55, 0x61, 0x7b,
  0x5b, 0xc5, 0xb0, 0x78, 0x63, 0x8e, 0x34, 0xab, 0x91, 0xd7, 0x79, 0xa2,
  0xa3, 0x97, 0x96, 0xac, 0x99, 0x80, 0xaf, 0x33, 0x9b, 0x9d, 0x64, 0x7a,
  0x45, 0xab, 0x40, 0x7d, 0x80, 0xa2, 0x65, 0xeb, 0x80, 0x6a, 0x80, 0x64,
  0x8d, 0x0c, 0x52, 0xac, 0x47, 0x7c, 0x81, 0x97, 0xba, 0x22, 0xe1, 0x67,
  0x41, 0x65, 0x6e, 0x93, 0x5c, 0x95, 0x85, 0x77, 0x3e, 0x5d, 0xa8, 0x6b,
  0x88, 0xce, 0x65, 0xa6, 0x54, 0x6e, 0x93, 0x8f, 0x41, 0x99, 0x47, 0x98,
  0x96, 0x7b, 0x7f, 0x33, 0x89, 0x96, 0x7e, 0x94, 0x83, 0x4b, 0x79, 0x35,
  0x8b, 0x6e, 0x87, 0xad, 0x9b, 0x8f, 0x60, 0x48, 0x58, 0x73, 0x69, 0x76,
  0x9b, 0x4a, 0xa7, 0x95, 0x98, 0xac, 0xcd, 0x93, 0x30, 0x9e, 0x5d, 0x4c,
  0x41, 0x84, 0xc9, 0x97, 0x2d, 0x63, 0xad, 0x29, 0xc0, 0xb1, 0xbe, 0x87,
  0x96, 0x9d, 0xc2, 0x86, 0xba, 0x5d, 0x91, 0x9b, 0x85, 0x53, 0xa1, 0x7b,
  0x91, 0x9a, 0x81, 0x8b, 0x51, 0xc4, 0x79, 0xb7, 0xd4, 0x82, 0x8e, 0x85,
  0x78, 0x9f, 0x7e, 0x66, 0xc3, 0x69, 0x3c, 0x6b, 0x9e, 0xae, 0x6c, 0x7e,
  0xa7, 0xc5, 0x92, 0xa2, 0x83, 0x61, 0x3c, 0x29, 0x47, 0x60, 0x85, 0x98,
  0xa7, 0xca, 0x5d, 0x48, 0xae, 0x6f, 0x88, 0x72, 0x3c, 0x8e, 0xbf, 0x1e,
  0x34, 0xf1, 0x36, 0xc7, 0x27, 0x40, 0xb5, 0x38, 0x84, 0x49, 0x48, 0x6e,
  0x8e, 0x6d, 0xd7, 0x29, 0x7b, 0x76, 0x7f, 0x51, 0x5c, 0xba, 0x75, 0x5c,
  0x91, 0x7f, 0x97, 0x81, 0x66, 0x6a, 0x8a, 0x7a, 0x74, 0x50, 0x97, 0x48,
  0xaf, 0x8d, 0xa8, 0x8f, 0x84, 0x9d, 0x61, 0x8b, 0x7e, 0x50, 0x62, 0x87,
  0xa0, 0x7d, 0x50, 0xa0, 0x39, 0xbd, 0x85, 0x6c, 0x89, 0x76, 0x61, 0x8d,
  0xd1, 0x76, 0x5f, 0x89, 0x9c, 0xb5, 0x29, 0x76, 0x7e, 0x53, 0xae, 0x8c,
  0x85, 0x89, 0xaa, 0x64, 0x49, 0x55, 0x93, 0x86, 0x9b, 0x47, 0x81, 0x54,
  0x8e, 0x50, 0x81, 0x4e, 0x97, 0x2c, 0x66, 0x73, 0x47, 0x7f, 0x51, 0x61,
  0x82, 0xd1, 0xc8, 0x58, 0x4a, 0x83, 0x7b, 0x97, 0x91, 0xb1, 0xb8, 0x5c,
  0xbc, 0x50, 0x70, 0xa6, 0x5d, 0x7c, 0x8e, 0x9d, 0x55, 0x58, 0x48, 0x8c,
  0x79, 0x6a, 0x79, 0x66, 0x3e, 0x6d, 0x7a, 0x53, 0x79, 0x8d, 0x7a, 0xb9,
  0x87, 0x5b, 0x8f, 0x95, 0xa9, 0x63, 0x77, 0x80, 0x84, 0xbf, 0x51, 0x77,
  0x1f, 0xc2, 0x78, 0x51, 0x69, 0x5f, 0x9e, 0xb5, 0x29, 0x5c, 0xa7, 0x49,
  0x59, 0x72, 0x98, 0x60, 0x87, 0x91, 0xbb, 0x7c, 0x0f, 0xa2, 0x79, 0x44,
  0x46, 0x7a, 0x61, 0x46, 0x8a, 0x4c, 0x38, 0x74, 0x72, 0x97, 0x4c, 0x52,
  0x85, 0x9d, 0x92, 0x6d, 0x67, 0x9c, 0x79, 0x5a, 0xa8, 0x94, 0x38, 0x8a,
  0x82, 0x8f, 0x6a, 0x79, 0xc2, 0xc0, 0xa1, 0x92, 0x5c, 0x6f, 0x6a, 0x5f,
  0x4e, 0xae, 0x3a, 0x94, 0xb6, 0xd0, 0x63, 0x55, 0xc8, 0xb3, 0x9a, 0xcd,
  0x1f, 0xad, 0x94, 0x7b, 0x7c, 0x5f, 0xac, 0x70, 0x70, 0xc0, 0x8c, 0x4f,
  0xcb, 0xad, 0x88, 0x44, 0x94, 0xb9, 0x79, 0x9c, 0x75, 0x23, 0x8f, 0x70,
  0x58, 0x41, 0xae, 0x74, 0x79, 0x56, 0x5c, 0x90, 0x9d, 0x77, 0x71, 0xbf,
  0x93, 0x59, 0xb4, 0x97, 0x69, 0x76, 0xbd, 0x4c, 0x98, 0x60, 0x85, 0x7a,
  0xc1, 0x98, 0x97, 0xa3, 0x44, 0xa7, 0x9f, 0xb3, 0x8b, 0x86, 0x7a, 0x4f,
  0x8a, 0x9f, 0x36, 0x89, 0x9e, 0x37, 0xc2, 0x88, 0x55, 0x94, 0x6b, 0xb3,
  0x8b, 0x82, 0x70, 0x69, 0x62, 0x98, 0xc3, 0x98, 0xa6, 0x64, 0x98, 0x73,
  0xcb, 0x71, 0x4d, 0xd1, 0x65, 0x84, 0x6e, 0x68, 0x9c, 0xa7, 0x39, 0xa3,
  0xba, 0xa0, 0x9e, 0x83, 0x91, 0x79, 0xd7, 0xae, 0x6c, 0x8d, 0x65, 0x5d,
  0x4e, 0x39, 0x84, 0x44, 0x92, 0xb6, 0x5d, 0x49, 0x24, 0x57, 0x53, 0x62,
  0x8e, 0x8e, 0x68, 0x4b, 0x50, 0x38, 0x7c, 0xaf, 0x5b, 0xd4, 0x64, 0xc5,
  0xd8, 0x6b, 0x31, 0xad, 0x83, 0x8d, 0x54, 0x7f, 0x90, 0x42, 0xb6, 0x7c,
  0xbe, 0x4f, 0x6a, 0x76, 0xaa, 0x7c, 0xa5, 0xa4, 0x66, 0x45, 0x8e, 0x7a,
  0xbe, 0x41, 0x7e, 0xa2, 0xa2, 0xac, 0x79, 0x82, 0x82, 0x76, 0x78, 0x75,
  0x54, 0x60, 0x6e, 0x59, 0xbf, 0xa1, 0xaf, 0x83, 0x7e, 0xc9, 0x66, 0xac,
  0x97, 0xc1, 0x2b, 0x7e, 0x9d, 0x6f, 0x4c, 0x69, 0xa1, 0x50, 0x61, 0xcf,
  0x44, 0x8a, 0x46, 0x8e, 0xb4, 0x72, 0x75, 0x90, 0x33, 0x4a, 0x7c, 0x99,
  0x67, 0x94, 0x8d, 0x9f, 0xb5, 0x86, 0x65, 0xca, 0xcb, 0x6a, 0x81, 0x95,
  0x84, 0x7a, 0x4b, 0x8a, 0xd8, 0x81, 0xb6, 0xaf, 0x87, 0xd8, 0x3c, 0x8f,
  0xa6, 0xc8, 0xa9, 0xab, 0xa6, 0x52, 0x40, 0xa9, 0x5f, 0x63, 0xb1, 0x58,
  0xa8, 0x44, 0x5b, 0x8a, 0x82, 0x41, 0x8f, 0x5f, 0x80, 0xb8, 0x8f, 0x7b,
  0xb5, 0x91, 0xba, 0x85, 0xb5, 0xcb, 0x3b, 0x19, 0x73, 0x37, 0xbf, 0x48,
  0x8f, 0x66, 0x60, 0x71, 0x98, 0xb7, 0x4f, 0x34, 0x6e, 0xba, 0xa3, 0x8e,
  0x53, 0x66, 0x31, 0x71, 0x5c, 0x92, 0x75, 0x91, 0xa8, 0x8c, 0x80, 0x7c,
  0x50, 0xbc, 0x3d, 0xd3, 0x6b, 0x3c, 0x35, 0xa4, 0xc0, 0xcf, 0x80, 0xab,
  0xa3, 0xc3, 0x71, 0x78, 0x85, 0x5f, 0x84, 0xc5, 0x98, 0x51, 0x69, 0x5f,
  0x35, 0x62, 0x52, 0xc1, 0xc3, 0xb8, 0x34, 0x9a, 0x96, 0x90, 0x74, 0xa3,
  0x87, 0x72, 0x7d, 0x9d, 0x57, 0x36, 0xa2, 0x5e, 0x97, 0x73, 0xc9, 0x80,
  0x45, 0xda, 0x9a, 0xbb, 0x8c, 0x7e, 0x91, 0x59, 0x3f, 0x46, 0xad, 0xdf,
  0x37, 0x72, 0x83, 0x71, 0xa9, 0x92, 0x7d, 0xa1, 0x73, 0x93, 0xbc, 0xa7,
  0x30, 0x7f, 0x9d, 0xb1, 0x95, 0x4e, 0x8a, 0xac, 0x6d, 0xa1, 0x83, 0x78,
  0x3c, 0xa9, 0x38, 0x8c, 0x81, 0xaa, 0x98, 0xb5, 0xb2, 0x99, 0x5e, 0xad,
  0x7c, 0xd7, 0x8a, 0x7b, 0x8d, 0x7e, 0x81, 0x5b, 0x80, 0x88, 0x92, 0x78,
  0xb6, 0x4f, 0x7a, 0x7e, 0x93, 0x5c, 0xa9, 0x85, 0xcd, 0x6f, 0x9b, 0xc3,
  0xa9, 0x86, 0x72, 0x8e, 0xa8, 0x90, 0x3a, 0x8c, 0xa6, 0x37, 0x58, 0x8c,
  0xcb, 0x5f, 0x44, 0xb6, 0x3c, 0x30, 0x4d, 0x39, 0x88, 0x99, 0xc3, 0x1d,
  0xa2, 0xac, 0x7a, 0x6c, 0xc2, 0x8a, 0x6b, 0x99, 0xb3, 0x4c, 0x26, 0x64,
  0x7d, 0x69, 0x98, 0x7d, 0x70, 0x85, 0xa0, 0x64, 0xa7, 0x7f, 0x83, 0x7c,
  0x5b, 0xa1, 0x86, 0xae, 0xe0, 0x56, 0x44, 0xb0, 0x80, 0x5a, 0x5a, 0x76,
  0x91, 0x5f, 0xac, 0xcf, 0x97, 0x7e, 0xa5, 0x73, 0x9d, 0x5a, 0x87, 0x75,
  0x5f, 0x6d, 0x77, 0xbf, 0xb6, 0x65, 0x5a, 0xb6, 0xc1, 0xb0, 0x82, 0x7c,
  0x50, 0x67, 0x98, 0x6c, 0x6f, 0xd2, 0x64, 0x5b, 0xac, 0x77, 0xc0, 0x5f,
  0xa0, 0x75, 0x94, 0x74, 0x80, 0x80, 0x54, 0x88, 0x99, 0x82, 0x92, 0xdc,
  0x60, 0x64, 0x88, 0xb1, 0x3f, 0x41, 0xd7, 0x81, 0x40, 0x3f, 0x5b, 0x6a,
  0x81, 0x52, 0xcf, 0xdf, 0x9d, 0x77, 0xaa, 0xd8, 0x96, 0x70, 0x62, 0x84,
  0xb9, 0xca, 0xdb, 0x97, 0x49, 0x8d, 0x7d, 0x78, 0xaf, 0xd9, 0x8e, 0x80,
  0x6f, 0x76, 0x70, 0xa1, 0x85, 0x27, 0xbe, 0xc4, 0xb8, 0x89, 0x8a, 0xb9,
  0x5f, 0x4d, 0x77, 0x83, 0xcd, 0x68, 0x9c, 0x74, 0xa8, 0x96, 0x64, 0xca,
  0xd1, 0x9f, 0x9f, 0x3b, 0x7f, 0x9b, 0xd4, 0x5f, 0x94, 0x7a, 0xbc, 0x6d,
  0x69, 0x9f, 0x4c, 0xa5, 0xbb, 0xc1, 0xa8, 0x23, 0x7f, 0x91, 0xc1, 0x90,
  0x74, 0x5b, 0x6d, 0x5e, 0xa6, 0x30, 0xa6, 0xd8, 0x85, 0x78, 0x47, 0x96,
  0x85, 0x96, 0x2d, 0xc0, 0x57, 0xc1, 0x8e, 0xd4, 0x68, 0x6c, 0x7f, 0x51,
  0x90, 0xdd, 0xaf, 0xaa, 0xca, 0x7a, 0x78, 0x47, 0x6d, 0x88, 0xa8, 0xcc,
  0x8a, 0x91, 0x85, 0x82, 0xbd, 0x5b, 0x9f, 0x39, 0xa4, 0x94, 0x6e, 0xac,
  0x61, 0x74, 0x9d, 0x58, 0x67, 0x5b, 0x61, 0x6d, 0x5d, 0x93, 0xa9, 0x52,
  0xd7, 0x70, 0xbc, 0x8c, 0x4e, 0x9e, 0xca, 0x7e, 0xd1, 0x28, 0xcc, 0x8b,
  0xa0, 0xa4, 0x98, 0x50, 0xab, 0xa0, 0xc5, 0xbe, 0xd0, 0x44, 0xf0, 0x70,
  0x7b, 0x9c, 0x42, 0xc5, 0x76, 0xa4, 0xd8, 0x39, 0xbe, 0x7f, 0xd1, 0x8f,
  0x55, 0x9b, 0x83, 0xa5, 0x6b, 0x68, 0x7c, 0x77, 0x70, 0x96, 0xcc, 0x3c,
  0x79, 0xc6, 0x97, 0x6d, 0x78, 0xa2, 0x53, 0x8a, 0x89, 0xaf, 0x4b, 0x84,
  0xac, 0x70, 0x4e, 0x4e, 0x70, 0xca, 0x8c, 0xea, 0x68, 0x63, 0x8c, 0x8d,
  0x96, 0x53, 0xc7, 0xd1, 0x9e, 0x88, 0x3d, 0xbe, 0x6b, 0x6a, 0x67, 0x4a,
  0x5f, 0x4e, 0x54, 0x32, 0x45, 0x9a, 0x3f, 0x57, 0x81, 0xbf, 0x50, 0x9f,
  0x64, 0x5e, 0x75, 0x50, 0x86, 0x82, 0x93, 0x6f, 0xcb, 0x98, 0xce, 0xbd,
  0x99, 0x85, 0x80, 0x6c, 0x3f, 0x79, 0x7b, 0x84, 0x8a, 0x63, 0x75, 0x9b,
  0xa7, 0x44, 0xa4, 0xb6, 0xac, 0x5c, 0x95, 0x83, 0xce, 0x6f, 0x48, 0x71,
  0x6a, 0x78, 0x75, 0x5b, 0x6c, 0x21, 0x3d, 0x98, 0xa7, 0x72, 0x94, 0xd5,
  0xc1, 0x91, 0x9b, 0xc3, 0x71, 0x56, 0x49, 0x58, 0xb0, 0x77, 0x93, 0xd3,
  0x85, 0x5d, 0xa8, 0x96, 0x92, 0x58, 0x42, 0xac, 0x49, 0x7e, 0x91, 0x65,
  0xa1, 0x61, 0x8f, 0x5f, 0x8c, 0x5f, 0xaa, 0x8c, 0xce, 0x8f, 0xde, 0x4c,
  0x3a, 0x7d, 0xc1, 0x91, 0x5f, 0x38, 0x70, 0xa7, 0x73, 0x45, 0xdf, 0x84,
  0x92, 0xa7, 0x84, 0xa2, 0x4a, 0x6b, 0x93, 0x80, 0x77, 0x49, 0x84, 0x61,
  0xd2, 0x9b, 0x87, 0x4d, 0x7a, 0x75, 0x46, 0x99, 0x54, 0x29, 0x39, 0x90,
  0x63, 0x8d, 0xa4, 0x95, 0xc5, 0x76, 0x84, 0x5f, 0x86, 0x6e, 0x8f, 0x9d,
  0x36, 0x71, 0x9e, 0x9b, 0x4f, 0xcd, 0x99, 0xab, 0x36, 0xd2, 0x90, 0x8f,
  0x1f, 0x96, 0x8c, 0xa3, 0x7c, 0x85, 0x67, 0x2f, 0xdd, 0x57, 0x53, 0x5d,
  0x5f, 0x66, 0x4d, 0x3c, 0x8d, 0x74, 0x68, 0x6a, 0x8c, 0x7c, 0x74, 0x80,
  0x57, 0x61, 0x8d, 0x95, 0x69, 0xa3, 0x8c, 0xb1, 0x45, 0xb9, 0x71, 0x9c,
  0x6e, 0x92, 0xe7, 0x8c, 0xe1, 0x5c, 0x5a, 0x9d, 0x99, 0xbe, 0xe7, 0x91,
  0xa4, 0x6a, 0x5a, 0x55, 0x95, 0xa0, 0xbf, 0x85, 0x81, 0x76, 0x59, 0x73,
  0x58, 0x68, 0xb8, 0x6c, 0x5a, 0x61, 0x86, 0x94, 0x59, 0xb1, 0x74, 0x62,
  0x92, 0x50, 0x60, 0xb2, 0x6e, 0x6e, 0xcc, 0x93, 0x4a, 0xb1, 0x90, 0xb0,
  0x60, 0x88, 0xbf, 0x9e, 0x7f, 0x69, 0xb4, 0x7d, 0xb1, 0x82, 0x87, 0x92,
  0xa9, 0xda, 0x82, 0x55, 0x4d, 0xd1, 0x61, 0xd8, 0x5c, 0x81, 0x9b, 0xc9,
  0xb3, 0xb0, 0x93, 0x95, 0x7e, 0x8c, 0x8c, 0x78, 0x5c, 0xa5, 0x9f, 0xa1,
  0x91, 0x7a, 0x6c, 0x75, 0xd6, 0x82, 0x44, 0x2b, 0x9a, 0x5c, 0xb1, 0x6e,
  0xb6, 0x81, 0xb9, 0xca, 0x93, 0x46, 0xab, 0x4b, 0x6f, 0xb8, 0xa6, 0x73,
  0xd6, 0x30, 0x8b, 0x9d, 0x42, 0x8b, 0xb0, 0x66, 0x75, 0xc6, 0x6c, 0xbc,
  0x85, 0x6d, 0x5e, 0x95, 0x5d, 0x8a, 0x43, 0x51, 0x7c, 0x31, 0x6c, 0x3a,
  0x8b, 0x70, 0x9a, 0x47, 0x68, 0x68, 0x75, 0x7c, 0xa7, 0x7b, 0xd0, 0x81,
  0x78, 0x81, 0x3d, 0x62, 0xaf, 0xa0, 0x65, 0x61, 0x79, 0x7b, 0x96, 0x93,
  0x7b, 0x6e, 0xb1, 0x6b, 0x67, 0x68, 0x92, 0xbf, 0xad, 0x5d, 0x73, 0xc0,
  0x74, 0x9b, 0x98, 0x42, 0x92, 0xae, 0x49, 0x90, 0x52, 0x36, 0x5c, 0x81,
  0x2e, 0x9f, 0xc2, 0x6c, 0x9f, 0x61, 0x70, 0x8d, 0x25, 0xc3, 0xa2, 0x77,
  0x52, 0x86, 0xbb, 0xb1, 0x68, 0xa7, 0x84, 0x7b, 0x92, 0x3c, 0xd6, 0x9c,
  0x64, 0x9e, 0xc8, 0x70, 0x78, 0x77, 0xd4, 0x84, 0x81, 0x8e, 0x62, 0x6b,
  0xb4, 0xb1, 0x87, 0xc8, 0x63, 0x6a, 0xb6, 0x74, 0xaf, 0x97, 0x79, 0x99,
  0xb1, 0x76, 0x44, 0x9b, 0x32, 0x58, 0x97, 0x43, 0x95, 0x6f, 0xa9, 0x79,
  0x50, 0x81, 0x8d, 0x7e, 0x43, 0x76, 0x65, 0xab, 0x9f, 0xa0, 0x7a, 0xb3,
  0xa2, 0x59, 0x92, 0xa5, 0x55, 0xb3, 0x5d, 0x6a, 0xa8, 0x55, 0x96, 0x63,
  0x3a, 0x93, 0xb7, 0x2d, 0x68, 0x69, 0xbd, 0xbb, 0x9d, 0xa1, 0x59, 0x97,
  0xbc, 0x85, 0x7c, 0x81, 0xb2, 0x7b, 0xaf, 0x83, 0xa8, 0xa1, 0xc3, 0x51,
  0xa6, 0x8c, 0xaa, 0x65, 0xac, 0x4b, 0x97, 0x24, 0x33, 0x6b, 0x84, 0x82,
  0x46, 0x89, 0x99, 0x91, 0xd4, 0xb7, 0x4f, 0xaa, 0x7b, 0x62, 0x8c, 0x7a,
  0x86, 0x8f, 0x6b, 0x6d, 0xa9, 0x26, 0xa6, 0x5f, 0x9f, 0x85, 0x57, 0x96,
  0xa6, 0x9d, 0xc2, 0x5a, 0xa3, 0x89, 0x83, 0x71, 0x4c, 0xd1, 0xbc, 0x5f,
  0x6a, 0x7f, 0xb1, 0x9d, 0x72, 0x82, 0x86, 0x78, 0x8d, 0xa2, 0xa4, 0x6b,
  0xa9, 0x75, 0x83, 0xcf, 0xc0, 0x51, 0xc2, 0x96, 0xa4, 0xa0, 0xbc, 0x84,
  0xc3, 0xd5, 0xb0, 0x42, 0x5b, 0x9b, 0xa8, 0xcc, 0x2d, 0x58, 0x5b, 0x99,
  0xc4, 0xce, 0x52, 0xb0, 0xbb, 0x90, 0x69, 0x9d, 0xa5, 0x58, 0x76, 0x73,
  0x60, 0x65, 0x68, 0x5e, 0xa3, 0x92, 0x88, 0xbb, 0x36, 0x94, 0x73, 0xb2,
  0x6e, 0xd3, 0x63, 0xd1, 0x7f, 0x86, 0xb1, 0xac, 0x61, 0x50, 0x6f, 0x8c,
  0xad, 0x92, 0xaa, 0x39, 0x9c, 0x82, 0x71, 0x40, 0x98, 0xb9, 0xab, 0x9b,
  0x21, 0x96, 0x7a, 0x9c, 0x4d, 0x6e, 0x48, 0x80, 0x89, 0xa1, 0x63, 0x94,
  0x76, 0x72, 0x5a, 0x91, 0x42, 0x4c, 0x69, 0x7f, 0x6e, 0x85, 0x9f, 0xa5,
  0x44, 0x9c, 0x76, 0xbe, 0x5e, 0x94, 0xb5, 0x7f, 0x2f, 0x35, 0x64, 0x92,
  0x34, 0xc0, 0x98, 0x4c, 0xda, 0x70, 0x6e, 0xa6, 0x98, 0x8d, 0x6e, 0x69,
  0xaf, 0x5e, 0x9f, 0xd9, 0x51, 0x7d, 0x8d, 0x89, 0x6b, 0x91, 0xa0, 0x97,
  0x85, 0x59, 0x83, 0x6c, 0x85, 0x65, 0x88, 0xbd, 0x90, 0xa3, 0x8a, 0x8f,
  0xa8, 0x28, 0xce, 0xab, 0xb3, 0x81, 0xb9, 0xbf, 0x8a, 0x24, 0xd8, 0xa9,
  0x4b, 0xc2, 0xcf, 0x81, 0xd3, 0x62, 0x78, 0x85, 0x8e, 0x65, 0x78, 0x9e,
  0x90, 0x3d, 0x21, 0x92, 0x94, 0xae, 0x3c, 0x68, 0x6e, 0xa1, 0x7e, 0x7c,
  0x41, 0x22, 0xe5, 0xa7, 0x70, 0x6f, 0xbe, 0x9a, 0xa8, 0x77, 0x85, 0xa6,
  0x99, 0x76, 0x73, 0xb8, 0xc4, 0x30, 0x6d, 0x4f, 0x74, 0xa3, 0x67, 0x89,
  0x20, 0x37, 0xd7, 0x63, 0x5e, 0x9c, 0x50, 0x49, 0x70, 0x8d, 0xc0, 0x66,
  0x94, 0x83, 0xb2, 0x85, 0x68, 0x54, 0x8d, 0x46, 0x63, 0x7d, 0x41, 0x6c,
  0x5f, 0x85, 0xb6, 0x1d, 0x9f, 0x93, 0xa7, 0x7a, 0xb1, 0x85, 0x85, 0xaa,
  0x8b, 0xae, 0xc8, 0x9e, 0x72, 0x97, 0x76, 0x5e, 0x85, 0xa4, 0xb9, 0xc3,
  0x94, 0x71, 0xa6, 0x30, 0x52, 0x7f, 0x71, 0xaf, 0xae, 0x8b, 0x7d, 0x75,
  0x4d, 0x8b, 0x76, 0x79, 0xc6, 0x6b, 0x93, 0x77, 0x8e, 0xa5, 0x86, 0x5e,
  0x65, 0x6a, 0xbf, 0x97, 0x65, 0x5d, 0x4a, 0xa5, 0x9d, 0x89, 0x89, 0x86,
  0xbc, 0x62, 0x89, 0xe2, 0x50, 0x96, 0x48, 0x51, 0x98, 0x4b, 0x5a, 0xdf,
  0x56, 0x69, 0x82, 0x95, 0xd5, 0xd9, 0x64, 0xc5, 0x4b, 0xac, 0x61, 0x3c,
  0x93, 0x4d, 0xc8, 0x47, 0x7b, 0x6d, 0xca, 0xa8, 0x8d, 0x66, 0xa4, 0x9f,
  0x97, 0x61, 0x80, 0x44, 0x4b, 0x61, 0xa7, 0x39, 0x27, 0x9e, 0x84, 0xaf,
  0x6e, 0x8c, 0x8f, 0x7d, 0x5d, 0x4a, 0x7e, 0x48, 0xb1, 0xb3, 0x50, 0x95,
  0xb9, 0x3f, 0x76, 0x92, 0xa8, 0xb1, 0x60, 0x90, 0x94, 0xa7, 0xd4, 0xcb,
  0x49, 0x75, 0x31, 0xa3, 0x63, 0x51, 0xa6, 0x36, 0xb8, 0xdc, 0xc8, 0x44,
  0x77, 0x8e, 0xda, 0x54, 0x9b, 0xa8, 0xc2, 0x29, 0xb4, 0xcf, 0x5f, 0x68,
  0x80, 0x83, 0x77, 0xb6, 0x38, 0xcf, 0x9d, 0x44, 0x2b, 0x7b, 0x59, 0x97,
  0x73, 0x81, 0x88, 0x68, 0x65, 0xe0, 0x88, 0x83, 0x85, 0x87, 0xc2, 0x8a,
  0x47, 0x83, 0x5f, 0x8d, 0x66, 0x5b, 0x55, 0x22, 0xa5, 0x5d, 0x3a, 0xae,
  0xaa, 0x5c, 0x86, 0x53, 0x58, 0xaf, 0xc1, 0x6e, 0x94, 0x8f, 0x5c, 0x92,
  0x72, 0x69, 0x86, 0x9a, 0xa9, 0xa8, 0xa1, 0x43, 0x5a, 0x80, 0x91, 0xb0,
  0xa1, 0x86, 0x98, 0x6e, 0xae, 0x3d, 0xae, 0xba, 0x60, 0x5a, 0x81, 0x5c,
  0x96, 0x2c, 0xba, 0x8e, 0x4c, 0x6b, 0x66, 0x76, 0x9f, 0x78, 0xb8, 0x7a,
  0xa5, 0xab, 0xc2, 0x85, 0xbf, 0x78, 0x65, 0xd1, 0x41, 0x41, 0xa3, 0xc1,
  0xc3, 0x8c, 0xe0, 0xc3, 0x85, 0x97, 0x98, 0x67, 0x7e, 0x3c, 0x7e, 0xe0,
  0x4c, 0x8e, 0xaf, 0x7b, 0xae, 0x47, 0xdb, 0xa7, 0x48, 0x77, 0x82, 0x12,
  0xc3, 0x67, 0xb1, 0xc9, 0x9b, 0xbf, 0x9c, 0x31, 0x6d, 0x90, 0x20, 0x6c,
  0x64, 0x7e, 0x9e, 0x76, 0x4b, 0x90, 0xa3, 0x87, 0x27, 0x84, 0x7a, 0x37,
  0xa1, 0x69, 0x70, 0xb1, 0x94, 0x60, 0xc6, 0x78, 0xa3, 0x95, 0x84, 0xae,
  0x81, 0x80, 0x6b, 0x67, 0x3f, 0x6b, 0x6b, 0x88, 0x6c, 0x77, 0x7b, 0xa0,
  0x42, 0x32, 0x76, 0x8a, 0x85, 0x46, 0x6b, 0x2e, 0x54, 0x9c, 0xb2, 0xb6,
  0x88, 0x82, 0x53, 0x73, 0x40, 0x46, 0xa5, 0xc0, 0x57, 0xac, 0xa7, 0x7b,
  0xa2, 0xae, 0x8a, 0xb1, 0x48, 0x81, 0xc4, 0x64, 0x51, 0xdc, 0x77, 0x90,
  0x9e, 0x81, 0x92, 0x10, 0x92, 0x83, 0xaa, 0x9d, 0x85, 0x5b, 0x63, 0x5a,
  0x80, 0xe0, 0xb1, 0x9a, 0x7e, 0x9c, 0x52, 0xa5, 0x6e, 0xa9, 0xc5, 0x8e,
  0x79, 0xa6, 0x6c, 0x6f, 0x9f, 0x8e, 0xa7, 0x89, 0x42, 0x7f, 0x66, 0x50,
  0xa1, 0x7c, 0x7d, 0x44, 0x21, 0xa3, 0x70, 0x38, 0xa0, 0xaa, 0x8b, 0x7b,
  0x64, 0x67, 0xc0, 0xb8, 0xb4, 0x61, 0x88, 0x8a, 0xc4, 0x66, 0x4b, 0x6b,
  0x7f, 0x82, 0x81, 0xa0, 0x70, 0xa4, 0x6c, 0x41, 0xb2, 0x85, 0x65, 0xa2,
  0x7b, 0x46, 0xd7, 0xa4, 0x55, 0x58, 0xb3, 0xcb, 0xb9, 0xb8, 0x84, 0x8e,
  0x78, 0x8a, 0xac, 0xcc, 0x98, 0x9f, 0x8d, 0x72, 0x53, 0x92, 0x86, 0x73,
  0x35, 0x8b, 0xa3, 0x86, 0x92, 0xb8, 0x9d, 0x23, 0x8b, 0xad, 0xcb, 0x3c,
  0xb0, 0x3e, 0xcf, 0x61, 0xcd, 0x65, 0x69, 0x7e, 0x96, 0x61, 0x5c, 0x67,
  0x51, 0x64, 0xa8, 0x17, 0xaa, 0x55, 0x33, 0x79, 0x99, 0x94, 0x77, 0x47,
  0x33, 0xd1, 0x4d, 0x4d, 0x68, 0x8e, 0xa4, 0x72, 0x33, 0x93, 0x2a, 0x84,
  0x90, 0x50, 0xb8, 0xaf, 0x82, 0x87, 0xa5, 0x63, 0x3f, 0x68, 0x44, 0x60,
  0x86, 0x9d, 0x53, 0x9d, 0x24, 0x83, 0x98, 0x4b, 0x4f, 0x97, 0x57, 0x3a,
  0xa9, 0x44, 0x6a, 0x66, 0x71, 0x43, 0x77, 0xab, 0x83, 0x4a, 0xb0, 0xc3,
  0x72, 0x79, 0xe2, 0x81, 0x95, 0xd6, 0x3f, 0x63, 0x6b, 0x41, 0xc5, 0x9e,
  0x7c, 0x99, 0x58, 0x42, 0xd1, 0x66, 0x6f, 0xd6, 0x83, 0x43, 0x79, 0xb7,
  0xa2, 0x80, 0x57, 0x3b, 0x84, 0xa6, 0xc3, 0x7a, 0x7d, 0x79, 0x84, 0x72,
  0x51, 0x79, 0x4a, 0x5a, 0xa6, 0x9c, 0xac, 0x87, 0xaa, 0x59, 0x5c, 0xbd,
  0xa6, 0x96, 0x70, 0xbe, 0x7b, 0xe1, 0xa9, 0x4d, 0x8c, 0x7e, 0x9e, 0x6a,
  0xa1, 0x5d, 0x68, 0x93, 0x86, 0x85, 0x4f, 0xb0, 0xb2, 0x32, 0xae, 0x78,
  0xcd, 0x72, 0x6b, 0xa4, 0x9a, 0x62, 0x86, 0x70, 0x66, 0x5f, 0x82, 0x53,
  0x94, 0x88, 0x96, 0x84, 0x61, 0xc0, 0x6f, 0xa8, 0x82, 0xc5, 0xdd, 0x67,
  0xcd, 0x7d, 0xa7, 0x76, 0xb1, 0x80, 0x54, 0x96, 0x9d, 0x44, 0xda, 0x7b,
  0xb4, 0x73, 0x62, 0x28, 0x4c, 0x78, 0x5a, 0x82, 0xa2, 0x8d, 0xa3, 0x39,
  0x99, 0x91, 0x34, 0x58, 0x7a, 0xd6, 0xcd, 0x36, 0xa0, 0x64, 0x98, 0x88,
  0x9c, 0x4f, 0x8c, 0x59, 0x7e, 0x88, 0xc8, 0x86, 0x82, 0x78, 0x89, 0x74,
  0x63, 0x9f, 0x64, 0x8e, 0x9b, 0x62, 0x6d, 0x7f, 0x52, 0x69, 0x80, 0x75,
  0xc0, 0x97, 0xbf, 0x93, 0x81, 0x89, 0x92, 0x57, 0x59, 0x9c, 0x4a, 0x5e,
  0x82, 0x4f, 0xa4, 0x8b, 0x3e, 0xb5, 0x87, 0x57, 0x6c, 0x5f, 0x94, 0xb3,
  0x6d, 0x72, 0x70, 0x7e, 0x27, 0x67, 0x8b, 0x53, 0xc6, 0x7f, 0x63, 0x71,
  0x97, 0xc3, 0x75, 0xab, 0x5d, 0x3d, 0xa9, 0x8a, 0x6d, 0x81, 0xc0, 0xbe,
  0xbb, 0x81, 0xb2, 0x55, 0x7b, 0xb0, 0x7b, 0x9c, 0x82, 0xb8, 0x55, 0x67,
  0x61, 0x88, 0xb4, 0x7d, 0x7f, 0x78, 0xae, 0x63, 0x75, 0x71, 0x8f, 0x72,
  0x7f, 0x61, 0x96, 0x4c, 0x7e, 0x5d, 0x9d, 0xc0, 0x43, 0x66, 0x9b, 0x58,
  0x66, 0xd1, 0x8f, 0x84, 0x9a, 0xca, 0x62, 0x32, 0x86, 0x36, 0x28, 0x6d,
  0x95, 0xac, 0x73, 0x74, 0x5c, 0x51, 0x32, 0x92, 0xb3, 0xbb, 0x6c, 0x3b,
  0x62, 0x84, 0x50, 0xab, 0x32, 0x2f, 0x7b, 0xb9, 0x20, 0xc5, 0x26, 0x77,
  0xa2, 0xc8, 0x7d, 0x8c, 0x99, 0x6e, 0x3f, 0x53, 0x86, 0x75, 0x90, 0x36,
  0xaa, 0xad, 0x82, 0x58, 0x83, 0x44, 0x85, 0x80, 0xaa, 0x5e, 0x72, 0xd0,
  0x8e, 0x2b, 0xbc, 0x80, 0xa6, 0xd8, 0x54, 0x45, 0x27, 0xaf, 0x54, 0x83,
  0x60, 0xb0, 0x7b, 0x9f, 0x99, 0x70, 0x9e, 0x33, 0x70, 0x73, 0x40, 0xbd,
  0xac, 0xad, 0xc9, 0x85, 0x86, 0x9d, 0x88, 0x67, 0x57, 0x61, 0xc4, 0x77,
  0x71, 0xbf, 0xa3, 0x75, 0x83, 0xa1, 0xa3, 0x7e, 0x50, 0x6d, 0xc9, 0x7f,
  0x8b, 0x80, 0x7f, 0x8d, 0x70, 0x53, 0x74, 0xce, 0x72, 0xcb, 0xa9, 0x99,
  0xd1, 0xc1, 0xc0, 0x55, 0x7f, 0xa6, 0xa3, 0x55, 0x68, 0xc7, 0x80, 0x85,
  0xd7, 0x56, 0x7f, 0x80, 0xb5, 0x75, 0x69, 0x45, 0x5c, 0x66, 0x6c, 0x84,
  0xa1, 0x77, 0xa4, 0x63, 0x22, 0x4b, 0x62, 0x8b, 0xac, 0xa6, 0x64, 0xc1,
  0xd5, 0x7e, 0x98, 0x7a, 0xaf, 0xab, 0x93, 0x4d, 0x2a, 0xd8, 0x87, 0x3f,
  0xcd, 0xcc, 0x91, 0x4e, 0x6d, 0x50, 0x90, 0x4e, 0x72, 0x7b, 0x6e, 0xc0,
  0xa5, 0x7d, 0x8e, 0xa0, 0xaf, 0x61, 0x65, 0x48, 0x63, 0x6c, 0xab, 0x7c,
  0x64, 0xbb, 0x49, 0x51, 0x99, 0xb2, 0xd2, 0x66, 0xa6, 0x26, 0x6f, 0x62,
  0x2e, 0x73, 0x9d, 0xb0, 0xc7, 0x5e, 0x9b, 0x7a, 0x70, 0x98, 0x6e, 0x02,
  0x43, 0xae, 0x3e, 0xaa, 0xc4, 0x74, 0x7b, 0x59, 0x84, 0x91, 0x47, 0x5b,
  0x45, 0x5e, 0x7f, 0xb4, 0xb9, 0x91, 0x65, 0x3f, 0x77, 0x7c, 0x5a, 0x63,
  0x88, 0x85, 0x6b, 0x80, 0x95, 0x48, 0xa7, 0x5d, 0xc5, 0x29, 0x68, 0x6e,
  0xa1, 0xae, 0xbc, 0x7d, 0xde, 0x67, 0x70, 0x72, 0xbc, 0x2b, 0x87, 0x58,
  0xb5, 0x87, 0x43, 0x6e, 0x7d, 0x62, 0x9a, 0x45, 0x43, 0x9b, 0xb0, 0x66,
  0xc8, 0x60, 0xa8, 0x33, 0xa8, 0x6b, 0x47, 0xa2, 0x8a, 0x62, 0xb8, 0x8d,
  0x71, 0xc1, 0xaf, 0x48, 0xc8, 0x48, 0x84, 0x62, 0x85, 0x3c, 0x5e, 0xb4,
  0x4a, 0x91, 0xa1, 0x79, 0x77, 0x93, 0xa8, 0x77, 0x90, 0x74, 0xd2, 0x55,
  0xa9, 0x68, 0x85, 0xbf, 0x72, 0x65, 0x9a, 0x5e, 0x91, 0x7f, 0x3c, 0x3b,
  0x8d, 0xbe, 0xad, 0x71, 0x70, 0x9d, 0x88, 0xb2, 0xc5, 0xbc, 0xb1, 0x71,
  0x53, 0x2a, 0xb1, 0xb1, 0x76, 0x71, 0x55, 0x70, 0x7a, 0x69, 0x46, 0x81,
  0x88, 0x2e, 0x32, 0x18, 0x5a, 0x61, 0x6a, 0x83, 0x42, 0xc7, 0xd6, 0x50,
  0x35, 0x41, 0x1e, 0xa5, 0x7c, 0x75, 0xca, 0x5e, 0xc0, 0xb3, 0xc3, 0x89,
  0x30, 0x7a, 0x72, 0x42, 0xb3, 0x89, 0x6d, 0x99, 0xa4, 0x5c, 0x70, 0x53,
  0x39, 0x68, 0x9b, 0x44, 0x79, 0x77, 0x9e, 0x77, 0x3b, 0x7c, 0x49, 0xb9,
  0x84, 0x36, 0x27, 0x39, 0xd3, 0x9f, 0x5c, 0x73, 0x8d, 0xa1, 0x68, 0x46,
  0x8c, 0xae, 0x6c, 0x87, 0x9c, 0xb3, 0xb2, 0x6a, 0xb2, 0x87, 0xcc, 0x89,
  0xae, 0x61, 0xa0, 0x96, 0xa5, 0x85, 0x69, 0xcd, 0x44, 0x50, 0x34, 0x6f,
  0xaf, 0x5c, 0x5a, 0x72, 0x66, 0x68, 0x68, 0x61, 0x96, 0x38, 0x70, 0x45,
  0x74, 0x99, 0x94, 0xb1, 0x4a, 0x7e, 0x87, 0x72, 0xb0, 0xc5, 0x87, 0x60,
  0xa5, 0x78, 0xb8, 0x89, 0x36, 0xd5, 0xca, 0x21, 0x28, 0xde, 0x81, 0xb5,
  0x56, 0x61, 0x7d, 0x87, 0x22, 0x58, 0x9a, 0x94, 0x55, 0x70, 0x95, 0xb0,
  0x83, 0x85, 0x40, 0x4a, 0x7d, 0xb0, 0xad, 0x97, 0x7b, 0x73, 0xb3, 0x78,
  0x87, 0xb3, 0x77, 0x3f, 0xb7, 0x7f, 0x75, 0x46, 0x84, 0x7a, 0x7e, 0x18,
  0x7c, 0x86, 0x8d, 0x86, 0x1f, 0x83, 0xb0, 0x6f, 0xb8, 0x76, 0x8f, 0xd5,
  0xc9, 0xa2, 0x8c, 0x4d, 0x74, 0x2a, 0x50, 0x34, 0x7f, 0x9a, 0x77, 0x6b,
  0x7f, 0xa4, 0x88, 0x9a, 0x62, 0xa3, 0xd1, 0x4f, 0xd2, 0x82, 0xa9, 0x57,
  0xc3, 0x8c, 0x2c, 0x7a, 0x2c, 0x85, 0x4c, 0x64, 0xca, 0x1d, 0x3a, 0x27,
  0xa9, 0x6c, 0x5f, 0x4e, 0x75, 0x9b, 0x46, 0xab, 0x43, 0xc4, 0xca, 0x5f,
  0x3b, 0x59, 0x5a, 0x81, 0x71, 0x73, 0x8a, 0x64, 0x73, 0x67, 0xab, 0xc1,
  0xb1, 0x77, 0xa3, 0x7f, 0xaa, 0xaa, 0x9f, 0xac, 0x8c, 0x50, 0x70, 0x95,
  0xaf, 0xd3, 0xb0, 0xc9, 0x53, 0x5d, 0x78, 0x73, 0x8d, 0x80, 0x65, 0x68,
  0x5d, 0xd8, 0x96, 0x53, 0xd0, 0x58, 0x60, 0x72, 0xbe, 0x55, 0x5e, 0x7c,
  0xbc, 0xd2, 0xa7, 0x57, 0xd4, 0xca, 0x3f, 0x79, 0xac, 0x5c, 0x5b, 0xa8,
  0x7b, 0x9e, 0x9a, 0x96, 0x24, 0x99, 0x9f, 0x7c, 0x4d, 0x5b, 0x9c, 0x9e,
  0x48, 0x71, 0xe5, 0x5f, 0x54, 0x2b, 0x76, 0x7b, 0x8f, 0x37, 0xdb, 0x84,
  0x5f, 0x4e, 0x66, 0x72, 0x67, 0x6a, 0x9d, 0x5c, 0x62, 0x88, 0xac, 0x54,
  0x4e, 0x4c, 0xaa, 0x49, 0x66, 0x67, 0x7c, 0x86, 0x7d, 0x68, 0xbe, 0xa2,
  0x5e, 0xb8, 0xb6, 0x54, 0x9a, 0xc4, 0x8d, 0x47, 0xaf, 0x5c, 0x9a, 0x38,
  0xa2, 0x7c, 0x9f, 0x05, 0xa7, 0x84, 0x4b, 0x77, 0x54, 0x73, 0x79, 0x01,
  0xbf, 0x83, 0x3a, 0x9d, 0x95, 0x77, 0x8d, 0x6e, 0xb9, 0x56, 0xb6, 0x75,
  0x42, 0x9e, 0x5b, 0x72, 0x54, 0x7d, 0x98, 0x7a, 0xd8, 0x8e, 0x61, 0x65,
  0x47, 0xb7, 0xaa, 0xb2, 0x25, 0xdf, 0x54, 0x40, 0x5b, 0x86, 0x90, 0x34,
  0x6d, 0xe1, 0x8e, 0x91, 0x4c, 0x4a, 0x75, 0xb4, 0x5c, 0x75, 0x9c, 0x7b,
  0xc1, 0x8b, 0x3d, 0xea, 0x5a, 0x7b, 0xb4, 0xbc, 0x6e, 0x73, 0x60, 0xac,
  0x66, 0x91, 0x9b, 0x75, 0xa3, 0xa7, 0xa4, 0x82, 0x41, 0xae, 0xaa, 0x2f,
  0xa3, 0x8c, 0xa1, 0x5e, 0xd2, 0x8b, 0xca, 0x46, 0x90, 0xb2, 0x30, 0x67,
  0x8e, 0xc8, 0xc7, 0xb3, 0xb4, 0x89, 0x3d, 0x77, 0xd0, 0xbf, 0x57, 0x6c,
  0xaa, 0x42, 0x63, 0x6d, 0x5d, 0xdf, 0x9c, 0x44, 0x35, 0x8e, 0x60, 0x6b,
  0x2b, 0x5b, 0xd6, 0x53, 0x4a, 0x87, 0x51, 0x5c, 0x5e, 0x45, 0x9b, 0x93,
  0x63, 0x88, 0x37, 0x72, 0x3e, 0xd0, 0xe0, 0x4a, 0xaa, 0xa0, 0x85, 0x9e,
  0x83, 0x5d, 0xd8, 0x6d, 0xce, 0xa3, 0x5e, 0x73, 0x70, 0x77, 0xaa, 0x16,
  0x54, 0x7a, 0x82, 0x8e, 0xa3, 0x57, 0xc1, 0x6d, 0x2b, 0x52, 0x86, 0x80,
  0x80, 0x51, 0x6d, 0x5a, 0x6e, 0xb2, 0xae, 0x9d, 0x75, 0xa1, 0x59, 0x78,
  0x74, 0x65, 0x8c, 0xab, 0x6c, 0x50, 0x9f, 0x11, 0x96, 0x1e, 0xb3, 0x3f,
  0x9b, 0x97, 0x64, 0x98, 0xd1, 0x65, 0xdc, 0xa0, 0x8a, 0x7f, 0x5a, 0x92,
  0xa5, 0x92, 0x1d, 0x6d, 0x9b, 0xa2, 0x90, 0x90, 0xa4, 0x8e, 0xa5, 0xa0,
  0xb2, 0x94, 0x6e, 0x5b, 0x87, 0x87, 0x89, 0x9e, 0x78, 0x66, 0x49, 0x2d,
  0x82, 0x64, 0x63, 0xb2, 0x9c, 0x57, 0xb8, 0x78, 0x8c, 0x5a, 0x88, 0xe3,
  0xdc, 0x95, 0x97, 0xc0, 0x5a, 0x79, 0xb5, 0x6f, 0x5e, 0x52, 0x9f, 0xb3,
  0xb5, 0x86, 0x7a, 0x91, 0x42, 0x8b, 0x40, 0x9d, 0x6c, 0x49, 0x7c, 0xe2,
  0x3d, 0x89, 0x7e, 0x4d, 0x9e, 0x77, 0x50, 0xa3, 0xa0, 0x3b, 0x6e, 0x69,
  0xae, 0x70, 0x32, 0x7a, 0x68, 0xa3, 0x3e, 0x66, 0x58, 0xcf, 0xcd, 0x5f,
  0xb8, 0x98, 0xa8, 0x7d, 0x8c, 0x97, 0x39, 0x6d, 0x5d, 0x51, 0x80, 0xa7,
  0xb3, 0x9c, 0x41, 0x60, 0x79, 0xaa, 0xab, 0x5f, 0x8e, 0x7b, 0x90, 0x7c,
  0x88, 0xa8, 0x74, 0x0e, 0x54, 0xcd, 0x80, 0xb9, 0x48, 0x57, 0x2f, 0x3c,
  0x8f, 0xc2, 0xd0, 0x9a, 0x47, 0x77, 0x35, 0x6a, 0x8a, 0x93, 0xa0, 0x8d,
  0x8e, 0x98, 0x7d, 0x51, 0x48, 0xa5, 0x44, 0x98, 0x91, 0x90, 0x48, 0x80,
  0xbd, 0x80, 0x46, 0x7d, 0x8f, 0x85, 0x64, 0x8b, 0xa0, 0x93, 0xbd, 0x5a,
  0x89, 0x6f, 0x9b, 0x9c, 0x8d, 0xa4, 0x44, 0x48, 0xa6, 0x2a, 0xc4, 0x59,
  0xb2, 0x7c, 0x71, 0xa1, 0x37, 0x22, 0xc4, 0x6f, 0xc4, 0xd2, 0x28, 0x80,
  0x68, 0x5d, 0xa7, 0x6a, 0xd5, 0x8f, 0x7d, 0x34, 0x8f, 0x98, 0x9e, 0x4d,
  0x53, 0xc2, 0xbf, 0x4b, 0x45, 0x4c, 0x56, 0x3f, 0x63, 0x42, 0x17, 0x5c,
  0x6d, 0x63, 0xd1, 0x9d, 0xca, 0x87, 0x7d, 0x4d, 0x46, 0x36, 0x9a, 0x8a,
  0x43, 0x70, 0x99, 0x57, 0xdd, 0x81, 0x48, 0x9c, 0x93, 0x9c, 0xad, 0x64,
  0x57, 0x57, 0xcd, 0x8a, 0x9c, 0xbd, 0x57, 0x6a, 0x8a, 0x60, 0x8c, 0xbf,
  0x38, 0x66, 0x33, 0xa7, 0x72, 0x94, 0xda, 0x91, 0xc8, 0x65, 0x80, 0x60,
  0x5a, 0xbe, 0xd2, 0x33, 0xa2, 0x9a, 0x5a, 0x68, 0x4b, 0x6c, 0x8b, 0x3a,
  0x6f, 0xa7, 0x66, 0x4c, 0x91, 0x5b, 0x8d, 0x5a, 0xec, 0xa8, 0x7b, 0x79,
  0xb2, 0x57, 0x60, 0x46, 0xa4, 0x94, 0x41, 0x9a, 0x75, 0x6f, 0xb7, 0x36,
  0x8b, 0x54, 0x8d, 0x6f, 0x94, 0x5e, 0xcc, 0xc4, 0x65, 0xae, 0x69, 0x52,
  0x74, 0x7e, 0x41, 0x5f, 0xb6, 0x82, 0x83, 0x53, 0x27, 0x56, 0x5d, 0xb3,
  0xa4, 0x92, 0x9f, 0xb9, 0xb2, 0x6a, 0x47, 0x72, 0x77, 0x9f, 0xa5, 0xcd,
  0x70, 0x76, 0x5d, 0x86, 0x4c, 0x43, 0x8e, 0xbb, 0xcf, 0x46, 0xa3, 0xa5,
  0x99, 0xaa, 0xce, 0x9d, 0x50, 0x71, 0x8e, 0x4f, 0x38, 0xbd, 0x6a, 0x95,
  0xb0, 0x60, 0x53, 0x8c, 0x3e, 0x81, 0x3e, 0xb4, 0x74, 0x57, 0x8e, 0x8b,
  0x9a, 0x1f, 0x72, 0xa0, 0x56, 0x69, 0x9c, 0x41, 0x7d, 0xdf, 0x95, 0x7a,
  0x5f, 0xae, 0x74, 0x5b, 0x72, 0x25, 0x8f, 0x92, 0x8b, 0xb6, 0xa5, 0xa7,
  0x8b, 0x88, 0x7b, 0x9a, 0x86, 0x89, 0x82, 0xa8, 0x87, 0x6a, 0x85, 0x90,
  0x52, 0x6e, 0x79, 0x88, 0x5b, 0x6f, 0xcc, 0x7c, 0x4a, 0x6e, 0x8b, 0x8c,
  0xa8, 0x90, 0x5e, 0xbe, 0x39, 0x8d, 0xce, 0x8a, 0x7f, 0x7c, 0x95, 0x91,
  0x91, 0x89, 0x8f, 0x5f, 0x59, 0x23, 0xa5, 0x7e, 0xa4, 0xcf, 0x57, 0x4d,
  0x61, 0x63, 0xc9, 0xb3, 0x97, 0x3f, 0x97, 0x65, 0xaf, 0xa2, 0x8b, 0xac,
  0x26, 0x96, 0x71, 0x53, 0x9a, 0x80, 0xbc, 0xce, 0x5d, 0x75, 0x4b, 0x6a,
  0x5c, 0x47, 0x76, 0x9f, 0x35, 0xa8, 0xa7, 0x6a, 0xdc, 0x87, 0x5b, 0xbc,
  0x84, 0xd9, 0xb6, 0x4c, 0xcb, 0x5c, 0xb6, 0xc8, 0xb2, 0x83, 0xd3, 0x6b,
  0x6f, 0x81, 0xd6, 0xfa, 0x52, 0x66, 0x71, 0xc7, 0xb7, 0xa0, 0xae, 0xa9,
  0x74, 0x99, 0xae, 0xac, 0x84, 0x85, 0x81, 0xba, 0x97, 0x5b, 0x94, 0x84,
  0x86, 0xd4, 0x63, 0xba, 0xb2, 0x67, 0x54, 0x80, 0x5b, 0x26, 0x91, 0x6c,
  0x58, 0xaf, 0x6d, 0x88, 0x70, 0x5a, 0x8b, 0x78, 0x89, 0x95, 0xba, 0x7a,
  0xb3, 0x88, 0x87, 0xa7, 0x90, 0xbf, 0x8c, 0xa9, 0xa4, 0x21, 0xb1, 0x95,
  0x9d, 0x43, 0x83, 0x82, 0x9d, 0x9b, 0x65, 0xcc, 0xad, 0x7b, 0x53, 0x84,
  0xbe, 0x8b, 0xbf, 0x8e, 0x59, 0xab, 0x77, 0x70, 0x98, 0xae, 0xcb, 0x89,
  0x98, 0x23, 0x3d, 0x60, 0x93, 0x1e, 0x6b, 0x54, 0x8f, 0x9e, 0xb6, 0x63,
  0x85, 0xac, 0xd0, 0x9a, 0x9e, 0x79, 0xb4, 0x90, 0xd3, 0x65, 0x56, 0x5c,
  0x83, 0x3b, 0x51, 0xb3, 0xaa, 0xe0, 0x43, 0x53, 0x8b, 0x3f, 0x76, 0x6d,
  0xb7, 0x5e, 0xd4, 0xc1, 0x75, 0x8b, 0x78, 0x77, 0x8d, 0x50, 0x98, 0x8a,
  0xa3, 0x7f, 0xca, 0x9f, 0xb6, 0x91, 0xb0, 0x5f, 0xa0, 0x67, 0x8b, 0x31,
  0xb9, 0x80, 0x47, 0x4e, 0x70, 0x70, 0x5c, 0xa4, 0xb0, 0x6f, 0x7b, 0xa5,
  0x8a, 0x7c, 0xc6, 0x92, 0xa5, 0x50, 0xe0, 0xc9, 0x38, 0x77, 0x62, 0x86,
  0xc8, 0x64, 0x38, 0xa3, 0x71, 0x93, 0x60, 0xa7, 0x5c, 0x7a, 0x6f, 0x9d,
  0x21, 0xb6, 0xad, 0x6b, 0x6c, 0x6c, 0x78, 0x9d, 0x62, 0x4d, 0x8d, 0x70,
  0x71, 0xab, 0x48, 0x74, 0x59, 0x58, 0x7b, 0x6c, 0x48, 0x4a, 0x47, 0xa9,
  0x94, 0x73, 0x7c, 0x66, 0x2f, 0xb1, 0xdf, 0x6e, 0x7e, 0xc2, 0xa4, 0x68,
  0xa4, 0x8b, 0xc6, 0x94, 0xd9, 0x6e, 0xa8, 0x79, 0x41, 0x61, 0x97, 0xbc,
  0x96, 0x86, 0xcf, 0x68, 0x84, 0x55, 0x4d, 0x72, 0x8c, 0xa6, 0xa6, 0x83,
  0x89, 0x98, 0x8f, 0x9d, 0x8a, 0x4a, 0x93, 0x7f, 0xb7, 0x7e, 0x9e, 0x6c,
  0x78, 0xc4, 0xc6, 0x88, 0x65, 0x64, 0x8e, 0x8a, 0x67, 0x70, 0xbc, 0x4c,
  0x7e, 0x8b, 0xb7, 0x71, 0x53, 0x90, 0xc1, 0x5b, 0x78, 0x58, 0x44, 0x97,
  0x85, 0x2e, 0xde, 0x6e, 0xca, 0x83, 0x7f, 0xb3, 0xaf, 0x58, 0x72, 0x92,
  0x7b, 0x80, 0x5b, 0x69, 0x97, 0x9d, 0xb2, 0x5c, 0x51, 0xac, 0xad, 0x81,
  0xa6, 0xc0, 0x68, 0x3f, 0xaf, 0xa3, 0x2b, 0x7c, 0x94, 0x94, 0x66, 0x9a,
  0x80, 0x55, 0x57, 0x9d, 0x6f, 0x7c, 0x6d, 0xcc, 0x97, 0x5b, 0x7f, 0x82,
  0x3f, 0x4c, 0xab, 0xca, 0x89, 0x7f, 0xad, 0x9e, 0x68, 0x6a, 0x59, 0x85,
  0x62, 0x66, 0x85, 0xa8, 0x34, 0x6c, 0xcd, 0x9a, 0x66, 0xaa, 0x89, 0x9a,
  0x86, 0x9a, 0x87, 0x82, 0x99, 0x4f, 0xcd, 0x8d, 0xaa, 0x87, 0x8c, 0xa1,
  0x8a, 0x81, 0x99, 0x7f, 0x9f, 0x85, 0xb6, 0x71, 0x60, 0xd3, 0x86, 0x44,
  0x7d, 0x3c, 0x6d, 0xb7, 0x5a, 0xab, 0x4a, 0x7c, 0x71, 0x98, 0x95, 0x87,
  0x60, 0x7e, 0xac, 0x9e, 0xb5, 0x79, 0xe5, 0x87, 0x7a, 0xb5, 0x5e, 0x72,
  0x9f, 0x2e, 0x8f, 0x7f, 0x9e, 0x73, 0x74, 0x5d, 0x41, 0x86, 0x83, 0x70,
  0x8f, 0x7b, 0x83, 0xa3, 0x7d, 0x64, 0x6f, 0x5f, 0x5f, 0x8a, 0x6f, 0x62,
  0xb9, 0x94, 0x9d, 0x63, 0x81, 0xa3, 0xa9, 0x9d, 0x77, 0x54, 0x75, 0xa8,
  0x66, 0x9d, 0x55, 0x84, 0x7f, 0x2e, 0x95, 0x6b, 0x8e, 0x84, 0x80, 0x52,
  0xce, 0x5a, 0xa7, 0x3a, 0x71, 0x91, 0x48, 0x6b, 0x65, 0x96, 0x78, 0x6c,
  0x49, 0x86, 0x58, 0x82, 0x89, 0x2b, 0xbf, 0x2a, 0x8d, 0x8f, 0x5c, 0x73,
  0xb2, 0x53, 0xab, 0xd8, 0xa8, 0x9e, 0x86, 0x91, 0x74, 0x2e, 0x82, 0xe7,
  0x7a, 0x75, 0x70, 0xd8, 0x98, 0xc0, 0x60, 0x98, 0xa0, 0x73, 0x47, 0xae,
  0xad, 0x8e, 0x8f, 0x83, 0xb4, 0x67, 0x9e, 0x64, 0x25, 0x6d, 0x71, 0x9a,
  0x87, 0xb4, 0x6d, 0xba, 0x97, 0xc4, 0x80, 0xb5, 0xa8, 0x45, 0x58, 0x80,
  0x7d, 0x87, 0xed, 0xb2, 0x34, 0x72, 0x97, 0x5f, 0x98, 0x69, 0x4f, 0x97,
  0x5f, 0xa3, 0x72, 0xbe, 0xb7, 0xd8, 0x54, 0x34, 0x7a, 0xc1, 0xc1, 0x7f,
  0x79, 0x4f, 0xb5, 0xa7, 0x59, 0xba, 0x59, 0x71, 0x46, 0x5b, 0x75, 0x5b,
  0x71, 0xb7, 0xc0, 0x8f, 0x66, 0x81, 0xb4, 0x75, 0x8a, 0x68, 0xcc, 0x63,
  0xcc, 0x8c, 0x93, 0x97, 0x6e, 0x88, 0x9a, 0xae, 0x37, 0x73, 0x9f, 0x67,
  0x71, 0x77, 0xb3, 0x4a, 0xd5, 0x80, 0x9a, 0x4b, 0xc0, 0x9b, 0x94, 0x8a,
  0xb8, 0x8e, 0xb9, 0x7f, 0x35, 0x73, 0x93, 0x6a, 0x51, 0x6a, 0x3f, 0x4a,
  0x89, 0x98, 0xb9, 0xa4, 0xb9, 0x53, 0x93, 0x92, 0x76, 0x89, 0x82, 0x66,
  0x82, 0x40, 0xe4, 0x93, 0x6d, 0xb2, 0x74, 0x8d, 0x98, 0x68, 0xdb, 0x59,
  0xbc, 0x65, 0x1c, 0x46, 0xc5, 0x45, 0x9c, 0x8c, 0x6d, 0x59, 0x60, 0xff,
  0x64, 0x56, 0x75, 0xd7, 0x16, 0xb5, 0x95, 0xb6, 0x86, 0xba, 0xca, 0xf7,
  0x2b, 0xb6, 0xab, 0xa2, 0x6e, 0xb9, 0xa2, 0xde, 0x61, 0x77, 0x6e, 0x81,
  0xbf, 0x79, 0xb3, 0xb3, 0x82, 0xb3, 0x84, 0x5d, 0x7f, 0xb9, 0x7c, 0xab,
  0x12, 0x6f, 0x3f, 0x86, 0x5c, 0xa5, 0x86, 0x96, 0x6f, 0x3b, 0xb1, 0x7c,
  0x78, 0x7f, 0x83, 0xad, 0xc1, 0x7f, 0x92, 0x70, 0x48, 0x97, 0x96, 0x5b,
  0x24, 0x7e, 0x8d, 0x68, 0xa0, 0x6e, 0x91, 0x29, 0x9c, 0xbb, 0xb9, 0x8c,
  0x7e, 0x71, 0x43, 0x9b, 0x5d, 0x71, 0x68, 0x48, 0x38, 0x21, 0x9e, 0xb0,
  0x94, 0x68, 0x59, 0x78, 0x90, 0x6d, 0x8c, 0x41, 0x7d, 0x6a, 0x7a, 0xce,
  0xbd, 0x90, 0xb5, 0x56, 0x35, 0x2a, 0x53, 0x88, 0x5e, 0xaa, 0x85, 0x93,
  0x62, 0x93, 0x67, 0x60, 0xaf, 0x8f, 0x78, 0x63, 0xc7, 0x28, 0xc6, 0x5c,
  0x8f, 0x8f, 0xac, 0x8b, 0x55, 0x5d, 0xad, 0x80, 0x8e, 0x4b, 0xd0, 0x6b,
  0xc5, 0x72, 0x27, 0xcd, 0xb3, 0xa7, 0x91, 0x82, 0x79, 0x8d, 0x80, 0x84,
  0x75, 0x91, 0x63, 0x6d, 0x67, 0xbf, 0x84, 0x51, 0x5f, 0x64, 0x71, 0x62,
  0xa8, 0x4d, 0x41, 0xc2, 0x84, 0x98, 0x63, 0x50, 0x6d, 0x6b, 0xbe, 0x4d,
  0x51, 0x90, 0x7f, 0x73, 0x6d, 0x84, 0x77, 0x6e, 0x4e, 0x84, 0xd1, 0x8c,
  0x72, 0xb3, 0xd9, 0x8d, 0xa0, 0x36, 0x74, 0x90, 0x1d, 0x90, 0x84, 0xd3,
  0x86, 0x8d, 0xae, 0xb6, 0x65, 0x8c, 0x8d, 0x8c, 0x50, 0x76, 0x50, 0x95,
  0x35, 0x59, 0xcc, 0xbf, 0x30, 0xcf, 0x7f, 0x61, 0x33, 0x70, 0x68, 0xb1,
  0xb2, 0xba, 0xc3, 0x76, 0x4d, 0xba, 0x47, 0x69, 0xb1, 0x65, 0xa2, 0x66,
  0x16, 0x83, 0x21, 0x6b, 0x7a, 0x3c, 0x8c, 0x76, 0x90, 0x9b, 0x3f, 0x8a,
  0x55, 0x24, 0x4c, 0xa4, 0x9e, 0x80, 0x27, 0x75, 0x93, 0x69, 0x8c, 0x7f,
  0x73, 0x46, 0x95, 0x56, 0x93, 0x6f, 0x65, 0x6f, 0x81, 0x41, 0x7b, 0x30,
  0x6f, 0xb9, 0x52, 0x9f, 0xac, 0x90, 0x6c, 0x83, 0xba, 0x94, 0x8c, 0xa5,
  0xa9, 0x68, 0x6a, 0xba, 0xca, 0x7b, 0x6f, 0x50, 0x64, 0x5a, 0x87, 0x8e,
  0xd1, 0x7c, 0x87, 0x4c, 0x5e, 0x9a, 0xb5, 0x76, 0x98, 0x63, 0xe0, 0x43,
  0x9a, 0xa7, 0x99, 0x5a, 0xaa, 0x49, 0x9e, 0x96, 0x8e, 0xcf, 0xbb, 0xad,
  0x70, 0x92, 0x46, 0xd1, 0x9a, 0xd5, 0x45, 0x9d, 0x81, 0x8a, 0x5e, 0x97,
  0x43, 0x80, 0x3e, 0x49, 0x92, 0x80, 0x51, 0xaf, 0x9e, 0x58, 0x77, 0x74,
  0x46, 0x36, 0x95, 0x80, 0x7c, 0x54, 0xa8, 0x58, 0x1e, 0xbe, 0x61, 0xe6,
  0x72, 0x8c, 0xaa, 0x90, 0xb5, 0xd9, 0x99, 0xaa, 0xb0, 0xac, 0xd3, 0x55,
  0x9a, 0x97, 0x9e, 0x90, 0x85, 0xb8, 0x46, 0x76, 0x79, 0xae, 0x84, 0x4c,
  0x86, 0x5b, 0x64, 0x61, 0x8e, 0x4a, 0x66, 0x97, 0x5f, 0xc4, 0x8c, 0x46,
  0xa5, 0xa2, 0xa8, 0x70, 0x72, 0x85, 0x77, 0x9e, 0xaf, 0x2c, 0x8d, 0x86,
  0x9e, 0x70, 0xa4, 0x89, 0x70, 0x50, 0x87, 0xb1, 0x58, 0x69, 0x59, 0x77,
  0x84, 0x68, 0x71, 0x88, 0x5c, 0x67, 0xa8, 0x76, 0xbc, 0xbc, 0x75, 0x7a,
  0x97, 0xa5, 0xb6, 0x8e, 0x76, 0x4f, 0x5c, 0x30, 0x88, 0x62, 0x71, 0xb9,
  0xc2, 0x44, 0x5d, 0xc9, 0x93, 0xa9, 0xb3, 0x5e, 0x55, 0x67, 0x81, 0x64,
  0x8c, 0x6a, 0x7e, 0x82, 0x7e, 0x8a, 0x5f, 0x59, 0x8a, 0x56, 0x91, 0x78,
  0x61, 0x2f, 0x8a, 0x78, 0x75, 0x50, 0x55, 0x82, 0x8a, 0x8b, 0x8d, 0x88,
  0x62, 0x80, 0x8c, 0x6e, 0x8a, 0x96, 0xa9, 0x86, 0x38, 0xa7, 0x73, 0xb1,
  0x7d, 0xa7, 0x84, 0xcc, 0x25, 0x9d, 0x7a, 0xd8, 0x8d, 0x5c, 0x7c, 0xa9,
  0xc2, 0x90, 0x38, 0xad, 0xb0, 0x83, 0x8e, 0x9b, 0x9c, 0x6a, 0x77, 0x8c,
  0x62, 0x5a, 0x85, 0x83, 0x9c, 0xca, 0x54, 0xb6, 0x51, 0x6b, 0x81, 0x71,
  0xaf, 0x85, 0xb2, 0x4c, 0x91, 0x81, 0x7c, 0xaa, 0x20, 0x36, 0x8e, 0x67,
  0xbc, 0x5a, 0x62, 0x94, 0x3c, 0x4a, 0x36, 0x56, 0xa6, 0x78, 0xab, 0xa1,
  0x7c, 0x3a, 0x67, 0x8e, 0x90, 0x64, 0x8b, 0x41, 0x5e, 0x64, 0x75, 0x71,
  0x98, 0xa3, 0x9b, 0x4a, 0x49, 0x85, 0x2b, 0x83, 0x58, 0x82, 0xb9, 0xbc,
  0x73, 0x56, 0xcd, 0xac, 0x72, 0x59, 0x3e, 0x71, 0x23, 0x24, 0x6a, 0x86,
  0x93, 0x7e, 0x7d, 0x94, 0x4b, 0x49, 0x48, 0xb6, 0x61, 0x4d, 0x84, 0xa1,
  0xcb, 0x91, 0x90, 0x5f, 0x72, 0x8f, 0x63, 0x80, 0xcc, 0xd2, 0x2b, 0xa0,
  0xcc, 0xb9, 0xa1, 0x49, 0x9c, 0x95, 0x72, 0x44, 0x90, 0x58, 0x8f, 0x64,
  0x65, 0x7c, 0x77, 0x5e, 0x82, 0x85, 0x6f, 0x67, 0x38, 0x74, 0x81, 0x86,
  0x82, 0x6c, 0x73, 0x9c, 0x81, 0xbc, 0x66, 0x8c, 0x65, 0x4c, 0x6d, 0xa8,
  0xb2, 0xa0, 0x91, 0xa6, 0x69, 0xbb, 0xb4, 0x96, 0x6b, 0x56, 0x8b, 0xd4,
  0x36, 0x30, 0xa2, 0x93, 0x4a, 0x27, 0xb7, 0x62, 0xb1, 0xa2, 0xd0, 0x72,
  0x74, 0x93, 0xb9, 0x47, 0x3b, 0x78, 0x6f, 0x8c, 0xc0, 0xd5, 0xa4, 0x85,
  0x78, 0x54, 0x34, 0x99, 0x78, 0x6a, 0xca, 0x7e, 0xa5, 0x53, 0x9b, 0xca,
  0x29, 0x5c, 0x50, 0x9b, 0xa8, 0x99, 0x7e, 0x82, 0xb4, 0xde, 0x73, 0x91,
  0x72, 0xb6, 0xa9, 0x7b, 0xaf, 0xa1, 0x8c, 0x58, 0x94, 0xab, 0x9c, 0x97,
  0x80, 0x9c, 0x69, 0x7e, 0x88, 0x97, 0x97, 0xb9, 0x8e, 0xc8, 0x70, 0x72,
  0xa5, 0x6c, 0x98, 0xc5, 0x48, 0x63, 0x67, 0x89, 0x87, 0x39, 0x5f, 0x2c,
  0x95, 0x96, 0x8a, 0x3e, 0x45, 0xa4, 0xa3, 0x70, 0xa8, 0x68, 0x39, 0x59,
  0x5c, 0x8d, 0x50, 0xa0, 0xad, 0xd4, 0x3c, 0x82, 0x7e, 0x69, 0xbb, 0xe4,
  0x7b, 0x6e, 0xa5, 0x8c, 0xab, 0x49, 0x86, 0x73, 0x3d, 0x4d, 0x80, 0x93,
  0x7e, 0xaf, 0x52, 0x7a, 0xc3, 0x90, 0x60, 0x66, 0x79, 0xcf, 0x74, 0xc2,
  0xaf, 0xaa, 0x3e, 0x73, 0x7b, 0xa9, 0xa0, 0x94, 0x85, 0x87, 0x35, 0xa0,
  0x83, 0xa3, 0x7d, 0x60, 0x5a, 0xc6, 0xd6, 0x72, 0x84, 0x98, 0x77, 0x9a,
  0x55, 0xb0, 0x5e, 0xc4, 0x76, 0x6e, 0x5a, 0xa1, 0x99, 0x97, 0x81, 0x76,
  0x40, 0x56, 0x93, 0xbc, 0x99, 0x33, 0x77, 0x7d, 0x75, 0x61, 0x6f, 0xa8,
  0x99, 0xa0, 0xc3, 0xa5, 0xa2, 0x8f, 0x75, 0x66, 0x6b, 0x86, 0x6c, 0x40,
  0x99, 0x48, 0x8c, 0x97, 0x8b, 0xae, 0x6a, 0x6c, 0x2b, 0x86, 0x4f, 0x6d,
  0xb4, 0x84, 0x54, 0x8e, 0x79, 0x54, 0x89, 0x84, 0x86, 0x92, 0x40, 0x65,
  0xa1, 0xac, 0x7f, 0xcc, 0x94, 0xae, 0xd9, 0xcb, 0x95, 0x99, 0x6c, 0x6d,
  0x9c, 0x70, 0x68, 0xa6, 0x6b, 0x82, 0x9c, 0x89, 0x82, 0x9a, 0x8d, 0xa5,
  0x85, 0x72, 0x80, 0xdf, 0x6c, 0x4f, 0x2f, 0xb0, 0x79, 0x9f, 0x32, 0x6f,
  0x35, 0x82, 0x48, 0xa7, 0x92, 0xa0, 0x59, 0x97, 0x74, 0x68, 0xb9, 0x1b,
  0x54, 0x6a, 0x9c, 0x5d, 0xbd, 0x8c, 0xa9, 0x44, 0x4a, 0x27, 0xaa, 0xf1,
  0x84, 0x6e, 0x51, 0x66, 0x5f, 0xab, 0x9f, 0xd3, 0xab, 0x80, 0xc6, 0x49,
  0x81, 0xc0, 0x67, 0xb6, 0x7c, 0xa2, 0x5f, 0x8a, 0x74, 0xa9, 0x49, 0x81,
  0x65, 0x6b, 0x3f, 0x7e, 0xad, 0xc2, 0xb7, 0xb8, 0x95, 0x36, 0x78, 0xa2,
  0x79, 0x70, 0xac, 0xce, 0x9c, 0x78, 0x78, 0x4c, 0xae, 0xc6, 0x95, 0x75,
  0x56, 0x8a, 0xa0, 0x4b, 0x4c, 0x6f, 0xcd, 0x59, 0x78, 0x62, 0xae, 0x4e,
  0x75, 0xaa, 0x7a, 0x77, 0x47, 0x94, 0x87, 0x84, 0x45, 0xbe, 0x78, 0x81,
  0xad, 0x76, 0x69, 0x4c, 0x82, 0x9e, 0x9d, 0x93, 0xb4, 0x79, 0x52, 0xc3,
  0x7a, 0xc4, 0x91, 0xb9, 0x6c, 0x98, 0xad, 0x89, 0x60, 0x70, 0x68, 0x51,
  0x64, 0xc9, 0x5d, 0xa2, 0x83, 0x61, 0x7d, 0xe3, 0x34, 0x9a, 0x5b, 0x67,
  0x5d, 0x7d, 0x90, 0xc3, 0x5b, 0x8b, 0x72, 0x63, 0x42, 0x3e, 0xb2, 0xc7,
  0x91, 0x58, 0x79, 0x5a, 0xa4, 0x82, 0x83, 0xa3, 0x41, 0xc4, 0x5d, 0x54,
  0x73, 0x67, 0x83, 0x3e, 0x61, 0x38, 0x4d, 0x64, 0xbf, 0x89, 0x7d, 0x96,
  0x97, 0x91, 0xa2, 0xac, 0x80, 0x9c, 0x31, 0x75, 0x86, 0xdc, 0x63, 0x74,
  0x74, 0x5b, 0x75, 0xc3, 0xbc, 0x85, 0xa1, 0x70, 0x67, 0x5d, 0x69, 0xb4,
  0x72, 0x83, 0x4e, 0x47, 0x76, 0xc3, 0x74, 0x78, 0x72, 0xcc, 0x58, 0xad,
  0x66, 0xad, 0x50, 0x39, 0xc2, 0x9c, 0xae, 0x5d, 0xc5, 0x6e, 0x7a, 0x98,
  0x77, 0x63, 0xb1, 0xcf, 0xbf, 0x79, 0x87, 0xb8, 0x8a, 0x6b, 0x82, 0x5f,
  0x8f, 0x22, 0x5c, 0x9c, 0x65, 0x56, 0x8c, 0x36, 0xb6, 0x56, 0xa7, 0x50,
  0x33, 0x91, 0x31, 0x46, 0x6b, 0xa1, 0x9b, 0x93, 0x9c, 0xa5, 0x94, 0x72,
  0x9d, 0x5e, 0x66, 0xa4, 0xb4, 0x86, 0xbc, 0xa0, 0x52, 0xab, 0x71, 0xcb,
  0x7f, 0x8c, 0x8e, 0x71, 0x95, 0x8c, 0x81, 0x7f, 0x7d, 0x88, 0x50, 0xa5,
  0x7c, 0xb4, 0x44, 0xbd, 0x8c, 0x4a, 0xca, 0x8c, 0x40, 0x96, 0x59, 0xc0,
  0xa5, 0x9b, 0x56, 0xbe, 0x1e, 0xb2, 0x8c, 0xae, 0x68, 0xaa, 0xb8, 0x81,
  0xc7, 0x3b, 0x7d, 0xa0, 0xc8, 0x93, 0xa8, 0xa5, 0x89, 0x9a, 0x8a, 0x76,
  0x95, 0xaa, 0x33, 0x46, 0x59, 0x7e, 0x97, 0x80, 0x67, 0x45, 0x5b, 0x9b,
  0x6c, 0x5e, 0x78, 0xb5, 0x68, 0xad, 0x7e, 0x8c, 0x40, 0x6e, 0x47, 0xcc,
  0xab, 0x70, 0x8e, 0x6b, 0x9c, 0x69, 0x63, 0x70, 0xb6, 0x7d, 0xba, 0x97,
  0x8d, 0xd1, 0x69, 0x80, 0xa3, 0x71, 0x6b, 0x44, 0x2b, 0x7f, 0x76, 0xa4,
  0x5a, 0x59, 0x4b, 0x5e, 0x9d, 0xae, 0x50, 0x7a, 0xaa, 0xa4, 0xd2, 0x99,
  0x46, 0x33, 0x6e, 0xcb, 0x61, 0xc4, 0xc2, 0xab, 0xac, 0xa5, 0x81, 0x95,
  0x84, 0x81, 0x3e, 0xa4, 0x43, 0x66, 0x90, 0x93, 0x5d, 0x6d, 0x55, 0x98,
  0xbb, 0x7d, 0xaa, 0x84, 0xc7, 0x88, 0x5a, 0x5d, 0x74, 0x7d, 0x98, 0x8f,
  0xc5, 0x82, 0x97, 0x39, 0x90, 0x92, 0x94, 0x9d, 0xaa, 0x73, 0x60, 0xd2,
  0x68, 0x8c, 0x8c, 0x78, 0x33, 0xb1, 0x48, 0xbe, 0x4a, 0x78, 0xa3, 0x82,
  0x99, 0x61, 0x96, 0x5a, 0x66, 0xa1, 0xc7, 0x87, 0x91, 0x91, 0x5c, 0x58,
  0x68, 0x6f, 0x9f, 0x62, 0xb2, 0x5f, 0x95, 0x85, 0x1d, 0x8f, 0x73, 0xb0,
  0x44, 0x96, 0x81, 0x63, 0x7a, 0xa4, 0xc1, 0x96, 0x7e, 0x83, 0xd1, 0xa4,
  0x77, 0x24, 0x99, 0xa7, 0x61, 0x95, 0x7e, 0x4b, 0x32, 0x8c, 0x5b, 0x64,
  0xb4, 0xa8, 0xd8, 0xcf, 0xbf, 0x3b, 0x75, 0x6e, 0xa0, 0x75, 0x83, 0x86,
  0x24, 0x3b, 0x60, 0xe3, 0x94, 0x83, 0x5a, 0xc6, 0xae, 0x80, 0x63, 0xe2,
  0x93, 0xd5, 0x71, 0x45, 0x78, 0x97, 0x43, 0xb5, 0x7e, 0x6a, 0x96, 0x70,
  0x6b, 0x9d, 0x72, 0x69, 0x82, 0xa0, 0x7b, 0x72, 0x6c, 0x67, 0xa0, 0x3f,
  0x79, 0x5b, 0xce, 0xce, 0x71, 0xad, 0xa2, 0x90, 0x51, 0x5d, 0x59, 0x99,
  0xb2, 0x31, 0x7c, 0x8f, 0x64, 0x44, 0x91, 0x90, 0x33, 0x8a, 0x8e, 0x9b,
  0x25, 0x45, 0x64, 0xba, 0x8d, 0x8e, 0x6f, 0x5e, 0x82, 0x87, 0x41, 0x6d,
  0x9c, 0x5d, 0x56, 0x88, 0x63, 0x61, 0x8f, 0x78, 0xd2, 0x70, 0x83, 0x63,
  0x91, 0x9a, 0x5a, 0xad, 0x83, 0xa3, 0x9b, 0x85, 0x7d, 0xb0, 0x53, 0xc2,
  0xa4, 0xbe, 0x89, 0x6d, 0xce, 0xbf, 0xa8, 0x76, 0xca, 0x32, 0x67, 0xac,
  0x99, 0xbc, 0xd9, 0x78, 0x85, 0x76, 0x59, 0xbf, 0x3f, 0xb8, 0xb2, 0x3b,
  0x98, 0x87, 0xc6, 0x52, 0x97, 0x6f, 0xac, 0xa0, 0x58, 0x96, 0x8b, 0x74,
  0x64, 0x84, 0x89, 0x94, 0x52, 0x35, 0x7a, 0xbd, 0x42, 0x86, 0x4d, 0xbd,
  0xb7, 0x8b, 0x37, 0xa4, 0x5e, 0x7c, 0xa8, 0x77, 0x3a, 0x77, 0x44, 0x87,
  0x42, 0x98, 0x35, 0x4c, 0x79, 0x77, 0x5e, 0xe7, 0x9d, 0xab, 0xab, 0x84,
  0xa7, 0xb8, 0x8c, 0xdc, 0xbf, 0xb1, 0x6e, 0x75, 0x25, 0xb1, 0x95, 0xc9,
  0x41, 0x63, 0xb4, 0x72, 0x43, 0xca, 0x6b, 0x82, 0x73, 0x5e, 0x9e, 0x55,
  0x78, 0xb1, 0x40, 0xd3, 0x9c, 0x4c, 0x72, 0x62, 0x98, 0xa3, 0x6c, 0x9b,
  0x52, 0x82, 0xa0, 0xcd, 0xb5, 0x90, 0x78, 0x76, 0x4b, 0xd9, 0xbb, 0xeb,
  0x86, 0x45, 0x7a, 0x60, 0x80, 0x4c, 0xbd, 0x8e, 0x2f, 0x7a, 0x6c, 0x9f,
  0x75, 0x54, 0xbd, 0x8b, 0x52, 0x64, 0x77, 0xba, 0x55, 0x4b, 0x7f, 0xa1,
  0x35, 0x64, 0x4e, 0x79, 0x7a, 0xc9, 0x3a, 0x44, 0xa0, 0x52, 0x7c, 0x9f,
  0x50, 0x76, 0x69, 0x99, 0x3c, 0x78, 0x85, 0x92, 0x25, 0x51, 0x77, 0xa7,
  0x6f, 0xac, 0x6e, 0x38, 0x95, 0x39, 0x8d, 0x7d, 0xb6, 0x2f, 0xa0, 0x74,
  0x6b, 0x95, 0x66, 0x9b, 0x7e, 0x49, 0x33, 0x98, 0x52, 0x8c, 0x8f, 0x2d,
  0x4b, 0x99, 0x5c, 0x9d, 0x7a, 0x4e, 0x93, 0x46, 0x37, 0x22, 0x8d, 0xc3,
  0x54, 0x23, 0x85, 0xbf, 0xcb, 0x23, 0xa5, 0x80, 0x87, 0x5a, 0x81, 0x93,
  0x77, 0x88, 0x3b, 0xb2, 0x8a, 0x3e, 0x93, 0x51, 0x6f, 0xa3, 0x9f, 0xbe,
  0xb3, 0xc6, 0x44, 0x60, 0x78, 0xab, 0x71, 0xc5, 0x91, 0x81, 0x6e, 0x64,
  0xaa, 0x65, 0x6e, 0x76, 0x6f, 0x84, 0x89, 0x68, 0xb2, 0xd2, 0x89, 0x96,
  0xa2, 0x7c, 0xae, 0x78, 0x53, 0x5c, 0x6a, 0xc4, 0xa7, 0x4e, 0x57, 0x24,
  0x56, 0x65, 0x65, 0x79, 0x9a, 0x78, 0xa0, 0x9b, 0x9a, 0xa5, 0x5b, 0x49,
  0x7e, 0xa1, 0x85, 0xcd, 0x71, 0x5b, 0xae, 0x74, 0xc7, 0x49, 0x67, 0x73,
  0x93, 0x33, 0xb9, 0x85, 0x83, 0x30, 0x7b, 0x66, 0x5d, 0x75, 0xcd, 0x52,
  0xa4, 0xdc, 0x96, 0x6f, 0xc9, 0x61, 0x55, 0x5e, 0xaf, 0x70, 0x91, 0xa4,
  0x73, 0x50, 0x77, 0x9c, 0x9d, 0x8a, 0xcf, 0xba, 0x6e, 0xc2, 0xbc, 0x7b,
  0x7e, 0x76, 0x97, 0x99, 0x9e, 0xdd, 0x72, 0xa2, 0x68, 0xb0, 0x75, 0x61,
  0x97, 0x88, 0x77, 0xab, 0x95, 0x4f, 0x40, 0x99, 0x31, 0x80, 0x86, 0xb2,
  0x64, 0x92, 0xbf, 0xc5, 0xb1, 0x4f, 0x64, 0x8f, 0x8b, 0xbc, 0xc2, 0x80,
  0xba, 0x55, 0xd3, 0x6c, 0x59, 0x9a, 0x64, 0x5d, 0x50, 0x7e, 0x51, 0xed,
  0x44, 0x7d, 0x81, 0x70, 0x44, 0xb7, 0x75, 0x71, 0x3d, 0x51, 0xb7, 0x3f,
  0x7e, 0x57, 0x65, 0xa6, 0x69, 0xc4, 0x97, 0x51, 0x98, 0x4f, 0x4c, 0x8a,
  0xa3, 0x79, 0xb0, 0xaa, 0x94, 0x87, 0x30, 0xec, 0x63, 0xb9, 0xae, 0x5e,
  0x88, 0x3e, 0x9d, 0x9a, 0x7e, 0x70, 0xa2, 0x89, 0x35, 0xcd, 0x48, 0xa1,
  0x5d, 0x78, 0xd9, 0x46, 0x65, 0x7d, 0x93, 0xca, 0x6a, 0x3c, 0x75, 0x97,
  0xa4, 0x73, 0xc2, 0x80, 0x87, 0x8f, 0x7d, 0x58, 0x69, 0x82, 0x84, 0x8e,
  0x5e, 0x38, 0x55, 0x86, 0x49, 0x92, 0xbc, 0x49, 0x7f, 0x4a, 0x7d, 0xae,
  0xb7, 0x54, 0x76, 0x7b, 0x71, 0x85, 0x97, 0x72, 0x81, 0xbe, 0x97, 0xb3,
  0x66, 0x60, 0x8a, 0x69, 0xac, 0x5b, 0x4c, 0x34, 0x50, 0x44, 0x6f, 0x44,
  0x4f, 0xa3, 0x95, 0x66, 0x90, 0xc3, 0x5a, 0x5e, 0xa5, 0x5d, 0xa9, 0x81,
  0x87, 0x6b, 0x75, 0x68, 0xae, 0x36, 0x2c, 0x9c, 0xb1, 0x5e, 0x92, 0x80,
  0xca, 0xc4, 0x51, 0xaf, 0x33, 0x50, 0x8e, 0x6b, 0x77, 0x69, 0x44, 0x75,
  0x50, 0xdd, 0x6b, 0x50, 0x71, 0x94, 0x5c, 0xbe, 0x8f, 0x78, 0x95, 0x3c,
  0xaa, 0x63, 0x39, 0xb2, 0xc7, 0xa8, 0x53, 0xb7, 0xb5, 0x7e, 0x9c, 0xc2,
  0x42, 0x9e, 0x49, 0x63, 0x95, 0x76, 0x3f, 0xb0, 0x80, 0xac, 0x76, 0x9e,
  0x2e, 0x2e, 0x65, 0xb0, 0x65, 0xdf, 0x7c, 0x5f, 0x73, 0x8d, 0x50, 0x94,
  0xc2, 0x63, 0x7f, 0x63, 0x41, 0x8c, 0x9e, 0xb1, 0x67, 0x59, 0x57, 0x87,
  0x99, 0x77, 0x4e, 0xb7, 0x82, 0x65, 0x50, 0x72, 0x92, 0x6b, 0x9c, 0x76,
  0x9d, 0x84, 0x4b, 0xd7, 0x94, 0xd3, 0xb3, 0x56, 0x9e, 0xad, 0x80, 0x8c,
  0x87, 0x99, 0xc8, 0x5d, 0x82, 0x7c, 0x57, 0x80, 0x22, 0x79, 0xd1, 0xad,
  0xad, 0x9c, 0x97, 0x9e, 0x9a, 0x73, 0x81, 0x82, 0x36, 0x9f, 0xd7, 0x74,
  0x9d, 0x38, 0x60, 0xae, 0x94, 0xc8, 0x48, 0x96, 0x96, 0x4c, 0xb1, 0x7f,
  0x46, 0xc2, 0xd0, 0xbb, 0x58, 0x74, 0x3f, 0xcc, 0x24, 0x65, 0xa9, 0x7c,
  0x7d, 0x6c, 0x90, 0x9f, 0x56, 0x6b, 0x9b, 0x6b, 0x63, 0x4c, 0x6e, 0xc2,
  0x7c, 0xc3, 0x6b, 0x85, 0x26, 0x7b, 0x72, 0x70, 0x66, 0xa0, 0xb6, 0xad,
  0xa6, 0xaf, 0x89, 0xd1, 0xa4, 0x6d, 0x74, 0x59, 0xa2, 0x91, 0x7f, 0xfb,
  0x2f, 0xc6, 0x85, 0x6d, 0x8e, 0x90, 0x2f, 0x8c, 0x78, 0x96, 0xbe, 0x77,
  0x93, 0xa0, 0x94, 0x9e, 0x8c, 0x51, 0x9a, 0xcf, 0x57, 0x54, 0x75, 0xc7,
  0x5e, 0x79, 0x68, 0x74, 0x2d, 0x9e, 0x85, 0xa0, 0x64, 0x66, 0x78, 0x7f,
  0x87, 0x75, 0xb2, 0x84, 0x5f, 0xb9, 0x6e, 0x43, 0x5a, 0x7a, 0x5c, 0xa4,
  0x73, 0x9d, 0x7f, 0x9a, 0x8b, 0x82, 0x46, 0xab, 0xdb, 0x95, 0x27, 0x71,
  0x72, 0x7f, 0x9d, 0x4d, 0x81, 0x2a, 0x2e, 0xb5, 0xb7, 0x99, 0x6b, 0x84,
  0x63, 0x64, 0x52, 0x78, 0x47, 0x80, 0x9c, 0x56, 0x60, 0xa7, 0x9c, 0x8d,
  0x4e, 0xac, 0x60, 0x6a, 0x81, 0x57, 0x47, 0x4b, 0xc1, 0x95, 0x95, 0x85,
  0x53, 0x5c, 0x70, 0x9b, 0x52, 0x31, 0x6a, 0xc3, 0x53, 0x93, 0x5d, 0x55,
  0x67, 0xa3, 0xc4, 0x61, 0xdc, 0x86, 0xa0, 0x88, 0x75, 0x9c, 0x97, 0x9a,
  0x5f, 0x86, 0x67, 0x69, 0x3a, 0x3a, 0xcc, 0xc6, 0x47, 0x91, 0x7f, 0xa0,
  0x75, 0x64, 0x9b, 0x65, 0x50, 0x8a, 0x91, 0x49, 0x70, 0xd6, 0x87, 0x7b,
  0x92, 0x7b, 0x89, 0x51, 0x7d, 0x84, 0x3a, 0x7f, 0x6f, 0x53, 0x90, 0x83,
  0x51, 0x69, 0x55, 0x9a, 0x64, 0x5a, 0x4a, 0x69, 0x93, 0x54, 0x8e, 0x72,
  0x85, 0x91, 0xcc, 0x7b, 0x68, 0x66, 0x59, 0xb2, 0x6f, 0x4e, 0x2c, 0xa5,
  0xab, 0x96, 0x7e, 0x8b, 0xa3, 0x78, 0x8d, 0x6e, 0x29, 0x55, 0x78, 0xf1,
  0x6c, 0x96, 0xa3, 0x67, 0xcc, 0x42, 0x6c, 0x97, 0x5a, 0x58, 0x8b, 0x51,
  0x4d, 0x56, 0x9b, 0x92, 0xca, 0x74, 0x7d, 0x49, 0x6c, 0x5d, 0x95, 0x60,
  0xb1, 0xd7, 0x41, 0x63, 0x6c, 0x8a, 0xb1, 0x46, 0x95, 0x93, 0x90, 0xc4,
  0x4a, 0x98, 0x60, 0x9e, 0x8d, 0x2a, 0x83, 0x93, 0x80, 0x74, 0xa7, 0x98,
  0xa6, 0x54, 0x9b, 0x4d, 0xd7, 0xac, 0x5c, 0x92, 0x6f, 0xa0, 0x41, 0x41,
  0xb0, 0x8c, 0x8e, 0x8d, 0x98, 0xc9, 0x72, 0xb1, 0x7c, 0x9b, 0x9b, 0x4e,
  0x7b, 0x36, 0xd9, 0x99, 0x96, 0x55, 0x4d, 0x9e, 0xb5, 0x76, 0x2f, 0xa1,
  0x84, 0x88, 0x40, 0xa2, 0x90, 0x97, 0x73, 0x61, 0xa7, 0x48, 0xde, 0x78,
  0x7a, 0x63, 0x96, 0x9c, 0x83, 0x7f, 0x6f, 0x6a, 0x6f, 0x8a, 0x91, 0x8a,
  0x9d, 0x35, 0x3a, 0xbd, 0x7b, 0x9f, 0x59, 0x5d, 0xaf, 0x71, 0x7d, 0xe2,
  0x90, 0x2f, 0x99, 0xb4, 0x97, 0x31, 0x86, 0x39, 0x4d, 0x9e, 0x8b, 0x86,
  0x38, 0x93, 0x55, 0x62, 0x61, 0x57, 0xbd, 0x7d, 0xa0, 0xd8, 0xc3, 0xa5,
  0x59, 0x8e, 0x76, 0xad, 0x8c, 0x8a, 0x37, 0xae, 0x8f, 0x73, 0xe4, 0x1d,
  0x83, 0x85, 0x7a, 0x5f, 0x70, 0x75, 0x6c, 0xd7, 0x5b, 0x95, 0x5f, 0xd9,
  0x76, 0x81, 0x9d, 0x64, 0xba, 0x5f, 0x54, 0x98, 0xa5, 0x98, 0x8c, 0x63,
  0x85, 0x9b, 0x5c, 0x3c, 0xbf, 0xa8, 0xd4, 0x5e, 0x92, 0xa3, 0x92, 0xc4,
  0x54, 0x4f, 0x42, 0x42, 0x73, 0xb4, 0x79, 0x55, 0x50, 0x30, 0xaa, 0x56,
  0x7e, 0x59, 0x98, 0x6d, 0x7f, 0xb7, 0xd5, 0xc1, 0x8b, 0x78, 0xb7, 0x73,
