/* Copyright 2018 The TensorFlow Authors. All Rights Reserved.

Licensed under the Apache License, Version 2.0 (the "License");
you may not use this file except in compliance with the License.
You may obtain a copy of the License at

    http://www.apache.org/licenses/LICENSE-2.0

Unless required by applicable law or agreed to in writing, software
distributed under the License is distributed on an "AS IS" BASIS,
WITHOUT WARRANTIES OR CONDITIONS OF ANY KIND, either express or implied.
See the License for the specific language governing permissions and
limitations under the License.
==============================================================================*/

// Automatically created from a TensorFlow Lite flatbuffer using the command:
// xxd -i tiny_conv.tflite > tiny_conv_simple_features_model_data.cc
// See the README for a full description of the creation process.

#include "tensorflow/lite/micro/examples/micro_speech/micro_features/tiny_conv_micro_features_model_data.h"

// We need to keep the data array aligned on some architectures.
#ifdef __has_attribute
#define HAVE_ATTRIBUTE(x) __has_attribute(x)
#else
#define HAVE_ATTRIBUTE(x) 0
#endif
#if HAVE_ATTRIBUTE(aligned) || (defined(__GNUC__) && !defined(__clang__))
#define DATA_ALIGN_ATTRIBUTE __attribute__((aligned(4)))
#else
#define DATA_ALIGN_ATTRIBUTE
#endif

const unsigned char
        g_tiny_conv_micro_features_model_data[] DATA_ALIGN_ATTRIBUTE = {
  0x20, 0x00, 0x00, 0x00, 0x54, 0x46, 0x4c, 0x33, 0x00, 0x00, 0x00, 0x00,
  0x00, 0x00, 0x12, 0x00, 0x1c, 0x00, 0x04, 0x00, 0x08, 0x00, 0x0c, 0x00,
  0x10, 0x00, 0x14, 0x00, 0x00, 0x00, 0x18, 0x00, 0x12, 0x00, 0x00, 0x00,
  0x03, 0x00, 0x00, 0x00, 0x18, 0x47, 0x00, 0x00, 0x10, 0x00, 0x00, 0x00,
  0x1c, 0x00, 0x00, 0x00, 0x2c, 0x00, 0x00, 0x00, 0x0c, 0x00, 0x00, 0x00,
  0x01, 0x00, 0x00, 0x00, 0xc0, 0x00, 0x00, 0x00, 0x01, 0x00, 0x00, 0x00,
  0x94, 0x00, 0x00, 0x00, 0x0f, 0x00, 0x00, 0x00, 0x54, 0x4f, 0x43, 0x4f,
  0x20, 0x43, 0x6f, 0x6e, 0x76, 0x65, 0x72, 0x74, 0x65, 0x64, 0x2e, 0x00,
  0x0a, 0x00, 0x00, 0x00, 0x60, 0x00, 0x00, 0x00, 0x58, 0x00, 0x00, 0x00,
  0x4c, 0x00, 0x00, 0x00, 0x44, 0x00, 0x00, 0x00, 0x3c, 0x00, 0x00, 0x00,
  0x34, 0x00, 0x00, 0x00, 0x28, 0x00, 0x00, 0x00, 0x1c, 0x00, 0x00, 0x00,
  0x10, 0x00, 0x00, 0x00, 0x04, 0x00, 0x00, 0x00, 0x12, 0xba, 0xff, 0xff,
  0x38, 0x00, 0x00, 0x00, 0x1a, 0xba, 0xff, 0xff, 0x00, 0x01, 0x00, 0x00,
  0x22, 0xba, 0xff, 0xff, 0xa0, 0x01, 0x00, 0x00, 0x2a, 0xba, 0xff, 0xff,
  0x7c, 0x40, 0x00, 0x00, 0xd8, 0xb9, 0xff, 0xff, 0xdc, 0xb9, 0xff, 0xff,
  0xe0, 0xb9, 0xff, 0xff, 0x3e, 0xba, 0xff, 0xff, 0x68, 0x42, 0x00, 0x00,
  0xec, 0xb9, 0xff, 0xff, 0xf0, 0xb9, 0xff, 0xff, 0x05, 0x00, 0x00, 0x00,
  0x31, 0x2e, 0x35, 0x2e, 0x30, 0x00, 0x00, 0x00, 0x08, 0x00, 0x0c, 0x00,
  0x04, 0x00, 0x08, 0x00, 0x08, 0x00, 0x00, 0x00, 0x08, 0x00, 0x00, 0x00,
  0x09, 0x00, 0x00, 0x00, 0x13, 0x00, 0x00, 0x00, 0x6d, 0x69, 0x6e, 0x5f,
  0x72, 0x75, 0x6e, 0x74, 0x69, 0x6d, 0x65, 0x5f, 0x76, 0x65, 0x72, 0x73,
  0x69, 0x6f, 0x6e, 0x00, 0x0c, 0xbb, 0xff, 0xff, 0x20, 0x00, 0x00, 0x00,
  0x14, 0x00, 0x00, 0x00, 0x08, 0x00, 0x00, 0x00, 0x28, 0x45, 0x00, 0x00,
  0x01, 0x00, 0x00, 0x00, 0x05, 0x00, 0x00, 0x00, 0x01, 0x00, 0x00, 0x00,
  0x03, 0x00, 0x00, 0x00, 0x08, 0x00, 0x00, 0x00, 0x9c, 0x3f, 0x00, 0x00,
  0x1c, 0x00, 0x00, 0x00, 0xf0, 0x40, 0x00, 0x00, 0x84, 0x44, 0x00, 0x00,
  0x80, 0x40, 0x00, 0x00, 0x0c, 0x40, 0x00, 0x00, 0x50, 0x41, 0x00, 0x00,
  0x68, 0x00, 0x00, 0x00, 0x9e, 0xbb, 0xff, 0xff, 0x00, 0x00, 0x00, 0x02,
  0x10, 0x00, 0x00, 0x00, 0x08, 0x00, 0x00, 0x00, 0x10, 0x00, 0x00, 0x00,
  0x1c, 0x00, 0x00, 0x00, 0x01, 0x00, 0x00, 0x00, 0x04, 0x00, 0x00, 0x00,
  0x0b, 0x00, 0x00, 0x00, 0x4d, 0x61, 0x74, 0x4d, 0x75, 0x6c, 0x5f, 0x62,
  0x69, 0x61, 0x73, 0x00, 0x84, 0xc0, 0xff, 0xff, 0x14, 0x00, 0x00, 0x00,
  0x04, 0x00, 0x00, 0x00, 0x01, 0x00, 0x00, 0x00, 0x00, 0x00, 0x00, 0x00,
  0x00, 0x00, 0x00, 0x00, 0x01, 0x00, 0x00, 0x00, 0x6e, 0x4e, 0x90, 0x37,
  0x10, 0x00, 0x00, 0x00, 0xe8, 0xfc, 0xff, 0xff, 0xc4, 0xf9, 0xff, 0xff,
  0x51, 0x15, 0x00, 0x00, 0x20, 0xf4, 0xff, 0xff, 0x02, 0xbc, 0xff, 0xff,
  0x00, 0x00, 0x00, 0x03, 0x10, 0x00, 0x00, 0x00, 0x07, 0x00, 0x00, 0x00,
  0x14, 0x00, 0x00, 0x00, 0x48, 0x00, 0x00, 0x00, 0x02, 0x00, 0x00, 0x00,
  0x04, 0x00, 0x00, 0x00, 0xa0, 0x0f, 0x00, 0x00, 0x31, 0x00, 0x00, 0x00,
  0x77, 0x65, 0x69, 0x67, 0x68, 0x74, 0x73, 0x5f, 0x71, 0x75, 0x61, 0x6e,
  0x74, 0x5f, 0x31, 0x2f, 0x46, 0x61, 0x6b, 0x65, 0x51, 0x75, 0x61, 0x6e,
  0x74, 0x57, 0x69, 0x74, 0x68, 0x4d, 0x69, 0x6e, 0x4d, 0x61, 0x78, 0x56,
  0x61, 0x72, 0x73, 0x2f, 0x74, 0x72, 0x61, 0x6e, 0x73, 0x70, 0x6f, 0x73,
  0x65, 0x00, 0x00, 0x00, 0x14, 0xbc, 0xff, 0xff, 0x2c, 0x00, 0x00, 0x00,
  0x20, 0x00, 0x00, 0x00, 0x14, 0x00, 0x00, 0x00, 0x04, 0x00, 0x00, 0x00,
  0x01, 0x00, 0x00, 0x00, 0x7a, 0x00, 0x00, 0x00, 0x00, 0x00, 0x00, 0x00,
  0x01, 0x00, 0x00, 0x00, 0xa6, 0xe9, 0xb5, 0x39, 0x01, 0x00, 0x00, 0x00,
  0xa3, 0x04, 0x3d, 0x3d, 0x01, 0x00, 0x00, 0x00, 0x02, 0xf7, 0x2b, 0xbd,
  0x80, 0x3e, 0x00, 0x00, 0x6f, 0x5e, 0x6a, 0x4b, 0x9f, 0x88, 0x7d, 0x5e,
  0x60, 0x8c, 0x73, 0x51, 0x95, 0x5d, 0x76, 0xa3, 0x90, 0x66, 0x94, 0x53,
  0x7e, 0x8c, 0x67, 0x58, 0x35, 0x77, 0x93, 0x56, 0x5c, 0x69, 0x94, 0x53,
  0x66, 0x6e, 0x7b, 0x65, 0x97, 0x4e, 0x74, 0x64, 0x43, 0x85, 0x69, 0x6d,
  0x6a, 0x3e, 0x6a, 0x6c, 0x60, 0x6a, 0x96, 0x68, 0x79, 0x78, 0x93, 0x49,
  0x8a, 0x7e, 0x5d, 0x65, 0xa1, 0x8b, 0x86, 0x63, 0x5b, 0x6c, 0x81, 0x4a,
  0x5c, 0x89, 0x7e, 0x74, 0x72, 0x74, 0x64, 0x64, 0x5e, 0x83, 0x91, 0x50,
  0x7d, 0x98, 0x80, 0x5c, 0x9f, 0x9d, 0x90, 0x8d, 0x5b, 0x5e, 0x42, 0x66,
  0x9b, 0x6a, 0x71, 0x96, 0x52, 0x8a, 0x77, 0x66, 0x77, 0x67, 0x74, 0x73,
  0x6a, 0x82, 0x7d, 0x35, 0x71, 0x86, 0xb1, 0xa6, 0x79, 0x7e, 0x70, 0x5e,
  0x6b, 0x80, 0x84, 0x5d, 0x71, 0x68, 0x8f, 0x68, 0xa3, 0x5d, 0x75, 0xaa,
  0x6b, 0x4b, 0x7d, 0x7a, 0x84, 0x92, 0x90, 0x57, 0x34, 0x74, 0x90, 0x4b,
  0x6b, 0x86, 0x65, 0x86, 0x47, 0xa1, 0x51, 0x66, 0x8a, 0x59, 0x9a, 0x3f,
  0x5a, 0x62, 0x65, 0x75, 0x90, 0x7e, 0x81, 0x77, 0xa1, 0xa6, 0x6a, 0x8e,
  0x54, 0x6d, 0x78, 0x47, 0x63, 0x69, 0x97, 0x75, 0x58, 0x59, 0x7b, 0x4e,
  0x8b, 0x95, 0x77, 0x49, 0x66, 0x4a, 0x68, 0x40, 0x81, 0x64, 0x64, 0x8f,
  0xa2, 0x7b, 0x5e, 0x8b, 0x35, 0x91, 0x78, 0x5a, 0x66, 0x9e, 0xa0, 0x46,
  0x74, 0x8c, 0x7c, 0x7d, 0x62, 0x70, 0x88, 0x60, 0x59, 0x7b, 0xa2, 0x3b,
  0x8c, 0x6a, 0x7a, 0x52, 0x55, 0x85, 0x93, 0x44, 0xae, 0x71, 0xaf, 0x6d,
  0x88, 0xa5, 0x7b, 0x4a, 0x92, 0x76, 0x9a, 0x52, 0x6b, 0x87, 0xa7, 0x42,
  0x88, 0x99, 0x66, 0x5c, 0x61, 0x65, 0x93, 0x99, 0xb1, 0x7b, 0x9c, 0x76,
  0x74, 0x6b, 0x6f, 0x5f, 0x8e, 0x77, 0x8f, 0x7c, 0x8c, 0x7f, 0x91, 0x8d,
  0x8d, 0x82, 0x57, 0x5d, 0x8c, 0x7b, 0x7b, 0x6b, 0x83, 0x77, 0x72, 0x62,
  0x6b, 0x76, 0x79, 0x73, 0x9b, 0x6a, 0x73, 0x45, 0x35, 0x9d, 0x57, 0x7d,
  0x82, 0x76, 0x85, 0x7b, 0x7a, 0x6e, 0x89, 0x47, 0x89, 0x84, 0x6c, 0x6f,
  0x55, 0x9c, 0x62, 0x5b, 0x90, 0x84, 0x79, 0x8e, 0x5e, 0x7c, 0x92, 0x55,
  0x75, 0x9c, 0x93, 0x98, 0x96, 0x44, 0x8f, 0x97, 0x80, 0x5d, 0x66, 0x9a,
  0x82, 0x83, 0x7a, 0x47, 0x9b, 0xa9, 0x8f, 0x55, 0x6f, 0xa9, 0x79, 0x50,
  0x59, 0x92, 0x7b, 0x76, 0x62, 0x6f, 0x56, 0x49, 0x54, 0x7f, 0x70, 0x80,
  0x59, 0x68, 0x84, 0x58, 0x6c, 0x69, 0x8e, 0x5e, 0x7a, 0x8e, 0x7d, 0x76,
  0x68, 0x7b, 0x80, 0x3d, 0x71, 0x5b, 0x48, 0x71, 0x93, 0x97, 0x70, 0x59,
  0x84, 0x6b, 0x41, 0x48, 0x7a, 0x73, 0x5b, 0x4e, 0x91, 0x6e, 0x5c, 0x75,
  0x74, 0x81, 0xa3, 0x62, 0x8b, 0x8c, 0x96, 0x65, 0x80, 0x82, 0x3c, 0x54,
  0x75, 0x8c, 0x77, 0x6f, 0x88, 0x69, 0x6f, 0x63, 0x4d, 0x95, 0x73, 0x82,
  0x46, 0x5b, 0x46, 0x57, 0x3d, 0x7e, 0x69, 0x4f, 0x3f, 0xa2, 0x71, 0x56,
  0x6c, 0x89, 0x8b, 0x54, 0x8b, 0x97, 0x64, 0x31, 0x9c, 0x6c, 0x72, 0x6c,
  0x73, 0xa2, 0x9b, 0x3f, 0x63, 0x4e, 0x59, 0x5e, 0x76, 0x8a, 0x6c, 0x61,
  0x79, 0x7d, 0x74, 0x4d, 0x74, 0x76, 0x67, 0x7f, 0x7c, 0x7d, 0x68, 0x4d,
  0x47, 0x69, 0x78, 0x55, 0x64, 0x96, 0x6e, 0x4c, 0x93, 0x5d, 0x8d, 0x69,
  0x84, 0x6f, 0x7e, 0x3e, 0x66, 0x7c, 0x55, 0x4a, 0x80, 0x98, 0xa2, 0x60,
  0x8c, 0x79, 0x4d, 0x6c, 0x83, 0x83, 0x6f, 0x7a, 0x6a, 0x46, 0x52, 0x8c,
  0x58, 0x62, 0x89, 0x55, 0x5c, 0x8a, 0x70, 0x81, 0x7a, 0x61, 0x80, 0x8e,
  0x54, 0x43, 0x80, 0x79, 0x7f, 0x93, 0x7b, 0x63, 0x70, 0x77, 0x35, 0x5b,
  0x81, 0x4e, 0x90, 0x71, 0x63, 0x89, 0x43, 0x8b, 0x7e, 0xac, 0x9e, 0x7d,
  0x7e, 0x99, 0x52, 0x5a, 0x8b, 0x92, 0x73, 0x30, 0x82, 0x77, 0x6e, 0x5b,
  0x55, 0x94, 0x6e, 0x98, 0x7e, 0x4d, 0x9c, 0x5d, 0x7e, 0x84, 0x89, 0x62,
  0x5d, 0x6a, 0x70, 0x70, 0x60, 0x88, 0x99, 0x6b, 0x90, 0x86, 0x97, 0x62,
  0xa5, 0x61, 0x64, 0x5d, 0x67, 0x87, 0x66, 0x48, 0x84, 0x75, 0x6c, 0x66,
  0x6d, 0x6d, 0x45, 0x3d, 0x65, 0x80, 0x8d, 0x5b, 0x5f, 0x74, 0x9c, 0x8e,
  0x51, 0x94, 0x82, 0x40, 0x8a, 0x6b, 0x45, 0x50, 0x62, 0x5f, 0x7c, 0x69,
  0xa4, 0x75, 0x50, 0x49, 0x6f, 0x63, 0x91, 0x6e, 0x82, 0x9b, 0x71, 0x94,
  0x86, 0x7e, 0x8e, 0x7e, 0x7f, 0x3f, 0x46, 0x4e, 0x99, 0x8e, 0x5f, 0x3d,
  0x78, 0x7c, 0x83, 0x69, 0x7a, 0x89, 0x86, 0x8c, 0x5d, 0x92, 0x3e, 0x68,
  0x5b, 0x91, 0xb1, 0x60, 0xa6, 0x66, 0x71, 0x50, 0x57, 0x77, 0x6f, 0x5d,
  0x7b, 0x6b, 0x58, 0x5a, 0x7d, 0x72, 0x9c, 0x4b, 0x85, 0x6d, 0x62, 0x61,
  0x71, 0x64, 0x67, 0x83, 0x82, 0x62, 0x6f, 0x48, 0x9e, 0x9c, 0x53, 0x8d,
  0x95, 0x94, 0x74, 0x70, 0x92, 0x7b, 0x89, 0x76, 0x4c, 0x8f, 0x6d, 0x5d,
  0x93, 0x53, 0x8e, 0x5c, 0x74, 0x4d, 0x7b, 0x47, 0x9f, 0x70, 0x9e, 0x53,
  0x64, 0x96, 0x5f, 0x50, 0x7b, 0x91, 0x75, 0x8f, 0x94, 0xa2, 0x7b, 0x54,
  0x84, 0x75, 0x67, 0x54, 0x6a, 0x95, 0x8f, 0x6e, 0x6e, 0x80, 0x5b, 0x58,
  0x9f, 0x99, 0x66, 0x60, 0x84, 0x74, 0x74, 0x3f, 0x5e, 0x92, 0x5c, 0x81,
  0xa7, 0x71, 0x68, 0x8b, 0x6f, 0x6a, 0x61, 0x72, 0x5a, 0x92, 0x40, 0x37,
  0x6d, 0x7d, 0x86, 0x6c, 0x66, 0x7d, 0x93, 0x8b, 0x76, 0x85, 0x75, 0x73,
  0x7a, 0x6f, 0x8a, 0x8d, 0x9f, 0x84, 0x65, 0x64, 0x66, 0x8f, 0x91, 0x68,
  0x76, 0x57, 0x64, 0x60, 0x64, 0x4c, 0x99, 0x59, 0x9d, 0x60, 0x64, 0x5a,
  0x77, 0x4b, 0x8a, 0x6f, 0x42, 0x63, 0x73, 0x5d, 0x4d, 0x68, 0x5a, 0x68,
  0x6b, 0x8c, 0x71, 0x79, 0x74, 0x77, 0x6e, 0x73, 0x7a, 0x70, 0x96, 0x76,
  0x4f, 0x74, 0x81, 0x54, 0xa5, 0x5e, 0x75, 0x81, 0x92, 0x8f, 0x56, 0x40,
  0x88, 0x77, 0x6e, 0x5b, 0x77, 0x7a, 0x58, 0x69, 0x98, 0x77, 0x59, 0x4d,
  0x7c, 0x54, 0x84, 0x3c, 0x88, 0x5e, 0x58, 0x85, 0xa6, 0x98, 0x81, 0x95,
  0x49, 0x5d, 0x7a, 0x9b, 0x65, 0x8c, 0x6f, 0x32, 0x51, 0x71, 0x39, 0x51,
  0x6f, 0x4f, 0x8f, 0x78, 0x67, 0x85, 0x53, 0x52, 0x9a, 0x4a, 0x8e, 0x52,
  0x7a, 0x87, 0x31, 0x88, 0x8d, 0x7c, 0x84, 0x73, 0x4b, 0xb0, 0x4b, 0x51,
  0x67, 0x94, 0x66, 0x6b, 0x57, 0xa5, 0x7b, 0x9c, 0x54, 0x41, 0x5d, 0x6b,
  0x7b, 0x52, 0x48, 0x6c, 0x77, 0x4d, 0xa6, 0x4d, 0x97, 0x71, 0x5e, 0x83,
  0x5a, 0x90, 0x59, 0x78, 0x99, 0x64, 0x7e, 0x53, 0x63, 0x92, 0x60, 0x57,
  0x51, 0x84, 0x7d, 0xa3, 0x6b, 0x92, 0x7c, 0x50, 0x87, 0x85, 0x32, 0x72,
  0x7d, 0x67, 0x8a, 0x84, 0x7b, 0x89, 0x7f, 0x50, 0x77, 0x8b, 0x7c, 0x73,
  0xa6, 0x9b, 0x58, 0x59, 0x53, 0x61, 0x80, 0x72, 0x97, 0x73, 0x72, 0x96,
  0x5e, 0x72, 0x85, 0x5a, 0x5b, 0x97, 0x58, 0x58, 0x70, 0x6f, 0x6b, 0x77,
  0x91, 0x6a, 0x73, 0x8a, 0x3f, 0x5d, 0xb0, 0x86, 0x91, 0x8f, 0x7a, 0x56,
  0x7c, 0x7d, 0x4c, 0x48, 0x99, 0x56, 0x6e, 0x52, 0x61, 0x91, 0x9b, 0x4e,
  0xa4, 0x90, 0x77, 0x55, 0x6b, 0x82, 0x9b, 0x46, 0xa5, 0x94, 0x67, 0x52,
  0x88, 0x84, 0x5d, 0x90, 0x8f, 0x8d, 0x4a, 0x8f, 0x51, 0x54, 0x93, 0x48,
  0x66, 0x74, 0x3e, 0x6e, 0x8e, 0x81, 0x44, 0x74, 0x74, 0x82, 0x60, 0x62,
  0x90, 0x47, 0x66, 0x34, 0x90, 0x86, 0x6d, 0x76, 0x97, 0x9b, 0x7e, 0x83,
  0x63, 0x55, 0x68, 0x76, 0x7e, 0x7d, 0x7d, 0x8b, 0x6e, 0x86, 0x50, 0x66,
  0xa5, 0x7e, 0x7c, 0x4d, 0x78, 0x5f, 0x43, 0x87, 0xa5, 0x8a, 0x56, 0x62,
  0x91, 0x84, 0x6e, 0x8b, 0x98, 0x59, 0x91, 0x42, 0x80, 0x76, 0x71, 0x65,
  0x69, 0xb1, 0x92, 0x46, 0x75, 0x84, 0x74, 0x5d, 0x9b, 0x61, 0x5b, 0x42,
  0x5a, 0x71, 0x76, 0x3a, 0x93, 0x85, 0x7f, 0x79, 0x67, 0x72, 0x65, 0x85,
  0x63, 0x67, 0x71, 0x38, 0x7f, 0x98, 0x69, 0x65, 0x65, 0x84, 0x79, 0x79,
  0x64, 0x78, 0x62, 0x76, 0xa9, 0x6b, 0xa8, 0x35, 0x95, 0x85, 0x78, 0x75,
  0x86, 0x6b, 0x5d, 0x54, 0x60, 0x81, 0x71, 0xa0, 0x82, 0x76, 0x5d, 0x86,
  0x98, 0x68, 0x77, 0x66, 0x51, 0x7c, 0x75, 0x4f, 0x67, 0x97, 0x2e, 0x79,
  0x7a, 0x94, 0x6e, 0x87, 0xa6, 0x4c, 0x30, 0x5f, 0x73, 0x70, 0x81, 0x79,
  0x80, 0x56, 0x5b, 0x53, 0x6a, 0x83, 0x84, 0x54, 0x95, 0xad, 0x6d, 0x89,
  0x88, 0x5a, 0x62, 0x56, 0x7e, 0x58, 0x78, 0xa4, 0x6e, 0xa0, 0x44, 0x59,
  0x69, 0x9c, 0x5d, 0x77, 0x94, 0x70, 0x8c, 0x66, 0x67, 0xac, 0x4e, 0x66,
  0x9e, 0x72, 0x7e, 0x6c, 0x8d, 0x98, 0x42, 0x53, 0x86, 0x6a, 0xa6, 0x46,
  0x90, 0x8a, 0x54, 0x4f, 0x74, 0x6e, 0x75, 0x66, 0x5d, 0x58, 0x68, 0x3b,
  0x8b, 0x82, 0x6c, 0x5b, 0x9a, 0x89, 0x6b, 0xa2, 0x72, 0x59, 0x53, 0x66,
  0x58, 0x8d, 0x74, 0x78, 0x8c, 0x7f, 0x51, 0x3f, 0x93, 0x8c, 0x68, 0x71,
  0x50, 0xa2, 0x82, 0x6a, 0x70, 0x8f, 0x7d, 0x56, 0x7d, 0xa7, 0x87, 0x62,
  0x86, 0x85, 0x60, 0x6c, 0x5b, 0x7b, 0x61, 0x94, 0x76, 0x41, 0x97, 0x70,
  0x8c, 0x60, 0x9b, 0x62, 0xa5, 0x49, 0x9d, 0x97, 0x46, 0x47, 0x8c, 0x48,
  0x6b, 0x74, 0x43, 0x7e, 0x9e, 0x73, 0x7c, 0x7a, 0x53, 0x7b, 0x76, 0x7a,
  0x3c, 0x6f, 0x7f, 0x58, 0x62, 0xb0, 0x57, 0x6b, 0x91, 0x89, 0x63, 0x30,
  0x74, 0x67, 0x45, 0x7e, 0x67, 0x79, 0x5c, 0xa3, 0x65, 0x83, 0x49, 0x9b,
  0xac, 0x60, 0x8e, 0x68, 0x95, 0x77, 0x2f, 0x71, 0x5c, 0x73, 0x76, 0x9e,
  0x49, 0x97, 0x5a, 0x7d, 0x5e, 0x85, 0x72, 0x41, 0x84, 0x61, 0x51, 0x7c,
  0x55, 0x5c, 0xac, 0x76, 0x58, 0x74, 0x54, 0x72, 0x91, 0x75, 0xb0, 0x50,
  0x59, 0x82, 0x7e, 0xa5, 0x4e, 0x63, 0x75, 0x69, 0x8a, 0x8c, 0x4f, 0x69,
  0x63, 0x9b, 0x90, 0x46, 0x79, 0x66, 0x51, 0x9d, 0x53, 0x79, 0x72, 0x3a,
  0x67, 0x79, 0x5d, 0x7b, 0x7b, 0xa3, 0x71, 0x86, 0xaa, 0x64, 0x45, 0x88,
  0x81, 0x88, 0x8c, 0x54, 0x5a, 0x80, 0x48, 0x79, 0x70, 0xa1, 0x7b, 0x56,
  0x76, 0xa1, 0x9f, 0x70, 0x97, 0x8b, 0x7f, 0x60, 0x52, 0x59, 0x4f, 0x62,
  0x50, 0x69, 0x90, 0x61, 0x89, 0x9b, 0x5d, 0x96, 0x68, 0x6b, 0x9a, 0x47,
  0x95, 0x69, 0x50, 0xa0, 0x81, 0x40, 0x7b, 0x46, 0x6e, 0x57, 0x47, 0xa6,
  0x7c, 0x89, 0x7d, 0x58, 0x9b, 0x5f, 0x64, 0xa2, 0x78, 0x6f, 0x71, 0x7c,
  0x88, 0x7f, 0x6d, 0x83, 0x50, 0x67, 0x71, 0x6e, 0x6e, 0x7c, 0x5e, 0x82,
  0x8c, 0x75, 0x54, 0x78, 0x68, 0xab, 0x3b, 0x6d, 0x70, 0x44, 0x4d, 0x60,
  0x81, 0x4a, 0x58, 0x7e, 0x6e, 0x78, 0x5b, 0x8e, 0x86, 0x68, 0x92, 0x6f,
  0x5f, 0x64, 0x7b, 0x5d, 0x72, 0x72, 0x7c, 0x5b, 0xae, 0x5d, 0x86, 0xa1,
  0xa0, 0xa1, 0x77, 0x84, 0x5d, 0x4e, 0x8a, 0x6f, 0x63, 0x89, 0x41, 0x85,
  0x6d, 0x93, 0x53, 0x75, 0xa6, 0x6f, 0x7a, 0x6a, 0x67, 0x89, 0x84, 0x65,
  0x90, 0x67, 0x52, 0x83, 0x7e, 0x65, 0x81, 0x60, 0xab, 0x5e, 0x6f, 0xad,
  0x99, 0x97, 0x8a, 0x98, 0x68, 0x5f, 0x4c, 0x7b, 0x8a, 0x54, 0x6f, 0x5d,
  0x81, 0x7a, 0x4f, 0x67, 0x86, 0x9c, 0xa8, 0x65, 0x72, 0x70, 0x44, 0x87,
  0x8d, 0x8d, 0x67, 0x69, 0x66, 0x66, 0x4e, 0x8d, 0x5e, 0x68, 0x5c, 0x51,
  0x60, 0x8d, 0x64, 0x90, 0x5e, 0x60, 0x84, 0x3f, 0xae, 0x8f, 0x5c, 0x5c,
  0x5a, 0x62, 0xa4, 0x56, 0x6c, 0x58, 0x52, 0x85, 0x72, 0x82, 0x9d, 0x62,
  0x5c, 0x93, 0x93, 0x62, 0x83, 0x84, 0x66, 0x3c, 0x7e, 0x87, 0x8c, 0x42,
  0x82, 0x84, 0x94, 0x8c, 0x67, 0x78, 0x4b, 0xa2, 0x55, 0x70, 0x95, 0x4f,
  0x9e, 0x88, 0x8c, 0x5d, 0x5d, 0x75, 0x74, 0x59, 0xa3, 0x9a, 0x7d, 0x6a,
  0x4a, 0x60, 0x8e, 0x83, 0x7b, 0x94, 0x62, 0x7a, 0x9e, 0x97, 0x78, 0x73,
  0x7d, 0x90, 0x68, 0x6e, 0x79, 0x69, 0x88, 0x8b, 0x68, 0x78, 0x4a, 0x61,
  0x79, 0x4a, 0x90, 0x66, 0x97, 0x7e, 0x5a, 0x64, 0x8b, 0x81, 0xa7, 0x57,
  0x71, 0x9b, 0x74, 0x53, 0x77, 0x81, 0x79, 0x77, 0x6e, 0x80, 0x67, 0x9f,
  0x56, 0x82, 0x8f, 0x73, 0x9b, 0x90, 0x74, 0x66, 0x97, 0x4c, 0x6f, 0x85,
  0x43, 0x6d, 0x51, 0x6b, 0x9c, 0x5c, 0x59, 0x52, 0x6d, 0xab, 0x57, 0x75,
  0x8a, 0x53, 0x8c, 0x48, 0x9a, 0x66, 0x71, 0x9e, 0x70, 0x74, 0x63, 0x76,
  0x80, 0x56, 0x8c, 0x49, 0x7d, 0x92, 0x88, 0x73, 0x96, 0x74, 0x9a, 0x54,
  0x54, 0x67, 0xa5, 0x75, 0x78, 0x8b, 0x7c, 0x85, 0x5b, 0x7a, 0x88, 0x5c,
  0x7a, 0x8c, 0x97, 0x72, 0x90, 0x49, 0x65, 0x4e, 0x9e, 0x6f, 0x8b, 0xa2,
  0x84, 0x4d, 0x7e, 0x78, 0x82, 0x9f, 0x7c, 0x75, 0x7e, 0x4b, 0xa3, 0x89,
  0x69, 0x8a, 0x4b, 0x86, 0x88, 0x95, 0x64, 0x7a, 0xab, 0x6d, 0x91, 0x89,
  0x81, 0x7e, 0x7d, 0x6d, 0xa6, 0x8e, 0x50, 0x59, 0x8b, 0x84, 0x83, 0x5b,
  0x7c, 0xa0, 0x75, 0x60, 0x6a, 0x70, 0x87, 0x99, 0x50, 0x9c, 0x57, 0x5b,
  0x9f, 0x96, 0x7a, 0x66, 0x7e, 0x54, 0x5e, 0x88, 0x77, 0x74, 0x8d, 0x49,
  0x90, 0x67, 0x81, 0x98, 0x78, 0x61, 0x90, 0x6c, 0x77, 0x64, 0x41, 0x48,
  0x59, 0x7b, 0x6a, 0x6d, 0x9b, 0x84, 0x5f, 0x67, 0x5c, 0x7d, 0x96, 0x6d,
  0x81, 0x5f, 0x7f, 0x7d, 0x6d, 0x8c, 0xac, 0x7e, 0x81, 0x6b, 0x92, 0x59,
  0x73, 0x8c, 0x47, 0x61, 0x93, 0x7a, 0x54, 0x88, 0x63, 0xad, 0x90, 0x71,
  0x9d, 0x75, 0x52, 0x6d, 0x84, 0x76, 0x9a, 0x56, 0x54, 0x74, 0x6e, 0xa1,
  0x81, 0x84, 0x47, 0x64, 0x68, 0x7a, 0x6f, 0xab, 0x79, 0x83, 0x62, 0x71,
  0x94, 0x96, 0x99, 0x71, 0x7c, 0x98, 0x7a, 0x60, 0x65, 0x83, 0x5c, 0x76,
  0x5e, 0x71, 0x51, 0x9d, 0x8f, 0x65, 0x73, 0x65, 0x79, 0x98, 0x43, 0x5a,
  0xa5, 0x5d, 0x73, 0x64, 0x45, 0x5e, 0xa5, 0x51, 0x6d, 0x81, 0x94, 0x67,
  0x4a, 0x80, 0x5f, 0x92, 0x88, 0x69, 0x82, 0x6e, 0x8d, 0x5e, 0x72, 0x8b,
  0x7b, 0x91, 0x77, 0x90, 0x51, 0x90, 0x61, 0x8b, 0x6c, 0x90, 0x8c, 0x4b,
  0x6b, 0x87, 0x7b, 0x83, 0x9c, 0x9e, 0x5e, 0x5c, 0x47, 0x6d, 0x82, 0x67,
  0x63, 0x6c, 0x82, 0x93, 0x90, 0x7e, 0x5e, 0x4c, 0xa3, 0x7c, 0x51, 0x73,
  0xa4, 0x5c, 0x7b, 0x5f, 0x66, 0x82, 0x72, 0x4a, 0x7c, 0x97, 0x71, 0x86,
  0x82, 0x85, 0x54, 0x6f, 0x7b, 0x72, 0x62, 0x9f, 0x88, 0x6b, 0x3d, 0x68,
  0x45, 0xae, 0x70, 0x63, 0x70, 0x83, 0x47, 0x68, 0x61, 0x96, 0xa4, 0x7b,
  0x8b, 0x65, 0x5d, 0x79, 0x7b, 0x72, 0x74, 0x6e, 0x64, 0x6b, 0x73, 0x56,
  0x46, 0x90, 0x70, 0x97, 0xa9, 0x7b, 0x6c, 0x97, 0x75, 0x73, 0x9b, 0x56,
  0x9d, 0x64, 0x55, 0x77, 0x84, 0x9d, 0x89, 0x6d, 0x67, 0x64, 0x67, 0x80,
  0x75, 0x8b, 0x72, 0x6b, 0x76, 0x98, 0x88, 0x72, 0x6a, 0x8c, 0x6c, 0x94,
  0x5e, 0x90, 0x57, 0x63, 0x65, 0x84, 0x80, 0x68, 0x9f, 0x45, 0x6c, 0x94,
  0xa2, 0x97, 0x94, 0x8b, 0xa2, 0x92, 0x38, 0x52, 0x79, 0x8d, 0xa9, 0x65,
  0x89, 0x6e, 0x5c, 0x73, 0x78, 0xa6, 0x82, 0x80, 0x8c, 0xa3, 0x5c, 0x83,
  0x86, 0x7f, 0x8f, 0x4b, 0x9f, 0x70, 0x7e, 0x7a, 0x36, 0x5c, 0x6a, 0x54,
  0xad, 0x87, 0xa2, 0x9f, 0x6f, 0xa1, 0x6c, 0x76, 0x67, 0x4d, 0x53, 0x5d,
  0x79, 0xa4, 0x63, 0x85, 0xa7, 0x93, 0x8e, 0xa7, 0xab, 0x7f, 0x52, 0x79,
  0x9f, 0x5e, 0x87, 0x50, 0x7b, 0x62, 0x82, 0x70, 0xa1, 0x5d, 0x93, 0x7b,
  0x83, 0x75, 0x78, 0x6f, 0x8e, 0x86, 0x47, 0x71, 0x62, 0x69, 0x89, 0x63,
  0x8e, 0x7f, 0x85, 0x5b, 0x66, 0x65, 0x77, 0x76, 0x41, 0x75, 0x61, 0x89,
  0x5c, 0x4f, 0x85, 0x8d, 0x76, 0xab, 0x80, 0x75, 0x77, 0x97, 0x78, 0x4c,
  0x71, 0x8e, 0x73, 0x41, 0x75, 0x7d, 0xa0, 0x5e, 0x5f, 0x8c, 0x90, 0x47,
  0x5f, 0x97, 0x61, 0x51, 0x70, 0x81, 0x5d, 0x3d, 0x81, 0x81, 0x6c, 0x58,
  0x66, 0x6e, 0x7a, 0x4b, 0x64, 0x69, 0x8a, 0x6b, 0xa5, 0x63, 0x72, 0x8b,
  0x77, 0x8d, 0x6c, 0x65, 0x81, 0x70, 0x64, 0x48, 0x8e, 0x9a, 0x44, 0x89,
  0x6d, 0x87, 0x7a, 0x58, 0x77, 0x5c, 0x81, 0x98, 0x99, 0x56, 0x5b, 0x5e,
  0x66, 0x84, 0x4a, 0x61, 0x6e, 0xad, 0x5d, 0x6f, 0x7b, 0x7c, 0x63, 0x58,
  0x6e, 0x7f, 0x80, 0x7e, 0x7a, 0x6e, 0x8b, 0x8c, 0x66, 0x7b, 0x56, 0x6d,
  0x56, 0x87, 0x57, 0x7c, 0x73, 0x5f, 0x7c, 0x65, 0x77, 0x79, 0x85, 0x67,
  0x73, 0x58, 0x5f, 0xa5, 0x8d, 0x77, 0x4d, 0x79, 0x45, 0x5b, 0x80, 0x6b,
  0x62, 0x81, 0x66, 0x8f, 0x49, 0x57, 0x84, 0x7a, 0x96, 0x56, 0x7c, 0x9a,
  0x76, 0xac, 0x4d, 0x81, 0x83, 0xa1, 0x9d, 0x4f, 0xb1, 0x83, 0x66, 0x6a,
  0x47, 0x97, 0xab, 0x89, 0x5b, 0x6a, 0x73, 0x86, 0x6b, 0x76, 0x7c, 0x4c,
  0x97, 0x7d, 0x6f, 0x7d, 0x6e, 0x7b, 0x4a, 0x64, 0xa2, 0x8a, 0x8a, 0x61,
  0x8b, 0x41, 0x89, 0x6b, 0x5e, 0x7f, 0x5f, 0x50, 0x66, 0x90, 0x4a, 0x89,
  0x80, 0x9a, 0x67, 0x87, 0x94, 0xad, 0x83, 0x5d, 0x5a, 0xa5, 0x7c, 0x66,
  0x78, 0x45, 0x78, 0x77, 0x76, 0x7c, 0x62, 0xa3, 0x54, 0x75, 0x72, 0x66,
  0x62, 0x97, 0x48, 0x7d, 0x7d, 0x5f, 0x8e, 0x3e, 0xa1, 0x9b, 0x45, 0x8a,
  0x92, 0x8b, 0x8c, 0x66, 0x46, 0x42, 0x38, 0x70, 0x77, 0x84, 0x94, 0x7b,
  0x9a, 0x56, 0x6e, 0x63, 0x77, 0x5b, 0x9c, 0x7e, 0x97, 0x74, 0x9f, 0x6f,
  0x5d, 0x72, 0x87, 0x70, 0x90, 0x58, 0x71, 0x55, 0x77, 0x53, 0x5e, 0x7a,
  0x7d, 0x7f, 0x83, 0x5f, 0x77, 0x71, 0x59, 0x6d, 0xa0, 0x81, 0x6d, 0x80,
  0x65, 0x7b, 0x7f, 0x63, 0x69, 0x81, 0x63, 0x64, 0x8c, 0x6d, 0x84, 0x72,
  0x78, 0x98, 0x44, 0x9a, 0x80, 0x8f, 0x5d, 0x53, 0x69, 0x7f, 0x5d, 0xae,
  0x85, 0x72, 0x66, 0x60, 0x4d, 0x70, 0x82, 0x97, 0x73, 0x83, 0x61, 0x89,
  0x58, 0x96, 0x79, 0x6d, 0x4a, 0xa1, 0x70, 0x91, 0x7f, 0x53, 0x50, 0xaf,
  0x7a, 0x92, 0x6c, 0x69, 0x8c, 0x7e, 0x5e, 0x9f, 0x67, 0x8c, 0x8a, 0x88,
  0x8e, 0x5b, 0x84, 0x5e, 0x82, 0x64, 0x8c, 0x6b, 0x55, 0x6f, 0x65, 0x79,
  0x6b, 0x74, 0x4f, 0x6e, 0x5a, 0x55, 0x58, 0x5d, 0x79, 0x61, 0x56, 0x79,
  0x9c, 0x70, 0x67, 0x6b, 0x7f, 0x8a, 0x41, 0x9f, 0x97, 0x6c, 0x6a, 0xa1,
  0x7d, 0x9f, 0x81, 0x8e, 0x5c, 0x74, 0x66, 0x54, 0x45, 0xa2, 0x64, 0x8a,
  0x83, 0x8d, 0x7f, 0x7f, 0x9e, 0x62, 0x8b, 0x69, 0x63, 0x51, 0xa1, 0x73,
  0x92, 0x57, 0x94, 0x7b, 0x7e, 0x8f, 0x5a, 0x74, 0x86, 0x5f, 0x56, 0x7a,
  0x94, 0x93, 0xa5, 0x87, 0x87, 0x52, 0x5e, 0xa2, 0xad, 0x6c, 0x8b, 0x72,
  0x6d, 0x85, 0x7f, 0x9b, 0x57, 0x92, 0x88, 0x9a, 0x5d, 0x97, 0x6a, 0x6f,
  0x8e, 0x81, 0x54, 0x76, 0x76, 0x90, 0x89, 0x6c, 0xa1, 0x64, 0x6d, 0x6f,
  0x94, 0x6f, 0x7b, 0x53, 0x67, 0x7a, 0x80, 0x82, 0x9c, 0x6a, 0x88, 0x4e,
  0x51, 0x8b, 0x5c, 0x72, 0xa0, 0x97, 0x72, 0x76, 0x7c, 0x90, 0x69, 0x59,
  0x91, 0x85, 0x74, 0x8e, 0x99, 0xa4, 0x65, 0x8b, 0x75, 0x4e, 0x64, 0x44,
  0x58, 0x5e, 0x73, 0x72, 0x66, 0x74, 0x6e, 0x96, 0x46, 0x6d, 0x48, 0x80,
  0x7f, 0x90, 0x7b, 0x69, 0x88, 0x81, 0x3f, 0x5c, 0x7f, 0x63, 0x7f, 0x65,
  0x7b, 0x6e, 0x8f, 0x78, 0x91, 0x84, 0x90, 0x7d, 0x96, 0x66, 0x7b, 0x59,
  0x3c, 0x8f, 0x7b, 0x66, 0x9b, 0x5f, 0x62, 0x8a, 0x4f, 0x6b, 0x77, 0x66,
  0x5a, 0x59, 0x76, 0x63, 0x73, 0xa1, 0x91, 0x7e, 0x8b, 0x62, 0x6c, 0x7c,
  0x69, 0x8d, 0x87, 0x94, 0x87, 0x6f, 0x87, 0x88, 0x93, 0x60, 0x74, 0x66,
  0x9d, 0x66, 0x74, 0x6e, 0x5b, 0x95, 0x9c, 0xa7, 0x89, 0x7f, 0x6c, 0x59,
  0xa9, 0xa9, 0x59, 0x83, 0xa4, 0x40, 0x6d, 0x6c, 0x5d, 0x66, 0x8e, 0x78,
  0x8e, 0x5d, 0x46, 0x5f, 0x51, 0x69, 0xa1, 0x81, 0x65, 0x90, 0x58, 0x7e,
  0x5e, 0x87, 0xa9, 0x72, 0x9e, 0x6f, 0x45, 0x43, 0x79, 0x5e, 0x7f, 0x58,
  0x6a, 0x91, 0x76, 0x79, 0x7c, 0x65, 0x7b, 0x4b, 0x88, 0x69, 0x78, 0x63,
  0x68, 0x9c, 0x8b, 0x68, 0x61, 0x88, 0x69, 0x88, 0x5f, 0x82, 0x4c, 0x42,
  0x62, 0x75, 0x49, 0x71, 0x98, 0x59, 0x96, 0x6b, 0x91, 0x76, 0x4f, 0x61,
  0x95, 0x83, 0x83, 0x62, 0x5c, 0xa9, 0x5f, 0x8c, 0x86, 0x63, 0x82, 0x79,
  0x99, 0x55, 0x8f, 0x68, 0x69, 0x81, 0x90, 0x82, 0x76, 0x69, 0x7d, 0x74,
  0x6f, 0x81, 0x86, 0x62, 0x84, 0x69, 0x64, 0x9d, 0x89, 0x54, 0x85, 0x48,
  0x4e, 0x53, 0x65, 0x4e, 0x94, 0x73, 0x89, 0x6a, 0x93, 0x85, 0x76, 0x52,
  0x66, 0xa0, 0x86, 0x4f, 0x7b, 0x4c, 0x71, 0x51, 0x99, 0x78, 0x88, 0x65,
  0x63, 0xb1, 0x7e, 0x63, 0x5f, 0x50, 0x75, 0x94, 0x80, 0x75, 0x43, 0x61,
  0x6d, 0x6e, 0x78, 0x63, 0x9d, 0x7c, 0x8b, 0x78, 0x87, 0x62, 0xa9, 0x83,
  0x53, 0x5f, 0x7a, 0x6d, 0x6e, 0x79, 0x8c, 0x51, 0x70, 0x73, 0x6d, 0x69,
  0x80, 0x75, 0x92, 0x9c, 0x75, 0xb0, 0x56, 0x7a, 0x51, 0x87, 0x7c, 0x72,
  0xa8, 0x94, 0x60, 0x84, 0x82, 0x94, 0x83, 0x75, 0x59, 0x8b, 0x70, 0x91,
  0x7a, 0x92, 0x64, 0x80, 0x7d, 0x69, 0x7c, 0x60, 0x58, 0x79, 0xa4, 0x62,
  0x8a, 0x65, 0x6d, 0x46, 0x6f, 0x71, 0x79, 0x6f, 0x63, 0x79, 0x46, 0x8f,
  0x5a, 0x99, 0x61, 0x8f, 0x8a, 0x8b, 0x61, 0x7e, 0x6c, 0xae, 0x7e, 0x63,
  0xa4, 0x75, 0x49, 0x5b, 0x7f, 0x6b, 0x78, 0x76, 0x5a, 0x99, 0x8b, 0x9b,
  0x90, 0x8a, 0x71, 0x8f, 0x65, 0x82, 0x5d, 0x67, 0x7c, 0x56, 0x84, 0x5f,
  0x7b, 0x84, 0x96, 0x84, 0x69, 0x8e, 0x78, 0x6d, 0x93, 0x8a, 0x56, 0x8c,
  0x88, 0x94, 0x92, 0x4c, 0x86, 0x80, 0x78, 0x6e, 0x70, 0xb1, 0x79, 0x83,
  0x6e, 0x6c, 0x7f, 0x6f, 0x92, 0xaf, 0x8e, 0x6f, 0x96, 0x46, 0x3d, 0x8e,
  0x85, 0x73, 0x59, 0x5d, 0x8f, 0x92, 0x8e, 0x47, 0x5d, 0x88, 0x56, 0x8f,
  0x82, 0x68, 0x8a, 0x7c, 0x6f, 0x84, 0x61, 0x4b, 0x80, 0x86, 0x51, 0x7f,
  0x7e, 0x94, 0x78, 0x70, 0x6d, 0x99, 0x82, 0x79, 0x77, 0x4f, 0x82, 0x61,
  0x78, 0x77, 0x84, 0x69, 0x5d, 0xa1, 0x63, 0x6f, 0x65, 0x88, 0x5b, 0x90,
  0x6b, 0x71, 0x5c, 0x51, 0x8a, 0x76, 0x73, 0x99, 0x92, 0x6f, 0x83, 0x95,
  0x71, 0x81, 0x45, 0x6c, 0x8b, 0x99, 0x9a, 0x64, 0x7f, 0x6a, 0x64, 0x60,
  0xa1, 0x95, 0x76, 0x8c, 0x93, 0xaf, 0x5b, 0x91, 0x9e, 0x76, 0x9a, 0x52,
  0x97, 0x99, 0x7c, 0x6f, 0x49, 0x7f, 0x77, 0x9b, 0x4e, 0x9d, 0x44, 0x4f,
  0x8d, 0x68, 0x98, 0x42, 0x6e, 0x5b, 0x72, 0x93, 0x9c, 0x79, 0x68, 0x3a,
  0x56, 0x73, 0x7d, 0x71, 0x6f, 0x74, 0x96, 0x69, 0x73, 0x75, 0x70, 0x96,
  0x8a, 0x74, 0x72, 0x77, 0x54, 0xa3, 0x8d, 0x5c, 0x94, 0x60, 0x82, 0x68,
  0x56, 0x60, 0x4f, 0x4e, 0x7e, 0x4b, 0x5b, 0x9e, 0x66, 0x6b, 0xa1, 0xa9,
  0x59, 0x7c, 0x84, 0x7b, 0x8c, 0x86, 0x8f, 0x70, 0x6d, 0x77, 0x95, 0x73,
  0x70, 0x49, 0x61, 0x47, 0x72, 0x99, 0x62, 0x6a, 0xa7, 0x7c, 0x66, 0x65,
  0x4c, 0x70, 0x6b, 0x8a, 0x9d, 0x7e, 0x81, 0x8b, 0x5e, 0x52, 0xa5, 0x47,
  0x95, 0x5d, 0x6c, 0x67, 0x95, 0x81, 0x94, 0x63, 0x75, 0x79, 0x7d, 0x72,
  0x94, 0xa8, 0x65, 0x84, 0x4d, 0x70, 0x5d, 0x74, 0x5b, 0x99, 0x62, 0x66,
  0x9d, 0x8d, 0x8a, 0x8f, 0x7d, 0x64, 0x63, 0x52, 0x7f, 0x69, 0x97, 0x8d,
  0x66, 0x42, 0x93, 0x46, 0x68, 0x9e, 0x7f, 0x78, 0x5d, 0x57, 0x83, 0x6a,
  0x87, 0x60, 0x78, 0xa0, 0x80, 0xb0, 0x7c, 0x77, 0x8a, 0x75, 0x5a, 0xa1,
  0x63, 0xaf, 0x65, 0xa1, 0x70, 0x6a, 0x72, 0x74, 0x9d, 0xa2, 0x9f, 0x78,
  0x7f, 0x5f, 0x72, 0x84, 0x6c, 0x9d, 0x96, 0x7d, 0xa2, 0x49, 0x98, 0x59,
  0x88, 0x61, 0x77, 0x7d, 0x87, 0x4e, 0x58, 0x46, 0x80, 0x93, 0x53, 0x80,
  0x95, 0x7c, 0x77, 0x60, 0x75, 0x8e, 0x66, 0x63, 0xa3, 0x94, 0x50, 0x5a,
  0x6d, 0x8e, 0x5d, 0x92, 0x82, 0x95, 0xa3, 0x53, 0x78, 0x6d, 0x63, 0x67,
  0x96, 0x5c, 0x7a, 0xa2, 0x70, 0x99, 0x8e, 0x84, 0x5e, 0x6b, 0x74, 0x8c,
  0x8c, 0x64, 0x7a, 0x53, 0x8d, 0x61, 0x84, 0x85, 0x61, 0x51, 0x73, 0x9a,
  0x7d, 0x6e, 0x65, 0x5e, 0x98, 0x69, 0x4e, 0x74, 0x7a, 0x90, 0x81, 0x54,
  0xac, 0x80, 0x8e, 0x53, 0x72, 0x65, 0x65, 0x66, 0x80, 0xa5, 0x73, 0x66,
  0x57, 0x60, 0x58, 0x51, 0x67, 0x81, 0x7c, 0x6d, 0x6f, 0x51, 0x73, 0x95,
  0x81, 0x8a, 0x6b, 0x6e, 0xa7, 0x86, 0x5b, 0x58, 0x95, 0x5d, 0x7a, 0x88,
  0x67, 0x7e, 0x8f, 0x8c, 0x91, 0xa1, 0x95, 0x99, 0x6f, 0x53, 0x87, 0x7c,
  0x85, 0x87, 0x82, 0x9d, 0x8e, 0x69, 0x7b, 0x9d, 0x5f, 0x96, 0x80, 0x7b,
  0x7f, 0x8d, 0x79, 0x90, 0x6e, 0x46, 0x66, 0x9e, 0x6d, 0x40, 0x70, 0x8d,
  0x91, 0x8d, 0x41, 0x6d, 0xb1, 0x91, 0x55, 0x62, 0x6b, 0x5b, 0x8b, 0x7f,
  0x91, 0xaa, 0x74, 0x93, 0x5a, 0x80, 0x5f, 0x94, 0x6e, 0x77, 0x68, 0x81,
  0x5f, 0x73, 0x80, 0x9a, 0x73, 0x6d, 0x82, 0x89, 0x98, 0x82, 0x76, 0x77,
  0x9d, 0x69, 0x93, 0x6b, 0x8f, 0x6a, 0x5a, 0x62, 0x93, 0x67, 0x47, 0x8a,
  0x7a, 0x83, 0x71, 0x8a, 0x6d, 0x97, 0x78, 0x5a, 0x66, 0x7c, 0x6a, 0x87,
  0x6a, 0x89, 0x73, 0x80, 0x77, 0x9c, 0x6c, 0x86, 0x7f, 0x66, 0x63, 0x9b,
  0x88, 0x4d, 0x96, 0x8e, 0x6e, 0x8a, 0x84, 0x59, 0x90, 0xa1, 0x72, 0x5e,
  0x55, 0x62, 0x8c, 0x77, 0x95, 0x60, 0x70, 0x87, 0x9f, 0x91, 0x66, 0x8c,
  0x7f, 0x74, 0x79, 0xab, 0x61, 0x78, 0x70, 0x6d, 0x4c, 0x8d, 0x98, 0x57,
  0x71, 0x81, 0x80, 0x9a, 0x4f, 0x7e, 0x4d, 0x6b, 0xa3, 0x69, 0x86, 0x82,
  0x86, 0x76, 0x91, 0x59, 0x8e, 0x67, 0x92, 0x6b, 0x95, 0x6a, 0x8a, 0x9b,
  0x4d, 0xa1, 0x4c, 0x6a, 0x6f, 0x8a, 0x88, 0x73, 0x82, 0x52, 0x80, 0x91,
  0x8b, 0x75, 0xb0, 0x8c, 0x92, 0x63, 0x6f, 0x4b, 0x55, 0x7b, 0x57, 0x47,
  0x8e, 0x85, 0x6b, 0x5e, 0x78, 0x5f, 0x57, 0x8f, 0x87, 0x9c, 0x3a, 0x42,
  0x7f, 0x9f, 0x93, 0x75, 0x84, 0x5f, 0x3b, 0x46, 0x51, 0x65, 0x57, 0x58,
  0x89, 0x9c, 0x75, 0x8b, 0x97, 0x8b, 0x73, 0x51, 0x5b, 0x62, 0x5a, 0x88,
  0x59, 0x92, 0x8b, 0x68, 0x80, 0x7d, 0x83, 0x4a, 0x9a, 0x90, 0x87, 0x71,
  0x8d, 0x87, 0x63, 0x72, 0x91, 0x9d, 0xa4, 0x5e, 0x76, 0x80, 0x7d, 0x67,
  0x8a, 0x75, 0x84, 0x6e, 0x56, 0x70, 0x70, 0x59, 0x7a, 0x83, 0x8c, 0x5c,
  0x92, 0x70, 0xa4, 0x90, 0x92, 0x56, 0x80, 0x66, 0x94, 0x6b, 0x83, 0x5b,
  0x5f, 0x5b, 0x6c, 0x89, 0x82, 0x51, 0x74, 0x87, 0x42, 0x7e, 0x67, 0x6b,
  0x8e, 0x78, 0x69, 0x55, 0x7b, 0x80, 0x71, 0x6f, 0x5d, 0x6c, 0xa7, 0x63,
  0x61, 0xac, 0x76, 0x7f, 0x68, 0x97, 0x64, 0x6e, 0x89, 0x68, 0x5b, 0x8f,
  0x8b, 0x8f, 0x58, 0x94, 0x7d, 0xaf, 0x4e, 0x54, 0x6a, 0x8f, 0x60, 0x50,
  0x54, 0x5f, 0x6a, 0x7e, 0x79, 0x72, 0x57, 0x67, 0x86, 0x90, 0x7a, 0x71,
  0x59, 0xae, 0x95, 0x6b, 0x65, 0x79, 0x9a, 0x75, 0x74, 0x87, 0xa4, 0x70,
  0x73, 0x8b, 0x94, 0x7c, 0x65, 0x8a, 0x62, 0x5c, 0x59, 0x85, 0x8a, 0x69,
  0x7b, 0x83, 0x8d, 0x79, 0x5e, 0x79, 0x8b, 0x46, 0x74, 0x9a, 0x76, 0x90,
  0x72, 0x51, 0x74, 0x68, 0x42, 0x88, 0x6e, 0x5e, 0x4c, 0xa5, 0xac, 0x8a,
  0x72, 0x7b, 0x4a, 0x8f, 0x89, 0x91, 0x70, 0x74, 0x49, 0x80, 0x58, 0x44,
  0x64, 0x80, 0x64, 0x53, 0x7b, 0x9d, 0x94, 0x7e, 0x75, 0x72, 0x72, 0x7b,
  0x73, 0x82, 0x53, 0x8c, 0x7c, 0x75, 0xac, 0x4f, 0x65, 0x7a, 0x66, 0x77,
  0x52, 0x85, 0x85, 0x9f, 0x59, 0x93, 0x75, 0x8d, 0x79, 0x79, 0x55, 0x76,
  0x57, 0x65, 0x7c, 0x80, 0x56, 0x75, 0x65, 0x5d, 0x98, 0x67, 0x65, 0x74,
  0x46, 0x7c, 0x7c, 0x6b, 0x43, 0x6f, 0x86, 0x5b, 0x6d, 0x6f, 0x4b, 0xa7,
  0x8d, 0xa1, 0xa5, 0x64, 0x59, 0x4f, 0xa7, 0x80, 0x60, 0x6c, 0x6c, 0x57,
  0x80, 0x9e, 0x73, 0x96, 0x4b, 0x83, 0x55, 0x7d, 0x93, 0x60, 0x53, 0x9c,
  0x75, 0x6a, 0x75, 0x82, 0x7d, 0xa6, 0x6e, 0x67, 0x93, 0x75, 0x65, 0x4e,
  0x96, 0x63, 0x98, 0x88, 0x9d, 0x5c, 0x71, 0x53, 0x7d, 0x94, 0x8e, 0x9e,
  0x72, 0x84, 0x4e, 0x8b, 0x7a, 0x80, 0x72, 0x46, 0xac, 0x67, 0x8c, 0x90,
  0x85, 0x7d, 0x85, 0xa5, 0x8e, 0x73, 0x5c, 0x9e, 0x76, 0x70, 0x72, 0x73,
  0x46, 0x70, 0x5b, 0x76, 0x4d, 0x65, 0x4c, 0x72, 0x51, 0x8d, 0x53, 0xa7,
  0x81, 0x5e, 0x50, 0x8f, 0x86, 0x99, 0x7e, 0x6c, 0x7b, 0x67, 0x9c, 0x7c,
  0x6b, 0x8e, 0x39, 0x95, 0x5a, 0x66, 0x41, 0x68, 0x9b, 0x6f, 0x77, 0x62,
  0x9c, 0x71, 0xa2, 0x75, 0x52, 0x54, 0x65, 0x9e, 0x78, 0x63, 0x76, 0x77,
  0x90, 0x4b, 0x5c, 0xa9, 0x75, 0x68, 0x77, 0x62, 0x73, 0x74, 0x4c, 0x98,
  0x93, 0x96, 0x99, 0x97, 0x90, 0x5d, 0x48, 0x94, 0x3f, 0x83, 0x59, 0x71,
  0x55, 0x63, 0x77, 0x82, 0x60, 0x8c, 0x8d, 0x6c, 0x78, 0x7b, 0x8f, 0x81,
  0x94, 0x90, 0x7b, 0x84, 0x66, 0x90, 0x7c, 0x5a, 0x55, 0x62, 0x9f, 0x86,
  0x54, 0x59, 0x7d, 0x7b, 0x67, 0x7e, 0x76, 0x4b, 0x71, 0x66, 0x8b, 0x73,
  0x62, 0x8b, 0x89, 0x74, 0x8b, 0x67, 0x7d, 0xaf, 0x60, 0x87, 0x82, 0x88,
  0x7a, 0x67, 0x96, 0x65, 0x72, 0x6a, 0xa6, 0x93, 0x65, 0x9d, 0x79, 0x64,
  0x71, 0x65, 0x9c, 0x98, 0x6a, 0x24, 0x81, 0x7c, 0x76, 0x65, 0x83, 0x89,
  0xa8, 0x7c, 0x5d, 0x8d, 0x75, 0x67, 0x90, 0x8c, 0x8a, 0x83, 0x82, 0x5b,
  0x67, 0x6c, 0x55, 0x86, 0x97, 0x4d, 0x67, 0x74, 0x65, 0x69, 0x9a, 0x96,
  0x81, 0x4e, 0x66, 0x85, 0x72, 0xa7, 0x60, 0x7c, 0x61, 0x65, 0x52, 0x5a,
  0x79, 0x51, 0x86, 0x71, 0x7f, 0x4a, 0x6c, 0xac, 0x76, 0x8a, 0xae, 0x97,
  0x81, 0x80, 0x6a, 0x95, 0x7d, 0x7f, 0x96, 0x82, 0x6f, 0x7a, 0x74, 0x6e,
  0x6d, 0x7a, 0x60, 0x97, 0x55, 0x4a, 0x66, 0x67, 0x6a, 0x78, 0x61, 0x7f,
  0x98, 0x4d, 0x76, 0x7d, 0x7c, 0x87, 0x73, 0x8b, 0x66, 0x59, 0x9d, 0xa7,
  0x62, 0x5c, 0x9c, 0x92, 0x69, 0x60, 0x91, 0x7c, 0x5a, 0x93, 0x9b, 0x87,
  0x7e, 0x3f, 0x3e, 0x79, 0x6d, 0x8f, 0x69, 0xa2, 0x5d, 0x4c, 0x5d, 0x74,
  0x76, 0x57, 0x49, 0x92, 0x76, 0x3c, 0x6f, 0x78, 0x81, 0x6e, 0x6b, 0xa3,
  0x67, 0x15, 0x6e, 0x7a, 0x6e, 0x80, 0x90, 0xae, 0x74, 0x8e, 0x78, 0x98,
  0x78, 0x4e, 0x98, 0x8d, 0x84, 0x6b, 0x44, 0x4d, 0x63, 0x8c, 0x87, 0x76,
  0x88, 0x67, 0xbf, 0x4b, 0x65, 0x71, 0x79, 0xa4, 0xa3, 0x31, 0x66, 0x76,
  0x7e, 0x78, 0x81, 0x7f, 0x8f, 0x4d, 0x4a, 0x71, 0x84, 0x6b, 0x57, 0x9a,
  0x6d, 0x72, 0x6e, 0x7d, 0x76, 0x7d, 0x78, 0x83, 0x4b, 0x90, 0x75, 0x7e,
  0x73, 0x93, 0x91, 0x7c, 0x7a, 0x78, 0x69, 0x81, 0x74, 0x91, 0x70, 0x84,
  0x6e, 0x71, 0x65, 0x7d, 0x7d, 0x94, 0x83, 0x9f, 0x78, 0x67, 0x42, 0x8b,
  0x7a, 0x61, 0x74, 0x7e, 0x64, 0x5f, 0x71, 0x8a, 0xa4, 0x74, 0x44, 0xbb,
  0x81, 0x61, 0x75, 0x8d, 0x9f, 0x44, 0x5d, 0xa6, 0xab, 0x43, 0x6f, 0x91,
  0x87, 0x79, 0x42, 0xc2, 0x92, 0x50, 0x7b, 0x7c, 0xad, 0x79, 0x70, 0xa9,
  0x53, 0x76, 0x62, 0x81, 0x94, 0x6d, 0xa1, 0xc7, 0x71, 0x96, 0x90, 0x92,
  0xac, 0x41, 0x79, 0xab, 0x53, 0x25, 0x94, 0x97, 0xa2, 0x99, 0x83, 0xa3,
  0x61, 0x2c, 0x74, 0xa3, 0xa9, 0x5a, 0x42, 0xce, 0x44, 0x36, 0x5a, 0xc3,
  0xa2, 0x5a, 0x6e, 0x9a, 0x5e, 0x17, 0x60, 0xac, 0x7c, 0x98, 0x63, 0x9d,
  0x78, 0x81, 0x9b, 0x86, 0x7e, 0x68, 0x44, 0x5e, 0x71, 0x93, 0x6e, 0x6f,
  0x87, 0x53, 0x70, 0x67, 0x80, 0x70, 0x8f, 0x62, 0x8f, 0x63, 0x4b, 0x7e,
  0x76, 0x57, 0x8a, 0x62, 0x82, 0x76, 0x59, 0x51, 0x67, 0x3e, 0x89, 0x78,
  0x5c, 0x7d, 0x89, 0x84, 0x43, 0x5f, 0x81, 0x73, 0x64, 0x5f, 0x5b, 0x91,
  0x91, 0x6c, 0x78, 0x75, 0x65, 0x78, 0x62, 0x73, 0x74, 0x58, 0x79, 0x68,
  0x74, 0x6b, 0x65, 0x7a, 0xa7, 0x65, 0x88, 0x61, 0x8e, 0x98, 0xa0, 0x6d,
  0x94, 0x6b, 0x88, 0x71, 0x6e, 0x58, 0x75, 0x77, 0x96, 0x46, 0x95, 0x76,
  0x7a, 0x72, 0x7f, 0x85, 0x73, 0x4c, 0x7e, 0x76, 0x8b, 0x5d, 0x60, 0x7b,
  0x5c, 0x5f, 0x7c, 0x91, 0x80, 0x60, 0x77, 0x9d, 0x59, 0x65, 0x5a, 0x7d,
  0x89, 0x84, 0x99, 0x82, 0x75, 0x7b, 0x97, 0x94, 0x71, 0x8d, 0x81, 0x91,
  0x76, 0x86, 0x53, 0x73, 0x69, 0x6a, 0x65, 0x82, 0x58, 0x5b, 0x80, 0x73,
  0x88, 0x74, 0x42, 0x8e, 0x67, 0x1c, 0x6e, 0x8d, 0x96, 0x90, 0x68, 0x91,
  0x80, 0x74, 0x5f, 0xae, 0x8b, 0x92, 0xc2, 0x7a, 0x65, 0x01, 0x7a, 0x9a,
  0xa4, 0x83, 0x9a, 0x99, 0x96, 0x92, 0x9e, 0x9c, 0x7d, 0x71, 0x3b, 0x48,
  0x5b, 0x96, 0x95, 0x56, 0x8f, 0x83, 0x75, 0x6c, 0x63, 0x67, 0x94, 0x67,
  0x7a, 0x5d, 0x55, 0x4e, 0x70, 0x56, 0x9b, 0x59, 0x6e, 0x5f, 0x72, 0x85,
  0xa9, 0x44, 0x87, 0x45, 0x53, 0x6a, 0x87, 0x62, 0x89, 0x64, 0x7b, 0x6b,
  0x5b, 0x65, 0x96, 0x64, 0x4c, 0x97, 0x6f, 0x5a, 0x5a, 0x8e, 0xa5, 0x5e,
  0x62, 0x8f, 0x9a, 0x7e, 0x53, 0xa6, 0x51, 0x6b, 0x89, 0x73, 0x92, 0x63,
  0x5e, 0x95, 0x9b, 0x4c, 0x70, 0x6d, 0x8a, 0x90, 0x3e, 0x56, 0x6f, 0x86,
  0x7a, 0xa9, 0x9b, 0x81, 0x47, 0x6b, 0x68, 0x63, 0xa6, 0x68, 0x76, 0x93,
  0x4e, 0x68, 0x66, 0x5d, 0x56, 0x5c, 0x79, 0x97, 0x70, 0x75, 0x4a, 0x80,
  0x53, 0x6c, 0x8f, 0x92, 0x83, 0x74, 0x71, 0x77, 0x77, 0x6e, 0x72, 0x83,
  0x4e, 0x6e, 0x82, 0x62, 0x72, 0x9c, 0x75, 0x8a, 0x48, 0x7b, 0x74, 0x6d,
  0x6b, 0x80, 0x82, 0x9b, 0x5c, 0x57, 0x64, 0x67, 0x77, 0x40, 0x50, 0x9f,
  0x82, 0x70, 0x9d, 0x6f, 0x88, 0x58, 0x78, 0xb0, 0x78, 0xac, 0xa5, 0x7b,
  0x8f, 0x0a, 0x8e, 0xb0, 0x68, 0xaa, 0x97, 0x97, 0xa2, 0x6a, 0xbf, 0xba,
  0x7c, 0x84, 0x59, 0x50, 0x78, 0x6a, 0x83, 0x6b, 0xb9, 0x90, 0x5b, 0x68,
  0x66, 0x73, 0x96, 0x54, 0x87, 0x53, 0x3d, 0x80, 0x60, 0x6d, 0x84, 0x3a,
  0x7f, 0x69, 0x5b, 0x80, 0xb0, 0x99, 0xa1, 0x4a, 0x66, 0x66, 0x65, 0x69,
  0x94, 0x74, 0x7f, 0x6a, 0x60, 0x62, 0x61, 0x97, 0x8f, 0x62, 0x63, 0x67,
  0x77, 0x6a, 0x8c, 0x8f, 0x78, 0x99, 0x87, 0x84, 0x4e, 0x9b, 0x97, 0x87,
  0xa6, 0x53, 0x7d, 0x66, 0x6a, 0x9f, 0x52, 0x71, 0xa5, 0x85, 0x80, 0x5f,
  0x61, 0x98, 0x72, 0x56, 0x66, 0x87, 0x81, 0x94, 0x71, 0x4e, 0x5f, 0x59,
  0x75, 0x51, 0x7e, 0x94, 0x56, 0x4b, 0x7c, 0x6f, 0x91, 0x86, 0x71, 0x97,
  0x52, 0xa1, 0x6b, 0x8d, 0x8f, 0x6d, 0x93, 0xa6, 0x81, 0x90, 0x31, 0x7e,
  0x89, 0x49, 0x97, 0x96, 0x4b, 0x6e, 0x33, 0x68, 0x60, 0x6c, 0x88, 0x8f,
  0x59, 0x50, 0x89, 0x75, 0x97, 0x73, 0x7b, 0xac, 0x59, 0x82, 0x97, 0x71,
  0x88, 0x7a, 0x78, 0x96, 0x40, 0x53, 0x69, 0x8b, 0x74, 0x84, 0x7d, 0xd8,
  0x85, 0x8c, 0xba, 0x76, 0x57, 0x2b, 0xc1, 0xd5, 0x8f, 0x6a, 0x98, 0x9b,
  0x76, 0x7c, 0xcb, 0xe5, 0x8e, 0x6d, 0x4b, 0x88, 0x55, 0x76, 0x8b, 0x59,
  0x97, 0xa1, 0x64, 0x6b, 0x98, 0x94, 0xa2, 0x64, 0x85, 0x4d, 0x86, 0x79,
  0x43, 0x90, 0x90, 0x5c, 0xa6, 0x83, 0x4f, 0x65, 0x66, 0x79, 0x6d, 0x71,
  0x77, 0x5d, 0x84, 0x59, 0x58, 0x65, 0x6a, 0x6c, 0x72, 0x56, 0x6a, 0x7b,
  0x88, 0x51, 0x98, 0x53, 0x70, 0x95, 0x5b, 0x69, 0x8c, 0x74, 0x70, 0x78,
  0x45, 0x89, 0x6a, 0x52, 0x7d, 0x66, 0x91, 0x6c, 0x78, 0x7f, 0x84, 0x64,
  0x81, 0x6f, 0x62, 0x66, 0x6d, 0x6a, 0x97, 0x62, 0x5d, 0x69, 0xa0, 0x70,
  0x4c, 0x87, 0x44, 0x8c, 0x98, 0x6d, 0x6d, 0x87, 0x9a, 0x94, 0x6b, 0x88,
  0x85, 0x52, 0x6a, 0xa6, 0x71, 0x41, 0x5e, 0x85, 0x5b, 0xa0, 0x86, 0x8a,
  0x53, 0x57, 0x88, 0x7b, 0x5b, 0x91, 0x77, 0x7b, 0x4b, 0x6f, 0x78, 0x91,
  0x6c, 0x90, 0x84, 0x87, 0x44, 0x8f, 0x59, 0x72, 0x7b, 0x88, 0x87, 0x85,
  0x85, 0x88, 0x73, 0x74, 0xa4, 0x53, 0x90, 0xb8, 0x95, 0xb1, 0x8a, 0x7f,
  0x59, 0x2a, 0x8c, 0xbe, 0x85, 0x8f, 0x81, 0x96, 0x86, 0x20, 0x9b, 0xe6,
  0x5f, 0xa4, 0xae, 0xa9, 0x89, 0x6d, 0x79, 0xf6, 0x70, 0x82, 0x6a, 0x7d,
  0x4d, 0x79, 0x6f, 0x33, 0x99, 0x60, 0x48, 0x54, 0xa2, 0x97, 0x80, 0x5a,
  0x9b, 0x68, 0xac, 0x68, 0x4c, 0x58, 0x7c, 0x3d, 0xa4, 0x54, 0xa4, 0x44,
  0xad, 0x6d, 0x99, 0x61, 0xb0, 0x67, 0x8b, 0x89, 0x95, 0x6c, 0x6a, 0x68,
  0x74, 0x89, 0x80, 0x5f, 0x4f, 0x66, 0x93, 0x6a, 0x5b, 0x7e, 0x62, 0x5a,
  0x97, 0x86, 0x80, 0x65, 0x6b, 0x64, 0x84, 0x5d, 0xaf, 0x7a, 0x83, 0x5e,
  0x6a, 0x5c, 0x76, 0x63, 0x78, 0x94, 0x85, 0x70, 0x9f, 0x66, 0x52, 0x6d,
  0x9d, 0x90, 0xa2, 0x6b, 0x70, 0x5b, 0x51, 0x79, 0x8c, 0x9c, 0x74, 0x8e,
  0x49, 0x8b, 0x4e, 0x9a, 0x8f, 0x6c, 0x78, 0x93, 0x64, 0x94, 0x4f, 0x9c,
  0x96, 0x54, 0x90, 0x90, 0x82, 0x94, 0x7f, 0x83, 0x51, 0x81, 0x72, 0x81,
  0x59, 0x7d, 0x4f, 0x78, 0x6f, 0x90, 0x81, 0x97, 0x33, 0x7f, 0x63, 0x6b,
  0x5e, 0x85, 0x6e, 0x91, 0x69, 0x9e, 0x71, 0x96, 0x87, 0xa2, 0x9d, 0x91,
  0x54, 0x86, 0x91, 0x78, 0x60, 0x58, 0xc1, 0x9e, 0x97, 0x97, 0x9d, 0x98,
  0x70, 0x11, 0xb9, 0xd6, 0x91, 0x75, 0x97, 0x89, 0x47, 0x7a, 0x9f, 0xf9,
  0x82, 0x8a, 0x5a, 0x60, 0x84, 0x60, 0x9c, 0x54, 0x89, 0x69, 0x8b, 0x68,
  0x92, 0x56, 0x6d, 0x53, 0xa4, 0x61, 0x69, 0x61, 0x97, 0x54, 0x80, 0x63,
  0x9a, 0xa1, 0x85, 0x3b, 0x7b, 0x8f, 0x80, 0x5c, 0x7c, 0xa8, 0xa2, 0x4d,
  0x78, 0x82, 0x67, 0x9a, 0x81, 0x71, 0x84, 0x58, 0x52, 0x68, 0x96, 0x51,
  0x88, 0x6a, 0x95, 0x52, 0x67, 0x7d, 0x95, 0x6a, 0x99, 0x8f, 0x5c, 0x63,
  0x7c, 0x62, 0x71, 0x53, 0x7b, 0xb1, 0x65, 0x72, 0x8f, 0x6e, 0x71, 0x4b,
  0x61, 0x92, 0x7c, 0x7f, 0x7c, 0x6a, 0x8f, 0x70, 0x84, 0x60, 0x80, 0x64,
  0x8e, 0x60, 0x92, 0x7c, 0x7e, 0x74, 0x87, 0x5a, 0x7c, 0x77, 0x62, 0x93,
  0x6a, 0x80, 0x7f, 0x7e, 0x61, 0x72, 0x82, 0x84, 0x6e, 0x67, 0x79, 0x7c,
  0x52, 0xa8, 0x80, 0x81, 0x99, 0x96, 0x82, 0x87, 0x53, 0x77, 0x63, 0x5c,
  0x63, 0x4b, 0x7b, 0x6f, 0xa8, 0x55, 0x71, 0x8b, 0x52, 0x7f, 0x7b, 0x8a,
  0x73, 0x61, 0x7f, 0x8d, 0x54, 0x9e, 0x9e, 0x68, 0x77, 0x4c, 0x90, 0xbd,
  0x6e, 0x6a, 0x7e, 0x86, 0x85, 0x25, 0x77, 0xe1, 0x5c, 0xa3, 0x5a, 0x80,
  0x81, 0x81, 0x95, 0xf0, 0x7e, 0x69, 0x45, 0x91, 0x9c, 0x59, 0x80, 0x53,
  0x76, 0x51, 0x72, 0x51, 0x3f, 0x85, 0x79, 0x88, 0x7d, 0x89, 0x7c, 0x7d,
  0x75, 0x73, 0x81, 0x7c, 0x80, 0x76, 0x90, 0x6d, 0x64, 0x87, 0x6a, 0x66,
  0xad, 0x6c, 0x82, 0x59, 0x7a, 0xa1, 0x73, 0x78, 0x9f, 0x8c, 0x80, 0x80,
  0x72, 0x43, 0x79, 0x76, 0x85, 0x55, 0x7b, 0x4d, 0x72, 0x8d, 0x9a, 0x86,
  0x54, 0x7e, 0x8d, 0x7c, 0x74, 0x6d, 0x60, 0x73, 0x7b, 0x8e, 0x7e, 0x6f,
  0x4d, 0x72, 0x9b, 0x5d, 0x63, 0x8d, 0x54, 0x5a, 0x4b, 0x9b, 0x84, 0x6b,
  0x68, 0x6f, 0x75, 0x96, 0x76, 0x7d, 0x7d, 0x81, 0x82, 0x8b, 0x65, 0x8c,
  0x80, 0x46, 0x56, 0x76, 0x68, 0x8d, 0x5a, 0x86, 0x72, 0x5b, 0x49, 0x5e,
  0xa1, 0xa9, 0x6b, 0x9b, 0x74, 0x97, 0x5b, 0x7e, 0x8a, 0x9d, 0x7e, 0x8c,
  0x71, 0x86, 0x6c, 0x50, 0x6c, 0x6f, 0x59, 0x79, 0x8e, 0x6b, 0x5a, 0x64,
  0x66, 0x59, 0x52, 0x81, 0x8c, 0x3b, 0x8f, 0x67, 0x33, 0x8c, 0x89, 0x9e,
  0x6c, 0x97, 0x7c, 0x8d, 0x6d, 0x84, 0x8f, 0x8c, 0x71, 0x46, 0x78, 0xe5,
  0x68, 0x91, 0x9f, 0x95, 0x8e, 0x89, 0x90, 0xda, 0x74, 0x9e, 0x5e, 0x6b,
  0xa9, 0x88, 0x7b, 0x5f, 0x92, 0x66, 0x72, 0x69, 0x5c, 0x91, 0x97, 0x55,
  0x8e, 0x53, 0x79, 0x9c, 0x89, 0x6f, 0x9c, 0x6a, 0x7f, 0x71, 0x7f, 0x39,
  0x88, 0xc8, 0x7a, 0x62, 0x7a, 0x72, 0xa1, 0x73, 0x83, 0x88, 0x81, 0x6c,
  0x69, 0x8c, 0x8e, 0x6f, 0x8e, 0x60, 0x5c, 0xab, 0x6c, 0x9d, 0x7d, 0x7c,
  0x7d, 0x62, 0x9e, 0x7f, 0x6d, 0x7e, 0x96, 0x98, 0x68, 0x8e, 0x6a, 0x7c,
  0x8a, 0x71, 0xaf, 0x73, 0x62, 0x81, 0x76, 0x81, 0x7e, 0x7c, 0x66, 0x59,
  0x86, 0x6a, 0x7e, 0x96, 0x6d, 0x47, 0x96, 0x7d, 0x7a, 0x8c, 0x79, 0x71,
  0x7d, 0x6f, 0x52, 0x75, 0x98, 0x90, 0x73, 0x76, 0x75, 0xab, 0x46, 0x95,
  0x54, 0x8a, 0x68, 0x8c, 0x63, 0x8b, 0x80, 0x72, 0x53, 0x69, 0x7f, 0x63,
  0x80, 0x6b, 0x5e, 0x78, 0x89, 0x7a, 0x83, 0x82, 0x4e, 0x78, 0x5b, 0x93,
  0x67, 0x5d, 0x74, 0x6d, 0x3c, 0x77, 0x82, 0x96, 0x6a, 0x7c, 0x75, 0x99,
  0x4b, 0x8d, 0x6b, 0x95, 0x6a, 0x54, 0x8a, 0xb8, 0x80, 0x5f, 0xa1, 0x84,
  0x97, 0x52, 0x73, 0xda, 0xa6, 0x69, 0x76, 0x97, 0x4f, 0x85, 0x8b, 0xa2,
  0x6f, 0x7c, 0x7e, 0x78, 0x67, 0x4e, 0x76, 0x46, 0x96, 0x59, 0x6f, 0x51,
  0x48, 0x89, 0x7e, 0x7d, 0x98, 0x84, 0x88, 0x82, 0x5c, 0x7e, 0x71, 0x76,
  0x78, 0x81, 0x74, 0x67, 0x6e, 0x7d, 0x4c, 0x7e, 0x9e, 0x44, 0x7f, 0x5a,
  0x9b, 0x82, 0x6c, 0x82, 0x79, 0x5f, 0x83, 0x57, 0x88, 0x7f, 0x7f, 0x8e,
  0x5a, 0x77, 0xa2, 0x83, 0x84, 0x4f, 0x99, 0x6a, 0x88, 0x58, 0xb0, 0x85,
  0x50, 0x9b, 0x85, 0x63, 0x89, 0xab, 0x55, 0x78, 0x57, 0x7d, 0x7d, 0xa4,
  0x81, 0x4d, 0x82, 0x4b, 0xa1, 0x9a, 0x63, 0x83, 0x8e, 0x66, 0x89, 0xa7,
  0x78, 0x80, 0x7f, 0x7c, 0x79, 0x71, 0x59, 0x74, 0x97, 0x93, 0x71, 0x7c,
  0x75, 0x84, 0x5f, 0x7d, 0x73, 0x98, 0x79, 0x69, 0x94, 0x78, 0x8b, 0x62,
  0x73, 0x7a, 0x70, 0x6e, 0x8f, 0x60, 0x65, 0x76, 0x8b, 0x97, 0x6d, 0x7f,
  0x51, 0x6f, 0x46, 0x70, 0x92, 0x9f, 0x80, 0x6b, 0x4d, 0x42, 0x68, 0x5d,
  0x5a, 0x80, 0xa9, 0x72, 0x45, 0x59, 0x64, 0x75, 0x73, 0x70, 0x94, 0xae,
  0x4f, 0x61, 0xb9, 0x78, 0x56, 0x3a, 0x83, 0xc2, 0x9e, 0x6c, 0x7e, 0xa8,
  0x61, 0xa6, 0x7b, 0x8f, 0x63, 0x61, 0x8b, 0x9a, 0xae, 0x84, 0x73, 0x49,
  0x80, 0x68, 0x8d, 0x5c, 0xa9, 0x91, 0x8e, 0x5b, 0x74, 0x69, 0xa9, 0x7d,
  0x8b, 0x93, 0x5f, 0xa5, 0x86, 0x93, 0x98, 0x5f, 0x4b, 0xad, 0x71, 0x88,
  0x7a, 0x63, 0x8a, 0x4f, 0xa3, 0x76, 0x6c, 0x89, 0x6c, 0xae, 0xad, 0x7e,
  0x62, 0x86, 0x87, 0x75, 0x92, 0x58, 0x93, 0x65, 0x80, 0x92, 0x7b, 0x73,
  0x76, 0x89, 0x9d, 0x76, 0xaf, 0x6c, 0x84, 0x4f, 0x9a, 0x7c, 0x6b, 0x75,
  0x4e, 0x8f, 0x7f, 0x94, 0x74, 0x4d, 0x78, 0x7c, 0x72, 0xa3, 0x73, 0x8a,
  0x85, 0x7f, 0x97, 0x7e, 0x81, 0x9e, 0x69, 0x9a, 0x86, 0xa5, 0x6f, 0x78,
  0x3f, 0x95, 0x81, 0x7e, 0x74, 0x86, 0x76, 0x9d, 0xab, 0x85, 0x88, 0x82,
  0x95, 0x8a, 0x78, 0x97, 0x58, 0x7f, 0x6e, 0x4e, 0x70, 0xaa, 0x7c, 0x88,
  0x74, 0xa7, 0x69, 0x6f, 0x88, 0x50, 0x89, 0x5d, 0x69, 0xa3, 0x76, 0x8c,
  0x86, 0x77, 0x4e, 0x74, 0x7e, 0x71, 0x8a, 0x80, 0x34, 0x90, 0x7a, 0x65,
  0x95, 0x55, 0x96, 0x89, 0x50, 0x8e, 0xa3, 0x9f, 0x8f, 0x4c, 0x7e, 0x9a,
  0x57, 0x5f, 0x9a, 0xae, 0x7c, 0x82, 0x7f, 0xaf, 0x84, 0x49, 0x51, 0x92,
  0x77, 0x7b, 0x82, 0x47, 0x78, 0x7d, 0x6b, 0x7e, 0x98, 0x9b, 0x81, 0x77,
  0x7c, 0x5a, 0x93, 0x8f, 0x91, 0x64, 0x72, 0x5b, 0xa4, 0x75, 0x78, 0x61,
  0xb4, 0x96, 0x7f, 0x67, 0x70, 0x86, 0x96, 0x64, 0x64, 0x82, 0x7f, 0x6a,
  0xb5, 0x48, 0x95, 0x4c, 0x9d, 0x83, 0x72, 0x9b, 0x95, 0x86, 0x7a, 0x5d,
  0x80, 0x8a, 0x73, 0x79, 0x8f, 0x70, 0x71, 0x8b, 0x5d, 0x5f, 0x81, 0x83,
  0x69, 0x8b, 0x60, 0x7b, 0x3f, 0x7f, 0x70, 0x65, 0x69, 0x68, 0xa9, 0x76,
  0x5d, 0xab, 0x74, 0x62, 0x77, 0x59, 0x89, 0x84, 0x4c, 0x57, 0x82, 0x6a,
  0x95, 0x75, 0x7e, 0x85, 0x80, 0x73, 0x71, 0x94, 0xa2, 0x45, 0x93, 0xa6,
  0x7a, 0x8d, 0x6a, 0x73, 0x7a, 0x59, 0x75, 0x60, 0x89, 0x96, 0x78, 0x8e,
  0x78, 0x9e, 0x72, 0x9f, 0x6e, 0x7d, 0x82, 0x8c, 0x86, 0x6d, 0x7e, 0x61,
  0x7c, 0x89, 0x7f, 0x5e, 0x5e, 0x73, 0x63, 0x91, 0x67, 0xa0, 0x7a, 0x86,
  0x62, 0x75, 0x72, 0x84, 0x7a, 0x69, 0x86, 0x7b, 0x5d, 0x5f, 0xa3, 0x7c,
  0x62, 0x28, 0x8d, 0xb3, 0x64, 0x5e, 0xbb, 0x91, 0x63, 0x81, 0x93, 0x94,
  0x65, 0x9c, 0x7f, 0x9c, 0x83, 0x8b, 0x83, 0x5a, 0x7c, 0x73, 0x7a, 0x71,
  0x64, 0x5f, 0x6c, 0x7b, 0x95, 0x64, 0x9f, 0xb1, 0x62, 0x7b, 0x75, 0x65,
  0xa2, 0x74, 0x89, 0x6a, 0x4b, 0xa3, 0x70, 0xa0, 0x8c, 0x81, 0xa5, 0x5b,
  0x5d, 0x97, 0x76, 0x8a, 0x8d, 0x85, 0x68, 0x63, 0x9e, 0x64, 0x7c, 0x8c,
  0x69, 0x52, 0xb2, 0x7c, 0x80, 0x9c, 0x87, 0x76, 0x73, 0x84, 0x68, 0x70,
  0x47, 0x7c, 0x8e, 0x67, 0x8a, 0x67, 0x4d, 0x8e, 0x6f, 0x96, 0x71, 0x9c,
  0x95, 0x75, 0xa1, 0x76, 0x70, 0x6f, 0x81, 0x79, 0x8c, 0x6e, 0x9e, 0x66,
  0x96, 0x57, 0x93, 0x82, 0x73, 0x69, 0x91, 0x85, 0x8e, 0x82, 0x9c, 0x9c,
  0x71, 0x84, 0x61, 0xa1, 0x4f, 0x8e, 0x7a, 0x88, 0x8f, 0x75, 0x99, 0x63,
  0x8a, 0x8e, 0x85, 0x59, 0x89, 0x74, 0x8b, 0xad, 0x6f, 0x99, 0x7c, 0x51,
  0x87, 0x8d, 0x78, 0x9a, 0x89, 0xa3, 0x82, 0x63, 0x5f, 0x9d, 0x58, 0x82,
  0x73, 0x5c, 0x70, 0x6a, 0x33, 0x74, 0xaf, 0x7c, 0x76, 0x4b, 0x8d, 0x98,
  0x4c, 0x74, 0xa0, 0x9d, 0x6b, 0x57, 0x70, 0xb7, 0x6e, 0x71, 0x8d, 0x96,
  0x9b, 0x80, 0x9f, 0x96, 0x4f, 0x60, 0xa7, 0xa1, 0x6e, 0x72, 0x8f, 0x90,
  0x8f, 0x6a, 0x82, 0x82, 0x63, 0x8a, 0x78, 0x6c, 0x96, 0x83, 0x6e, 0x9e,
  0x67, 0x69, 0x56, 0x82, 0x83, 0x7c, 0x77, 0x7c, 0x62, 0xc3, 0x72, 0x71,
  0x9d, 0x8a, 0x8c, 0x55, 0x71, 0x6a, 0x6a, 0x96, 0x7e, 0xab, 0x99, 0x54,
  0xa9, 0x52, 0x87, 0x86, 0x76, 0x58, 0x9a, 0x5f, 0x8a, 0x6b, 0x84, 0x5f,
  0x72, 0x49, 0x64, 0x7c, 0x9b, 0x95, 0x84, 0x8d, 0x8a, 0x63, 0x87, 0x84,
  0x72, 0xb1, 0x7e, 0x79, 0x81, 0x89, 0x93, 0x6f, 0x61, 0x65, 0x7d, 0x91,
  0x90, 0x80, 0x73, 0x6c, 0x6e, 0x6d, 0x7c, 0x5f, 0x90, 0x82, 0x7d, 0x70,
  0xa7, 0x6a, 0x7b, 0x94, 0x6e, 0xab, 0x92, 0x5b, 0x85, 0x6c, 0x79, 0x95,
  0x71, 0x97, 0xa1, 0x66, 0x4f, 0x76, 0x6e, 0x7b, 0x7e, 0x71, 0x5c, 0x5e,
  0x7b, 0x67, 0x65, 0x85, 0x6d, 0x61, 0x97, 0x95, 0x7b, 0x74, 0x73, 0x92,
  0x68, 0x53, 0x59, 0x94, 0x52, 0x78, 0xa1, 0x70, 0x86, 0x7f, 0x7b, 0x76,
  0x91, 0x64, 0xa7, 0x9a, 0x3e, 0x9b, 0x99, 0x9f, 0x63, 0x38, 0x8b, 0x77,
  0x75, 0x7e, 0xa2, 0x79, 0x64, 0x78, 0x6a, 0xa0, 0x73, 0x85, 0x63, 0x83,
  0x99, 0x51, 0x5e, 0x3e, 0x70, 0x82, 0x56, 0x63, 0x72, 0x79, 0x7a, 0x85,
  0x82, 0x82, 0x94, 0x69, 0x94, 0x62, 0x5e, 0xa1, 0xa2, 0x80, 0x67, 0x5f,
  0x76, 0x86, 0x57, 0x83, 0x91, 0x7a, 0xad, 0x78, 0x9b, 0x87, 0x78, 0x92,
  0x8f, 0x55, 0x9d, 0x78, 0x74, 0x83, 0x5d, 0x7d, 0x86, 0x80, 0x92, 0x78,
  0x7e, 0x69, 0x82, 0x75, 0x79, 0x9f, 0xb7, 0x8a, 0x6f, 0x9c, 0x89, 0x83,
  0x79, 0x66, 0x99, 0x8d, 0x72, 0xbc, 0x69, 0x92, 0x91, 0x72, 0x80, 0x9e,
  0x87, 0x6a, 0x74, 0x5a, 0x7c, 0x70, 0x71, 0x7e, 0x80, 0x74, 0x6d, 0x88,
  0x62, 0x94, 0x9b, 0x5a, 0x75, 0x4a, 0x8a, 0x5d, 0x7e, 0x67, 0x79, 0x89,
  0x62, 0x87, 0x6f, 0x63, 0x80, 0x5b, 0x88, 0x8a, 0x99, 0x53, 0x84, 0x7b,
  0xa6, 0x52, 0x74, 0x7a, 0x4f, 0x70, 0x6f, 0x7a, 0x63, 0x8b, 0x5f, 0x89,
  0x5a, 0x74, 0x7e, 0x7c, 0x5c, 0x94, 0x9a, 0x9c, 0x84, 0x6e, 0x97, 0x98,
  0x7b, 0x8a, 0xa0, 0x7f, 0x5d, 0x59, 0x82, 0xa7, 0x4f, 0x64, 0xa7, 0x8e,
  0x77, 0x40, 0x91, 0xaa, 0x7a, 0x65, 0x78, 0xaa, 0x69, 0x66, 0x87, 0x94,
  0x67, 0x80, 0x63, 0x79, 0xa1, 0x87, 0x70, 0x3b, 0x81, 0x79, 0x94, 0x74,
  0x99, 0x47, 0x67, 0x4f, 0x98, 0x94, 0x80, 0x63, 0x67, 0x7f, 0x67, 0x97,
  0xad, 0x60, 0x8d, 0x7d, 0x74, 0x8e, 0x66, 0x95, 0x83, 0x8d, 0x7c, 0x5c,
  0xaf, 0xad, 0x7a, 0x75, 0x6f, 0x63, 0x6d, 0x8b, 0x5f, 0x98, 0x6a, 0x57,
  0x81, 0x74, 0x6d, 0x6f, 0x87, 0x5c, 0x54, 0x62, 0x98, 0x88, 0x87, 0x88,
  0xad, 0x98, 0x85, 0x7c, 0x83, 0x8d, 0x9a, 0x66, 0x5a, 0x9c, 0x55, 0x97,
  0x6e, 0xa3, 0x87, 0x5f, 0x58, 0x64, 0x8b, 0xa1, 0x92, 0x81, 0x77, 0x98,
  0x52, 0x58, 0x6c, 0x86, 0x79, 0x5c, 0x70, 0x87, 0x7d, 0x94, 0x7b, 0xac,
  0x9f, 0x79, 0x93, 0x5d, 0x53, 0x95, 0x8e, 0xa6, 0x67, 0x6d, 0x6c, 0xa0,
  0x9a, 0x8b, 0x61, 0x7d, 0x91, 0x8b, 0x67, 0x5e, 0x9c, 0x6a, 0x84, 0x8a,
  0x7e, 0x96, 0x59, 0x73, 0x85, 0x90, 0x80, 0x61, 0x5f, 0x9a, 0x88, 0x66,
  0x78, 0x94, 0x84, 0x65, 0x40, 0x6a, 0x8e, 0x68, 0x7b, 0x4b, 0x7b, 0x7f,
  0x40, 0x80, 0xa2, 0x8d, 0x85, 0x5e, 0xa2, 0x87, 0x75, 0x64, 0xa1, 0xa0,
  0x63, 0x8e, 0x76, 0x6b, 0x5b, 0x7b, 0x54, 0x87, 0x90, 0x9b, 0x87, 0x69,
  0x5f, 0x82, 0x7e, 0x51, 0x6e, 0x9e, 0x6a, 0x82, 0x8f, 0x69, 0x8b, 0x7f,
  0x85, 0x8f, 0x76, 0x85, 0x82, 0x52, 0x95, 0x77, 0x67, 0x84, 0x72, 0x8a,
  0x71, 0xa8, 0xa0, 0x75, 0x68, 0x7b, 0x69, 0x9c, 0x84, 0x91, 0x8d, 0x65,
  0x85, 0x51, 0x7c, 0x63, 0x85, 0x7a, 0x96, 0x8a, 0x7d, 0x4a, 0x69, 0x77,
  0x78, 0x6e, 0x7b, 0x49, 0x82, 0x6d, 0x6a, 0x5f, 0x8d, 0xa9, 0x79, 0x4e,
  0xa3, 0xa3, 0x91, 0x83, 0x95, 0x8e, 0x93, 0x51, 0x61, 0x95, 0x68, 0x6c,
  0x82, 0x82, 0x9a, 0x93, 0x71, 0x98, 0x84, 0x9f, 0x91, 0x79, 0x80, 0x97,
  0x41, 0x61, 0x76, 0x77, 0x97, 0x6e, 0x68, 0x85, 0x7c, 0x71, 0x67, 0x8e,
  0x88, 0x87, 0x8a, 0x94, 0x91, 0x7b, 0x6d, 0x7e, 0x7b, 0x80, 0x72, 0x8a,
  0x4f, 0x96, 0x84, 0x67, 0x74, 0x84, 0x4c, 0x48, 0x58, 0x52, 0x6d, 0x5b,
  0x7c, 0x96, 0x95, 0x7e, 0x69, 0x67, 0x98, 0x8a, 0x47, 0x6a, 0x6c, 0x6a,
  0x62, 0x77, 0x93, 0x8f, 0x64, 0x59, 0x8c, 0xa4, 0x8b, 0x27, 0x95, 0xa1,
  0x8d, 0xb3, 0xbf, 0x76, 0x5c, 0x85, 0x7e, 0x9d, 0x7b, 0x72, 0xa3, 0x53,
  0x4b, 0x78, 0x74, 0x3c, 0x90, 0x67, 0x7d, 0x77, 0x78, 0x94, 0x95, 0x6d,
  0x80, 0x7d, 0xa9, 0x87, 0x7d, 0x8d, 0x7d, 0x7c, 0x7e, 0x73, 0x7a, 0x6d,
  0x7c, 0x83, 0x88, 0x91, 0x97, 0x4e, 0xbc, 0x56, 0xb2, 0x76, 0x76, 0x4f,
  0x83, 0x55, 0x9d, 0x4a, 0x73, 0x78, 0x7b, 0x7c, 0x81, 0x61, 0x98, 0x6c,
  0x55, 0x93, 0x76, 0x58, 0x6e, 0x56, 0x87, 0x6b, 0x7b, 0x84, 0x5c, 0x94,
  0x7c, 0x78, 0x8c, 0x93, 0x5d, 0x7a, 0x6c, 0x89, 0x86, 0x5b, 0xa4, 0x7b,
  0x5a, 0x93, 0x81, 0x77, 0x90, 0x73, 0x73, 0x8d, 0x73, 0x61, 0x76, 0x85,
  0x72, 0x50, 0x53, 0x89, 0x6c, 0x86, 0x85, 0x89, 0xa5, 0x89, 0x70, 0x73,
  0x92, 0x81, 0x78, 0x83, 0x96, 0x58, 0x8c, 0x4e, 0x93, 0x70, 0x65, 0x97,
  0x7a, 0x78, 0x7d, 0x4b, 0x9c, 0x90, 0x92, 0x4e, 0x7e, 0x4b, 0x84, 0x7c,
  0x7f, 0x6c, 0x92, 0x44, 0x81, 0x5d, 0x90, 0x50, 0x77, 0x78, 0x8c, 0x6c,
  0x7c, 0xaf, 0x6a, 0x5a, 0x98, 0x7b, 0xab, 0x81, 0x63, 0x87, 0x91, 0x7b,
  0x93, 0x46, 0x77, 0xb9, 0xa5, 0xb4, 0xc2, 0x93, 0x6e, 0x5a, 0x70, 0xb4,
  0x8b, 0x7f, 0x6e, 0x76, 0x7d, 0x4c, 0x75, 0x53, 0x8a, 0x90, 0x84, 0x84,
  0x67, 0x65, 0x7b, 0x75, 0x74, 0x54, 0x61, 0x9c, 0x8d, 0x91, 0x65, 0x93,
  0x74, 0x86, 0x83, 0x70, 0xa7, 0x86, 0x51, 0xa2, 0x7f, 0x87, 0x7a, 0x7e,
  0x9f, 0x5f, 0x80, 0x62, 0x80, 0x52, 0x72, 0x84, 0x5a, 0x86, 0x7d, 0x7c,
  0x84, 0x7c, 0x87, 0x4f, 0x55, 0x55, 0x90, 0x6b, 0x9e, 0xa4, 0x86, 0x50,
  0x7a, 0x72, 0x7f, 0x70, 0x7a, 0x66, 0x72, 0x70, 0x71, 0x85, 0x88, 0x84,
  0x97, 0x6d, 0x88, 0x79, 0x7e, 0x86, 0x9f, 0x89, 0x81, 0x50, 0x7a, 0x81,
  0x56, 0x52, 0x85, 0x89, 0x94, 0x97, 0x80, 0x7c, 0x51, 0x8b, 0x5c, 0x9b,
  0x95, 0x96, 0x95, 0x6d, 0x56, 0xa2, 0x93, 0x8a, 0x72, 0x9e, 0x74, 0x55,
  0x4f, 0x8c, 0x72, 0x72, 0x93, 0x78, 0x69, 0x6d, 0x6f, 0x83, 0x6f, 0x67,
  0x76, 0x86, 0x6f, 0x8e, 0x7c, 0x88, 0x9d, 0x54, 0x5c, 0x7f, 0x9c, 0x6f,
  0x63, 0x70, 0xa4, 0x62, 0x72, 0x83, 0x98, 0x57, 0x89, 0x82, 0x88, 0x87,
  0x5f, 0x88, 0x7f, 0x88, 0x5f, 0x67, 0x89, 0xc9, 0x75, 0x84, 0xa1, 0x9d,
  0x7d, 0x48, 0x95, 0x70, 0x64, 0x7f, 0x82, 0x75, 0xba, 0x9c, 0x61, 0x45,
  0x92, 0x6d, 0x68, 0x60, 0x74, 0x75, 0x67, 0x5e, 0x8c, 0x88, 0x6c, 0x7c,
  0x9f, 0x68, 0x75, 0x73, 0x76, 0x90, 0x98, 0x58, 0xa5, 0x99, 0x5b, 0x84,
  0x7e, 0x4d, 0x82, 0x72, 0x4d, 0x5c, 0x4b, 0xa0, 0x94, 0x5b, 0x93, 0x55,
  0x70, 0x6b, 0x66, 0x82, 0x5d, 0x7a, 0xa4, 0x5e, 0x73, 0x49, 0x76, 0x6b,
  0x7e, 0x6b, 0x89, 0x5e, 0x81, 0xa4, 0x77, 0x8a, 0x9b, 0x8e, 0x91, 0x6a,
  0x87, 0x78, 0x80, 0x74, 0x66, 0x78, 0x61, 0x74, 0x76, 0x8d, 0x93, 0xa7,
  0x8c, 0x4a, 0x68, 0x6d, 0x6e, 0x87, 0x65, 0x7f, 0x74, 0x82, 0xa8, 0x75,
  0x5a, 0x72, 0x84, 0x80, 0x8a, 0x6a, 0xa4, 0x8c, 0x53, 0x6d, 0x92, 0x5b,
  0x80, 0x69, 0x5d, 0x6b, 0x6f, 0xa4, 0x79, 0x73, 0x75, 0x7e, 0x99, 0x83,
  0x7e, 0x79, 0x95, 0x75, 0xa5, 0x8a, 0x6f, 0x60, 0x70, 0xb8, 0x85, 0x66,
  0x5b, 0x64, 0x7d, 0x3f, 0x87, 0x7e, 0x8e, 0x83, 0x77, 0x7a, 0x84, 0x6e,
  0x6a, 0x39, 0xaf, 0x90, 0x68, 0x70, 0x9c, 0x97, 0x7f, 0x43, 0x5f, 0x84,
  0x6a, 0x6e, 0x9f, 0x8e, 0xa2, 0x54, 0x6c, 0x76, 0x57, 0x82, 0x7c, 0x98,
  0xad, 0x91, 0x79, 0x5d, 0x64, 0x78, 0xa1, 0x73, 0xb3, 0x56, 0x63, 0x84,
  0x6a, 0x90, 0x9b, 0x7a, 0x8e, 0x83, 0x5c, 0x7a, 0x89, 0x90, 0x94, 0x62,
  0x95, 0xa6, 0x61, 0xa5, 0x77, 0x8c, 0x89, 0x5f, 0x90, 0x78, 0x77, 0x95,
  0x71, 0x79, 0xa3, 0x59, 0x5e, 0x56, 0x46, 0x5d, 0x71, 0x7e, 0x8b, 0x69,
  0xac, 0x62, 0x79, 0x76, 0x8d, 0x96, 0x84, 0x75, 0x82, 0x85, 0x56, 0xab,
  0x91, 0xa2, 0xab, 0x88, 0x78, 0xa7, 0x7e, 0xa5, 0x70, 0x6a, 0xa2, 0x59,
  0x6a, 0x7b, 0x6f, 0x8a, 0x95, 0x65, 0x8d, 0x8d, 0x86, 0x61, 0x86, 0x70,
  0x8c, 0x9e, 0x66, 0x5e, 0x5d, 0x79, 0x8c, 0x8b, 0x7f, 0x56, 0x74, 0x92,
  0x95, 0x79, 0x85, 0x86, 0x95, 0x83, 0x97, 0x80, 0x6d, 0xa8, 0x8e, 0x69,
  0x79, 0x87, 0x9d, 0x58, 0x6f, 0x9f, 0xa2, 0x82, 0x80, 0xa0, 0x4e, 0x57,
  0x73, 0x74, 0x96, 0x77, 0xa0, 0x81, 0x72, 0x76, 0x63, 0x5b, 0x86, 0x84,
  0x97, 0xa3, 0xaf, 0x65, 0x7c, 0x5c, 0x9d, 0x6e, 0x84, 0x56, 0xa7, 0x6e,
  0x61, 0x60, 0x88, 0x8d, 0x4d, 0x85, 0x95, 0x82, 0x87, 0x88, 0x60, 0xa7,
  0x6f, 0x88, 0x49, 0x84, 0x8a, 0x9e, 0x8f, 0x7e, 0x82, 0x3e, 0x84, 0x9d,
  0x76, 0x8a, 0x66, 0x58, 0x92, 0x8a, 0x89, 0xa9, 0x6d, 0x5e, 0x4a, 0x7f,
  0x92, 0x6c, 0xa1, 0x6b, 0x85, 0x83, 0x52, 0x80, 0x86, 0x6a, 0x7f, 0x73,
  0x80, 0xa4, 0x65, 0x87, 0x77, 0x5e, 0x73, 0x6c, 0x51, 0x9a, 0x54, 0x79,
  0x7e, 0x9e, 0x79, 0x5e, 0x68, 0x58, 0x63, 0x63, 0x98, 0x88, 0x6a, 0x69,
  0x69, 0x8c, 0x80, 0x74, 0x89, 0x5b, 0xa0, 0x91, 0x7b, 0x65, 0x78, 0x9e,
  0x7c, 0x45, 0x72, 0x82, 0x5f, 0x73, 0x54, 0x90, 0x8d, 0x6b, 0x6f, 0xa7,
  0x51, 0x73, 0x5e, 0x5c, 0x73, 0x56, 0x9c, 0x97, 0x75, 0x60, 0x73, 0xab,
  0x93, 0x87, 0x9b, 0x6e, 0x78, 0x74, 0x68, 0x9b, 0x90, 0x77, 0x89, 0x87,
  0x55, 0x83, 0x7b, 0x9e, 0x85, 0x6c, 0x6c, 0x6e, 0x93, 0x7c, 0x95, 0x5f,
  0x92, 0x8b, 0x8e, 0x82, 0x78, 0x78, 0x73, 0x58, 0x94, 0x85, 0x8f, 0x9a,
  0x59, 0x9e, 0x6f, 0x46, 0xa7, 0x84, 0xa5, 0x8d, 0x8a, 0x4b, 0x36, 0x71,
  0x84, 0xb1, 0x9a, 0x7d, 0x84, 0x8e, 0x61, 0xb6, 0x5c, 0xa7, 0xa1, 0x79,
  0x67, 0x78, 0x69, 0xbc, 0x8b, 0x9a, 0x62, 0x9a, 0x86, 0x8d, 0x71, 0x9b,
  0xa3, 0x74, 0x60, 0x9e, 0x55, 0x87, 0x65, 0x87, 0x93, 0x73, 0x90, 0xb3,
  0x7e, 0x59, 0x65, 0x97, 0x77, 0x7f, 0x83, 0x84, 0x87, 0x8e, 0x71, 0x84,
  0x7d, 0x54, 0x77, 0x68, 0x79, 0x68, 0x59, 0x64, 0x91, 0x77, 0x62, 0x7e,
  0x8d, 0x4c, 0x7b, 0x6c, 0x7b, 0x7a, 0x7b, 0x7f, 0xa0, 0x88, 0x7b, 0x82,
  0x6e, 0x78, 0x6d, 0xab, 0x6a, 0x66, 0x51, 0x75, 0x7a, 0x77, 0x9a, 0x91,
  0x77, 0xa4, 0x92, 0x7b, 0x76, 0x48, 0x75, 0x9f, 0x7b, 0x9d, 0x7c, 0x7c,
  0x85, 0x64, 0x85, 0x87, 0x72, 0xac, 0x66, 0x6f, 0x8c, 0x71, 0x85, 0x75,
  0x47, 0x6a, 0x62, 0x99, 0x8f, 0x89, 0xae, 0x86, 0x80, 0x69, 0x87, 0x7f,
  0x80, 0x9c, 0x77, 0x78, 0x45, 0x65, 0x86, 0x80, 0x6e, 0x58, 0x7f, 0x60,
  0x5c, 0x66, 0x83, 0x81, 0x8b, 0x84, 0x8e, 0x55, 0x56, 0x89, 0x97, 0x5a,
  0x7e, 0x4d, 0x9e, 0x77, 0x79, 0xa5, 0x7e, 0x68, 0x73, 0x88, 0xd3, 0x7d,
  0x3c, 0x80, 0xae, 0x8c, 0x3a, 0x82, 0xae, 0x78, 0x72, 0x82, 0x6f, 0x8c,
  0x56, 0xb1, 0x9e, 0x4b, 0x48, 0x61, 0x47, 0x74, 0x90, 0x91, 0x82, 0x9e,
  0xb8, 0x74, 0x9d, 0xa7, 0xa0, 0x59, 0x9e, 0x5e, 0x5c, 0x52, 0xa1, 0x7e,
  0x8b, 0x87, 0x6f, 0xaa, 0x8c, 0x91, 0x41, 0xa9, 0x81, 0x59, 0x74, 0x72,
  0x5c, 0x82, 0x77, 0xc5, 0x7a, 0x8a, 0x73, 0x7d, 0x65, 0xab, 0x7b, 0x9a,
  0x7d, 0x67, 0x6e, 0x6d, 0x9e, 0x94, 0x55, 0x75, 0x5c, 0x78, 0x8a, 0x63,
  0x62, 0x59, 0x62, 0x77, 0x7b, 0x8b, 0x77, 0x82, 0x8d, 0x8b, 0x90, 0x7f,
  0x92, 0x3d, 0x74, 0x80, 0xa6, 0x80, 0x44, 0xa6, 0x89, 0x76, 0x7e, 0x5a,
  0xab, 0x5c, 0x45, 0x91, 0x72, 0xa4, 0x9d, 0x7e, 0x60, 0xb2, 0x65, 0x77,
  0x79, 0x4d, 0x94, 0x92, 0x4b, 0x4d, 0x7a, 0x98, 0x54, 0x63, 0x6b, 0xa2,
  0x8b, 0x6e, 0x7f, 0xa1, 0x77, 0x6a, 0x6c, 0x83, 0x73, 0x8c, 0x63, 0x88,
  0x80, 0x5a, 0x8c, 0x6e, 0x8c, 0x5c, 0x50, 0x71, 0x4b, 0x63, 0x6f, 0x6e,
  0x87, 0x9b, 0x7a, 0x65, 0x76, 0x5b, 0x7d, 0x6b, 0x85, 0xa0, 0x69, 0x8f,
  0x32, 0x7a, 0x81, 0x64, 0x78, 0x8c, 0x7e, 0x91, 0x29, 0x9a, 0x9b, 0x9d,
  0x67, 0xa2, 0x6a, 0x88, 0x72, 0x3c, 0xac, 0x5d, 0x65, 0x82, 0x3f, 0xa5,
  0x39, 0x9e, 0x83, 0x93, 0xa5, 0x6a, 0x97, 0x92, 0x43, 0x4e, 0x98, 0x84,
  0x8a, 0xb8, 0x2b, 0x9a, 0x63, 0x81, 0x60, 0x88, 0x59, 0xff, 0x88, 0xec,
  0x68, 0x7a, 0x61, 0x82, 0x5c, 0xbe, 0x78, 0xd9, 0x66, 0x69, 0x9c, 0x7c,
  0x82, 0xa7, 0x55, 0xbb, 0x5d, 0x6c, 0x8e, 0x91, 0x8d, 0xa4, 0x79, 0xad,
  0x6c, 0xa3, 0x67, 0x89, 0x84, 0x99, 0x81, 0xbb, 0x73, 0x8d, 0x85, 0x7e,
  0x6b, 0x73, 0x7a, 0xaa, 0x72, 0x7b, 0x9e, 0x70, 0x5f, 0xb4, 0x9f, 0xed,
  0x7d, 0x7f, 0x6d, 0x81, 0x95, 0x75, 0x71, 0xc7, 0x8c, 0x7c, 0x7e, 0x83,
  0x97, 0x9b, 0x88, 0xbf, 0x6d, 0x7f, 0x72, 0x95, 0x97, 0xb1, 0xa7, 0xdb,
  0x65, 0x81, 0x65, 0x77, 0x6a, 0xd1, 0x5e, 0x93, 0x7b, 0x69, 0x83, 0x75,
  0x97, 0xb0, 0x5e, 0xd7, 0x6d, 0xae, 0x8b, 0x7f, 0x8e, 0x74, 0x69, 0xb0,
  0x5f, 0xa4, 0x97, 0x75, 0x6b, 0xb1, 0x53, 0xcb, 0x74, 0xae, 0x76, 0x98,
  0x8f, 0xe2, 0x92, 0xb8, 0x81, 0x7b, 0x96, 0x71, 0x89, 0xf6, 0x66, 0x8a,
  0x71, 0x94, 0x55, 0x82, 0x77, 0x99, 0x3b, 0xa9, 0x71, 0x6e, 0x7a, 0x8b,
  0x82, 0x7c, 0x4c, 0xac, 0x46, 0x7a, 0x7b, 0xb4, 0xa7, 0x44, 0xe1, 0x6c,
  0x42, 0x6c, 0x70, 0x92, 0x6a, 0x94, 0x72, 0x71, 0x40, 0x66, 0x92, 0x62,
  0x88, 0xff, 0x72, 0xb3, 0x5b, 0x71, 0x86, 0x84, 0x5f, 0xb7, 0x60, 0xb7,
  0x67, 0x78, 0x7a, 0x55, 0x87, 0xb5, 0x80, 0x9b, 0x5b, 0x5c, 0x77, 0x4d,
  0x89, 0x90, 0x85, 0xb2, 0x64, 0x84, 0x68, 0x5c, 0x68, 0x9a, 0x78, 0xa0,
  0x5e, 0x5b, 0x91, 0x79, 0x8f, 0xb9, 0xb3, 0xa1, 0x56, 0x8d, 0x66, 0x5e,
  0x5b, 0xa8, 0xae, 0xa4, 0x4f, 0x6a, 0x95, 0x44, 0xa5, 0xbc, 0xa6, 0x9c,
  0x7d, 0x8c, 0xa1, 0x84, 0xa2, 0x98, 0x97, 0xa2, 0x6f, 0x61, 0x8e, 0x71,
  0x8a, 0xdc, 0x91, 0x91, 0x57, 0xa3, 0x76, 0x70, 0xb0, 0xda, 0x8e, 0x80,
  0x72, 0x8d, 0x79, 0x3a, 0xa9, 0x9f, 0x59, 0x99, 0x77, 0x96, 0x6f, 0x57,
  0x96, 0xc0, 0x91, 0xa5, 0x76, 0x69, 0x53, 0x3c, 0x5e, 0xa3, 0x8f, 0xb6,
  0x72, 0xa6, 0x66, 0x4b, 0x99, 0xd7, 0x9e, 0x84, 0x56, 0x83, 0xa0, 0x03,
  0x51, 0xff, 0x5a, 0x95, 0x2b, 0x55, 0x9a, 0x44, 0x7f, 0x86, 0x16, 0x95,
  0x57, 0x6f, 0xae, 0x5d, 0x7a, 0x6c, 0x4b, 0x6b, 0x4a, 0x9f, 0x85, 0x9e,
  0x8c, 0x7b, 0xb0, 0x7f, 0x4d, 0x70, 0x8f, 0x7a, 0x76, 0x68, 0x8b, 0x6b,
  0x9e, 0x83, 0x9d, 0x89, 0x85, 0xe3, 0x5f, 0x77, 0x8b, 0x5f, 0x74, 0x98,
  0x94, 0xac, 0x56, 0x88, 0x60, 0x9f, 0x84, 0x82, 0x85, 0xa2, 0x60, 0x73,
  0xaa, 0x76, 0x72, 0x82, 0x90, 0xbd, 0x3d, 0x7c, 0x83, 0x61, 0x9d, 0x8e,
  0x83, 0xa3, 0x90, 0x69, 0x66, 0x62, 0x90, 0x93, 0x91, 0x7f, 0x76, 0x6e,
  0x8a, 0x5f, 0x87, 0x71, 0x8e, 0x72, 0x69, 0x6f, 0x6e, 0x7b, 0x6a, 0x6f,
  0x82, 0xc5, 0x9c, 0x85, 0x63, 0x7d, 0x85, 0xa5, 0x8a, 0xba, 0xa3, 0x70,
  0x9f, 0x5f, 0x7a, 0xa2, 0x6c, 0xc0, 0x92, 0x87, 0x6a, 0x64, 0x63, 0x6c,
  0x7d, 0xc6, 0x72, 0x7a, 0x5f, 0x70, 0x81, 0x43, 0x7e, 0xb7, 0x6b, 0x91,
  0x7e, 0x66, 0x8f, 0x7a, 0x9a, 0x8e, 0x72, 0x7f, 0x6f, 0xa1, 0x66, 0x7a,
  0x48, 0xdc, 0x82, 0x7c, 0x53, 0x68, 0x8d, 0xb9, 0x4d, 0xc0, 0xaf, 0x77,
  0x37, 0x74, 0x83, 0x45, 0x85, 0xeb, 0x99, 0x88, 0x11, 0x8f, 0x54, 0x63,
  0x5d, 0xa5, 0x28, 0x73, 0x6a, 0x5b, 0x34, 0x87, 0x76, 0x81, 0x20, 0x78,
  0x69, 0x8e, 0xaa, 0xb1, 0x73, 0x8c, 0x99, 0x67, 0xac, 0x89, 0x6f, 0x8a,
  0x7e, 0x8b, 0x5f, 0x6c, 0xc2, 0xa1, 0xac, 0xb3, 0x6c, 0xa9, 0x6b, 0x75,
  0x93, 0x97, 0x6b, 0xc7, 0xa0, 0xcb, 0x6a, 0x78, 0xd0, 0x9a, 0xa1, 0xcd,
  0x47, 0xb6, 0x80, 0x74, 0xa7, 0x68, 0xb0, 0x97, 0x75, 0xbc, 0x78, 0x74,
  0xc9, 0x96, 0x9b, 0x89, 0x8b, 0xb5, 0x78, 0x85, 0x99, 0x45, 0x9e, 0xa4,
  0x68, 0x70, 0x96, 0x65, 0x95, 0x63, 0x83, 0xaa, 0x91, 0x8f, 0x74, 0x9a,
  0xa5, 0x65, 0xb5, 0xa8, 0x72, 0x8c, 0x99, 0x6e, 0xa7, 0x69, 0xa5, 0xb2,
  0xa6, 0xa5, 0x95, 0x8d, 0x75, 0x93, 0xac, 0xcd, 0x86, 0xb7, 0x8b, 0x72,
  0x9d, 0x8e, 0x65, 0x90, 0x91, 0xa4, 0x9b, 0x6f, 0x7e, 0x87, 0x85, 0x95,
  0x88, 0xa8, 0x64, 0x78, 0x81, 0x8a, 0xbd, 0x9b, 0x97, 0x8b, 0x84, 0x7f,
  0xb7, 0x73, 0x78, 0xd3, 0x70, 0xae, 0x78, 0x8a, 0x91, 0x93, 0x60, 0xd1,
  0xa2, 0xd7, 0xa8, 0x71, 0x7b, 0x78, 0xb0, 0x93, 0x75, 0xe2, 0x66, 0x58,
  0x5a, 0x51, 0x5c, 0x5c, 0x89, 0xb9, 0x22, 0x7c, 0x46, 0x61, 0x3f, 0x82,
  0x85, 0x68, 0x58, 0x71, 0x6a, 0x53, 0xad, 0xc6, 0x6c, 0xad, 0x84, 0x83,
  0xda, 0x73, 0x7b, 0x92, 0x7f, 0x88, 0x5d, 0x4c, 0xba, 0x58, 0xbd, 0x97,
  0xa7, 0x8b, 0x60, 0x58, 0xcf, 0x79, 0xb1, 0xb9, 0x71, 0x6a, 0x7c, 0x5a,
  0xd4, 0x56, 0x95, 0xa5, 0x93, 0xab, 0x6d, 0x5b, 0xae, 0x76, 0x94, 0x8e,
  0x65, 0x82, 0x5e, 0x66, 0xcc, 0x8f, 0xb8, 0x93, 0x7e, 0xb8, 0x6a, 0x7a,
  0xb3, 0xa2, 0x72, 0x9e, 0x90, 0x87, 0x5f, 0x63, 0xb4, 0x5f, 0x8f, 0xc6,
  0x5c, 0x9b, 0x58, 0x4b, 0xbf, 0x73, 0xa1, 0x99, 0x51, 0x6d, 0x70, 0x77,
  0x92, 0x88, 0xa7, 0xbe, 0x9d, 0x92, 0x71, 0x76, 0xc4, 0x70, 0xa6, 0xba,
  0x80, 0xa5, 0x71, 0x72, 0xca, 0x7d, 0xb9, 0x9f, 0x83, 0xf5, 0x52, 0x7d,
  0xb4, 0xa6, 0xb3, 0x98, 0x95, 0x88, 0x44, 0x7c, 0x8a, 0x6b, 0xb5, 0x7d,
  0x96, 0x71, 0x65, 0x7b, 0x94, 0x57, 0xa3, 0x93, 0x7f, 0xc5, 0x8d, 0x7b,
  0xaa, 0x86, 0xaf, 0xbf, 0x9f, 0xe7, 0x69, 0x32, 0x77, 0x52, 0xa7, 0x67,
  0x89, 0xba, 0x57, 0x59, 0x90, 0x9b, 0x40, 0x66, 0x75, 0xbb, 0x60, 0x6f,
  0x65, 0x68, 0x2f, 0x95, 0x68, 0x6f, 0x72, 0x72, 0x8c, 0x84, 0xb1, 0x9c,
  0x64, 0x9f, 0x64, 0x84, 0x8f, 0x56, 0x7d, 0x9b, 0xa3, 0xaf, 0x68, 0x6c,
  0xb8, 0xa3, 0x91, 0x7e, 0x84, 0x8a, 0x71, 0x85, 0xae, 0x60, 0x89, 0x7d,
  0x53, 0x76, 0x62, 0x84, 0xbe, 0x9d, 0x64, 0x91, 0x8c, 0x94, 0x67, 0x65,
  0xa4, 0x73, 0x8b, 0x91, 0x67, 0x69, 0x78, 0x4d, 0xa4, 0x73, 0xb7, 0x8b,
  0x5c, 0xbf, 0x78, 0x79, 0xa4, 0x7a, 0xa1, 0x77, 0x59, 0x6e, 0x89, 0x82,
  0x78, 0x73, 0xa0, 0x80, 0x97, 0x99, 0x6f, 0x5f, 0x91, 0x87, 0xc0, 0x9b,
  0x50, 0x86, 0x7f, 0x5e, 0xa9, 0x5f, 0xa8, 0xb5, 0x74, 0x9e, 0x7f, 0x71,
  0x76, 0x95, 0x70, 0xaa, 0x7e, 0xb4, 0x8a, 0x78, 0xb2, 0x8b, 0x83, 0x9e,
  0x7e, 0xe4, 0x67, 0x56, 0xa7, 0x79, 0x90, 0x6f, 0x81, 0xa4, 0x6e, 0x69,
  0xb7, 0x5e, 0x8d, 0x8d, 0x8a, 0x7b, 0x85, 0x71, 0xc3, 0x73, 0x9a, 0xbe,
  0x98, 0x9f, 0x74, 0x67, 0xaf, 0x86, 0x64, 0xb4, 0x96, 0x8b, 0x70, 0x47,
  0xb2, 0x69, 0x59, 0xa5, 0x58, 0x97, 0x4d, 0x10, 0x95, 0x89, 0x74, 0x82,
  0x93, 0xbc, 0x5c, 0x3a, 0xab, 0x79, 0x4f, 0x8f, 0x9c, 0x53, 0x48, 0x3c,
  0x6a, 0x70, 0xbb, 0x92, 0x78, 0x7e, 0x84, 0x58, 0xb2, 0x7e, 0x9f, 0x82,
  0x69, 0x93, 0x73, 0x7a, 0xd0, 0x63, 0x74, 0x8e, 0x81, 0x7a, 0x49, 0x59,
  0x9f, 0x69, 0xa3, 0xb4, 0x8e, 0x79, 0x88, 0x5d, 0xa8, 0x65, 0x90, 0x80,
  0x6d, 0x76, 0x60, 0x83, 0xac, 0x6b, 0x71, 0x9d, 0xa5, 0xa9, 0x6a, 0x61,
  0x79, 0x6c, 0x95, 0x7c, 0x75, 0xb7, 0x5b, 0x56, 0xa8, 0x75, 0xb3, 0x7a,
  0x91, 0x87, 0x77, 0x59, 0x92, 0x7b, 0x77, 0x8e, 0x8e, 0x8d, 0x7d, 0x90,
  0x83, 0x6b, 0x94, 0x9b, 0x5a, 0x62, 0x99, 0x66, 0x6d, 0x56, 0x79, 0x8b,
  0x80, 0x6e, 0x9a, 0x90, 0x9f, 0x78, 0x9f, 0xcf, 0x8c, 0x8f, 0x68, 0x69,
  0xae, 0xa8, 0xb6, 0x8e, 0x5f, 0xb2, 0x67, 0x62, 0xae, 0xaf, 0x8e, 0x77,
  0x75, 0x94, 0x5d, 0x73, 0x97, 0x47, 0xa6, 0xac, 0x9f, 0x91, 0x77, 0x8a,
  0x83, 0x5e, 0x7f, 0x97, 0xad, 0x87, 0x7f, 0x6a, 0xa4, 0x88, 0x68, 0xd4,
  0xaf, 0xbd, 0x89, 0x28, 0x85, 0x8b, 0xa0, 0x6d, 0x8b, 0xb6, 0x79, 0x2e,
  0x80, 0x8c, 0x3e, 0x86, 0xa3, 0xbf, 0xa3, 0x09, 0x85, 0x7b, 0x7c, 0x77,
  0x76, 0x62, 0x7d, 0x32, 0x90, 0x4f, 0xb9, 0xbc, 0x84, 0x77, 0x54, 0x87,
  0xae, 0x8b, 0x6d, 0x8e, 0x67, 0xa4, 0x68, 0xa2, 0x9a, 0x70, 0x8e, 0x53,
  0x8a, 0xbb, 0x71, 0x87, 0xbf, 0x77, 0x81, 0x68, 0x76, 0x78, 0x85, 0x95,
  0x9c, 0x86, 0x89, 0x76, 0xa4, 0x6f, 0x74, 0x59, 0xa6, 0x88, 0x7c, 0x8d,
  0x6c, 0x85, 0x7a, 0x5d, 0x8c, 0x65, 0x77, 0x6e, 0x6a, 0x93, 0x7a, 0x5d,
  0xbf, 0x72, 0xae, 0x82, 0x63, 0x97, 0x93, 0x69, 0xb3, 0x48, 0xb6, 0x81,
  0x92, 0x94, 0x75, 0x59, 0x9e, 0x8e, 0xb8, 0x99, 0xae, 0x63, 0x9e, 0x64,
  0x83, 0x8c, 0x6f, 0xb0, 0x79, 0x9d, 0x9b, 0x54, 0xa8, 0x7c, 0xba, 0x94,
  0x65, 0xa3, 0x78, 0x88, 0x7c, 0x6d, 0x88, 0x78, 0x76, 0xb2, 0x82, 0x44,
  0x89, 0xa4, 0x92, 0x6b, 0x7c, 0xae, 0x58, 0x77, 0x93, 0x98, 0x6c, 0x86,
  0x99, 0x7f, 0x52, 0x52, 0x7f, 0xa8, 0x8a, 0xc6, 0x71, 0x7e, 0x73, 0x7b,
  0x97, 0x61, 0xa4, 0xca, 0x91, 0xa6, 0x58, 0x71, 0x7e, 0x6f, 0x6a, 0x5f,
  0x6c, 0x99, 0x44, 0x1e, 0x67, 0x89, 0x42, 0x6a, 0x7f, 0xb8, 0x71, 0x51,
  0x74, 0x5d, 0x60, 0x63, 0x81, 0x6c, 0x79, 0x3f, 0x8e, 0x8b, 0xcb, 0xa7,
  0x91, 0x7e, 0x68, 0x71, 0x82, 0x7a, 0x94, 0x7b, 0x85, 0x6e, 0x60, 0x98,
  0xae, 0x59, 0xa0, 0x87, 0x99, 0x67, 0x6b, 0x78, 0xb0, 0x71, 0x67, 0x78,
  0x73, 0x6f, 0x62, 0x63, 0x82, 0x43, 0x65, 0x81, 0x97, 0x73, 0x75, 0x9f,
  0xa5, 0x85, 0x92, 0x97, 0x77, 0x6e, 0x59, 0x5e, 0x9e, 0x75, 0x91, 0x9b,
  0x81, 0x6d, 0x7b, 0x87, 0x89, 0x63, 0x6c, 0x8f, 0x60, 0x81, 0x75, 0x68,
  0x88, 0x6a, 0x91, 0x6b, 0x86, 0x6f, 0x90, 0x7c, 0xa3, 0x85, 0xbb, 0x5d,
  0x55, 0x7e, 0x91, 0x7a, 0x6d, 0x52, 0x83, 0x9b, 0x77, 0x66, 0x9e, 0x74,
  0x8d, 0x93, 0x84, 0xa1, 0x5f, 0x87, 0x82, 0x6b, 0x7d, 0x5c, 0x8c, 0x68,
  0xaf, 0xaf, 0x61, 0x4c, 0x76, 0x74, 0x64, 0x7e, 0x65, 0x62, 0x54, 0x75,
  0x6e, 0x84, 0x97, 0x87, 0xa7, 0x7d, 0x73, 0x5f, 0x88, 0x72, 0x89, 0x93,
  0x54, 0x82, 0x77, 0x7a, 0x71, 0xaa, 0x83, 0xb6, 0x54, 0xd1, 0x87, 0x5d,
  0x4e, 0x88, 0x7f, 0x90, 0x7d, 0xb6, 0x56, 0x2a, 0xb5, 0x62, 0x4c, 0x76,
  0x6c, 0x92, 0x7d, 0x26, 0x8a, 0x6c, 0x5b, 0x71, 0x85, 0x67, 0x8a, 0x53,
  0x7a, 0x6a, 0xa7, 0x8c, 0x74, 0x90, 0x64, 0x95, 0x8e, 0x9f, 0x8e, 0x77,
  0x74, 0x86, 0x8c, 0x8d, 0xc2, 0x68, 0x75, 0x77, 0x8f, 0x9b, 0x96, 0x87,
  0x98, 0x6e, 0x71, 0x60, 0x8a, 0x87, 0x96, 0x78, 0x86, 0x74, 0x6e, 0x6e,
  0x68, 0x6b, 0x88, 0x6d, 0x72, 0x69, 0x8a, 0x82, 0x68, 0x9d, 0x5e, 0x6d,
  0x8b, 0x5f, 0x78, 0x90, 0x75, 0x78, 0x92, 0x86, 0x60, 0x98, 0x92, 0x94,
  0x6b, 0x83, 0x90, 0x88, 0x7f, 0x6f, 0xa5, 0x7a, 0x9d, 0x81, 0x88, 0x84,
  0x93, 0xb0, 0x89, 0x68, 0x62, 0xaa, 0x78, 0xa8, 0x6d, 0x7d, 0x98, 0xad,
  0x9c, 0xa6, 0x8b, 0x81, 0x81, 0x83, 0x8b, 0x7f, 0x69, 0xa7, 0x89, 0x85,
  0x84, 0x79, 0x7d, 0x72, 0xb1, 0x99, 0x5d, 0x3b, 0x8a, 0x65, 0x9a, 0x63,
  0x9f, 0x91, 0x96, 0x92, 0x85, 0x5b, 0x98, 0x5a, 0x74, 0x9e, 0x85, 0x63,
  0xac, 0x4d, 0x84, 0x96, 0x5a, 0x8c, 0x8b, 0x62, 0x79, 0xa5, 0x6e, 0xbb,
  0x82, 0x8f, 0x7a, 0x69, 0x68, 0x80, 0x53, 0x62, 0x7d, 0x83, 0x6b, 0x2e,
  0x8b, 0x71, 0x74, 0x6a, 0x71, 0x9b, 0x85, 0x55, 0x9b, 0x6f, 0x8d, 0x7c,
  0x79, 0x62, 0x8d, 0x4b, 0x84, 0x8e, 0x85, 0x68, 0x7f, 0x78, 0x68, 0x82,
  0xa2, 0x74, 0xae, 0x65, 0x70, 0x6d, 0x7a, 0xaa, 0xaf, 0x69, 0x7f, 0x89,
  0x7b, 0x83, 0x6d, 0x5e, 0x9b, 0x96, 0x5f, 0x85, 0x66, 0x47, 0x6c, 0x7d,
  0x75, 0x8d, 0xa0, 0x6f, 0x93, 0x61, 0x7c, 0x81, 0x60, 0xa2, 0x8e, 0x6d,
  0x65, 0x82, 0x8a, 0x95, 0x7e, 0x92, 0x81, 0x70, 0x8b, 0x54, 0x98, 0x90,
  0x89, 0x8d, 0xa9, 0x6d, 0x7b, 0x78, 0x9a, 0x7b, 0x8b, 0x83, 0x72, 0x6f,
  0x9e, 0x97, 0x8a, 0xa4, 0x70, 0x6e, 0x9d, 0x6e, 0x9b, 0x8b, 0x7e, 0x8a,
  0x93, 0x77, 0x65, 0x90, 0x51, 0x6f, 0x8c, 0x5d, 0x86, 0x73, 0x94, 0x7c,
  0x63, 0x93, 0x8c, 0x77, 0x62, 0x76, 0x6d, 0x8a, 0x91, 0xa9, 0x7d, 0x8b,
  0x8d, 0x64, 0x86, 0x83, 0x68, 0xa7, 0x7d, 0x64, 0x8a, 0x63, 0x87, 0x69,
  0x55, 0x87, 0x86, 0x41, 0x74, 0x6e, 0x9f, 0xa7, 0x90, 0x97, 0x80, 0x7e,
  0xa3, 0x7e, 0x77, 0x9c, 0x9c, 0x93, 0xaa, 0x6a, 0x9d, 0x8e, 0x97, 0x69,
  0x95, 0xb0, 0x8d, 0x52, 0x9f, 0x5b, 0x75, 0x64, 0x52, 0x93, 0x88, 0x61,
  0x63, 0x78, 0x70, 0x7c, 0xae, 0x7a, 0x7e, 0x7c, 0x78, 0x68, 0x9c, 0x73,
  0x88, 0x85, 0x5b, 0x75, 0xaa, 0x49, 0xa8, 0x69, 0x92, 0x7c, 0x73, 0x92,
  0xb2, 0x8e, 0xa9, 0x47, 0x95, 0x7a, 0x73, 0x79, 0x80, 0xa9, 0x9d, 0x5f,
  0x74, 0x6e, 0x8b, 0x8b, 0x80, 0x7c, 0x80, 0x5f, 0x88, 0x88, 0x8b, 0x6d,
  0x8f, 0x76, 0x82, 0x90, 0xa4, 0x60, 0x92, 0x85, 0x96, 0x8d, 0xa0, 0x71,
  0xa7, 0xab, 0x9d, 0x5e, 0x78, 0x8b, 0x9b, 0xa0, 0x4f, 0x70, 0x8c, 0x8a,
  0x9f, 0xa9, 0x69, 0x8d, 0xa2, 0x84, 0x79, 0x8b, 0x84, 0x64, 0x7e, 0x6e,
  0x6d, 0x69, 0x96, 0x68, 0x85, 0x87, 0x85, 0x99, 0x52, 0x8e, 0x91, 0x97,
  0x75, 0xad, 0x6b, 0xa6, 0x7e, 0x96, 0x98, 0x90, 0x7c, 0x5e, 0x6f, 0x78,
  0x9a, 0x9e, 0x8e, 0x45, 0x92, 0x7b, 0x70, 0x45, 0x8d, 0xa6, 0x92, 0x7c,
  0x4d, 0x88, 0x7b, 0x80, 0x61, 0x71, 0x71, 0x70, 0x93, 0x8f, 0x6f, 0x91,
  0x79, 0x78, 0x7b, 0x7a, 0x78, 0x5d, 0x69, 0x98, 0x76, 0x96, 0x8a, 0x82,
  0x73, 0x8a, 0x6d, 0xa0, 0x6c, 0xb1, 0x99, 0x64, 0x57, 0x4d, 0x57, 0x82,
  0x55, 0xc2, 0x81, 0x47, 0xb9, 0x6a, 0x5f, 0x77, 0x8d, 0x67, 0x7e, 0x58,
  0x9b, 0x65, 0xa2, 0xa5, 0x68, 0x7a, 0x61, 0x7f, 0x97, 0x87, 0xa2, 0x83,
  0x83, 0x61, 0x69, 0x7c, 0x95, 0x6c, 0x89, 0x79, 0x8b, 0x82, 0x67, 0x86,
  0x97, 0x46, 0xac, 0x80, 0x9f, 0x69, 0x97, 0x97, 0x78, 0x44, 0xa9, 0x7c,
  0x60, 0x93, 0x9f, 0x7c, 0xae, 0x6a, 0x76, 0x66, 0x88, 0x67, 0x7c, 0x8f,
  0x8f, 0x53, 0x4b, 0x7d, 0x8b, 0x90, 0x63, 0x72, 0x7b, 0x8d, 0x7e, 0x6e,
  0x5b, 0x4b, 0xa7, 0x95, 0x6c, 0x71, 0xa1, 0x81, 0x95, 0x78, 0x70, 0x8e,
  0x79, 0x75, 0x83, 0x8c, 0xa6, 0x4b, 0x7c, 0x64, 0x7b, 0x92, 0x6e, 0x7f,
  0x45, 0x5a, 0xa2, 0x6d, 0x74, 0x8c, 0x62, 0x5a, 0x74, 0x94, 0x8f, 0x6b,
  0x96, 0x7c, 0x94, 0x76, 0x72, 0x7c, 0x8f, 0x53, 0x6d, 0x79, 0x54, 0x5c,
  0x6b, 0x85, 0x9c, 0x3d, 0x8b, 0x86, 0x8f, 0x72, 0x99, 0x79, 0x8a, 0x8d,
  0x85, 0x97, 0xa4, 0x8e, 0x76, 0x8c, 0x84, 0x65, 0x91, 0x90, 0x99, 0xba,
  0x8a, 0x88, 0x7e, 0x3f, 0x83, 0x78, 0x70, 0x9a, 0x9a, 0xa9, 0x81, 0x64,
  0x65, 0x80, 0x65, 0x77, 0xa7, 0x88, 0x94, 0x64, 0x8a, 0x88, 0x6d, 0x65,
  0x6e, 0x5a, 0x93, 0x78, 0x7b, 0x66, 0x70, 0x89, 0x94, 0x81, 0x5b, 0x81,
  0x9d, 0x6a, 0x93, 0x97, 0x63, 0x84, 0x5f, 0x67, 0x9f, 0x5c, 0x6a, 0x87,
  0x68, 0x5f, 0x73, 0x81, 0xa3, 0xaf, 0x6b, 0x93, 0x63, 0x81, 0x7d, 0x54,
  0x90, 0x5d, 0xa3, 0x4c, 0x7c, 0x6a, 0x97, 0x90, 0x93, 0x6b, 0x8c, 0x78,
  0x8f, 0x6c, 0x7f, 0x5d, 0x67, 0x69, 0x92, 0x52, 0x4c, 0x87, 0x81, 0xa0,
  0x70, 0x82, 0x86, 0x72, 0x6a, 0x61, 0x96, 0x5d, 0x8e, 0x99, 0x65, 0x80,
  0x9e, 0x59, 0x8a, 0x89, 0x90, 0x98, 0x70, 0x79, 0x8b, 0x86, 0xaf, 0xa4,
  0x6a, 0x77, 0x54, 0x8a, 0x6d, 0x63, 0xa1, 0x59, 0x98, 0xb1, 0xa3, 0x55,
  0x7a, 0x92, 0xa7, 0x63, 0x8f, 0x91, 0x9b, 0x40, 0x9e, 0xb7, 0x81, 0x69,
  0x85, 0x7b, 0x74, 0x86, 0x55, 0xaa, 0x9e, 0x56, 0x5b, 0x77, 0x67, 0x82,
  0x77, 0x75, 0x85, 0x69, 0x7d, 0xb3, 0x82, 0x86, 0x82, 0x82, 0x8f, 0x80,
  0x6f, 0x7d, 0x65, 0x9e, 0x70, 0x79, 0x7d, 0x3e, 0x9b, 0x64, 0x54, 0x95,
  0x99, 0x8b, 0x81, 0x56, 0x6a, 0x94, 0x91, 0x82, 0x8b, 0x9b, 0x79, 0x77,
  0x7a, 0x69, 0x73, 0x79, 0x96, 0x74, 0x9c, 0x4a, 0x61, 0x77, 0x92, 0x8c,
  0x95, 0x7f, 0x6f, 0x70, 0x93, 0x54, 0xa0, 0x8e, 0x6d, 0x60, 0x72, 0x69,
  0x98, 0x48, 0x98, 0x65, 0x62, 0x67, 0x5b, 0x74, 0x88, 0x75, 0x95, 0x6d,
  0x96, 0x82, 0x89, 0x75, 0xa6, 0x76, 0x5d, 0x8a, 0x5b, 0x4a, 0x7a, 0x9c,
  0x95, 0x81, 0xa7, 0x87, 0x83, 0x85, 0x83, 0x6d, 0x7b, 0x51, 0x73, 0x9f,
  0x62, 0x7e, 0x97, 0x7c, 0x8f, 0x58, 0xa8, 0x80, 0x60, 0x7d, 0x8f, 0x48,
  0xa2, 0x6d, 0x98, 0x90, 0x8e, 0xa1, 0x8b, 0x51, 0x7d, 0x85, 0x47, 0x5f,
  0x6e, 0x6c, 0x92, 0x7e, 0x65, 0x86, 0x8a, 0x78, 0x4a, 0x81, 0x92, 0x53,
  0x90, 0x6e, 0x67, 0x8a, 0x89, 0x77, 0x8f, 0x77, 0x85, 0x86, 0x71, 0x81,
  0x7f, 0x89, 0x85, 0x6a, 0x62, 0x6e, 0x65, 0x6c, 0x75, 0x77, 0x81, 0x91,
  0x62, 0x4c, 0x75, 0x73, 0x80, 0x52, 0x6d, 0x4a, 0x6a, 0x8c, 0x94, 0x96,
  0x84, 0x7e, 0x78, 0x78, 0x6e, 0x59, 0x8b, 0xb8, 0x68, 0xaa, 0x9b, 0x73,
  0xa8, 0x93, 0x7c, 0x96, 0x60, 0x9f, 0x96, 0x66, 0x63, 0xaf, 0x6e, 0x83,
  0x92, 0x93, 0x99, 0x32, 0x8e, 0x78, 0x86, 0x72, 0x80, 0x48, 0x73, 0x5e,
  0x8e, 0xaf, 0x9b, 0x82, 0x83, 0x8c, 0x45, 0x8b, 0x8e, 0x95, 0xa8, 0x83,
  0x7e, 0x8b, 0x75, 0x6f, 0x96, 0x82, 0x92, 0x65, 0x5e, 0x6c, 0x66, 0x5d,
  0x98, 0x77, 0x79, 0x50, 0x4b, 0x72, 0x6c, 0x4f, 0x8f, 0x93, 0x79, 0x64,
  0x6f, 0x61, 0x8a, 0x96, 0x97, 0x68, 0x75, 0x74, 0xa6, 0x69, 0x5f, 0x6b,
  0x76, 0x7b, 0x74, 0x80, 0x77, 0x86, 0x7e, 0x5d, 0x89, 0x7d, 0x6d, 0x88,
  0x7b, 0x60, 0xa7, 0x94, 0x66, 0x64, 0x98, 0x97, 0xa0, 0x9b, 0x82, 0x82,
  0x7a, 0x80, 0x91, 0x9e, 0x8c, 0x7e, 0x8d, 0x76, 0x61, 0x87, 0x76, 0x6c,
  0x52, 0x84, 0x8e, 0x7f, 0x84, 0x9b, 0x8a, 0x3d, 0x83, 0x9c, 0x94, 0x53,
  0x95, 0x53, 0x9f, 0x57, 0xac, 0x79, 0x80, 0x73, 0x82, 0x67, 0x61, 0x5a,
  0x63, 0x69, 0x96, 0x3c, 0x91, 0x60, 0x51, 0x6e, 0x8c, 0x7e, 0x86, 0x60,
  0x5e, 0xaa, 0x61, 0x62, 0x71, 0x82, 0x88, 0x73, 0x67, 0x85, 0x4d, 0x94,
  0x88, 0x73, 0x90, 0x93, 0x92, 0x7d, 0x91, 0x6d, 0x5b, 0x8c, 0x71, 0x63,
  0x86, 0x8b, 0x5d, 0x8b, 0x4d, 0x98, 0x89, 0x58, 0x67, 0x89, 0x5d, 0x5e,
  0x95, 0x3d, 0x83, 0x63, 0x82, 0x54, 0x7e, 0x88, 0x87, 0x5c, 0x73, 0x97,
  0x96, 0x77, 0xb9, 0x79, 0x8e, 0xa4, 0x61, 0x6c, 0x94, 0x56, 0x9b, 0x6d,
  0x80, 0x73, 0x65, 0x58, 0xb2, 0x69, 0x6e, 0x9c, 0x85, 0x43, 0x7d, 0x91,
  0x99, 0x79, 0x59, 0x43, 0x85, 0x84, 0x99, 0x74, 0x75, 0x76, 0x72, 0x67,
  0x64, 0x77, 0x6a, 0x64, 0x92, 0x8b, 0x8a, 0x75, 0x97, 0x59, 0x72, 0xa3,
  0x9c, 0x87, 0x71, 0x94, 0x7d, 0xac, 0x9d, 0x5f, 0x7e, 0x79, 0x85, 0x67,
  0x93, 0x6b, 0x78, 0x87, 0x70, 0x7d, 0x5c, 0x8f, 0x9c, 0x48, 0x8d, 0x7b,
  0x9a, 0x73, 0x65, 0x88, 0x8b, 0x6e, 0x7f, 0x75, 0x76, 0x66, 0x6e, 0x5d,
  0x8a, 0x89, 0x98, 0x7f, 0x7b, 0x9f, 0x6e, 0x83, 0x80, 0xb3, 0xa4, 0x67,
  0x92, 0x78, 0x8c, 0x63, 0x9b, 0x7c, 0x7a, 0x8b, 0x89, 0x57, 0xad, 0x6a,
  0x9d, 0x6e, 0x9c, 0x4e, 0x6b, 0x76, 0x6f, 0x82, 0x92, 0x7c, 0x85, 0x50,
  0x90, 0x85, 0x58, 0x76, 0x7d, 0xb9, 0x85, 0x4a, 0x8d, 0x67, 0x8d, 0x80,
  0x90, 0x80, 0x66, 0x5f, 0x7d, 0x7d, 0xa2, 0x75, 0x81, 0x8a, 0xa2, 0x6a,
  0x71, 0x8a, 0x67, 0x76, 0x8e, 0x56, 0x78, 0x70, 0x71, 0x67, 0x87, 0x65,
  0xaa, 0x89, 0x76, 0x87, 0x84, 0x80, 0x8d, 0x72, 0x6a, 0x84, 0x5b, 0x6a,
  0x98, 0x5e, 0x8b, 0x64, 0x5b, 0x82, 0x79, 0x68, 0x83, 0x66, 0x79, 0x8b,
  0x78, 0x53, 0x76, 0x74, 0x6b, 0x6a, 0x73, 0x5c, 0xaa, 0x6b, 0x6b, 0x74,
  0x91, 0xa0, 0x69, 0x7f, 0x6c, 0x4f, 0x8a, 0x80, 0x70, 0x7a, 0x92, 0x95,
  0xa3, 0x77, 0x85, 0x60, 0x76, 0x96, 0x6a, 0x7e, 0x81, 0x93, 0x7f, 0x72,
  0x77, 0x7f, 0x8b, 0x6f, 0x7e, 0x72, 0xa2, 0x6d, 0x82, 0x71, 0x79, 0x65,
  0x7e, 0x63, 0x83, 0x63, 0x80, 0x66, 0x83, 0x96, 0x5b, 0x76, 0x90, 0x69,
  0x7f, 0xa9, 0x77, 0x74, 0x8d, 0xa9, 0x78, 0x51, 0x88, 0x4e, 0x3c, 0x61,
  0x8b, 0xa7, 0x80, 0x76, 0x7d, 0x5d, 0x4c, 0x70, 0x9d, 0x9b, 0x80, 0x57,
  0x7b, 0x7c, 0x5f, 0x8d, 0x50, 0x44, 0x8f, 0x9f, 0x59, 0xa3, 0x4a, 0x76,
  0x94, 0x9e, 0x78, 0x81, 0x94, 0x70, 0x5a, 0x78, 0x82, 0x80, 0x91, 0x4b,
  0x91, 0x92, 0x7c, 0x65, 0x83, 0x77, 0x7f, 0x73, 0x97, 0x65, 0x74, 0x9d,
  0x89, 0x5e, 0x9c, 0x71, 0x95, 0xac, 0x60, 0x57, 0x48, 0x73, 0x73, 0x75,
  0x96, 0x90, 0x85, 0x81, 0x94, 0x73, 0x66, 0x55, 0x95, 0x74, 0x61, 0x9c,
  0x9d, 0x89, 0x92, 0x85, 0x98, 0x8a, 0x80, 0x4f, 0x6b, 0x54, 0x8b, 0x7a,
  0x7c, 0x9c, 0x89, 0x6a, 0x86, 0x6c, 0x84, 0x78, 0x7b, 0x6d, 0x9d, 0x6c,
  0x88, 0x65, 0x77, 0x86, 0x7b, 0x5e, 0x70, 0x92, 0x7a, 0x95, 0x8f, 0x8c,
  0x9a, 0x9f, 0x97, 0x5f, 0x80, 0x85, 0x88, 0x65, 0x5e, 0xa4, 0x75, 0x7c,
  0xb2, 0x60, 0x7b, 0x81, 0x7e, 0x72, 0x6e, 0x5f, 0x6a, 0x68, 0x7f, 0x83,
  0x79, 0x74, 0x88, 0x6a, 0x48, 0x55, 0x80, 0x85, 0x88, 0x8f, 0x5e, 0x9a,
  0xb0, 0x7e, 0x7a, 0x7c, 0x83, 0x92, 0x7c, 0x61, 0x4c, 0xb7, 0x95, 0x5a,
  0xa7, 0xa5, 0x7c, 0x53, 0x74, 0x76, 0x87, 0x61, 0x78, 0x76, 0x69, 0x8d,
  0x95, 0x7c, 0x81, 0x8e, 0x90, 0x67, 0x70, 0x59, 0x6d, 0x6b, 0xa5, 0x74,
  0x75, 0x9e, 0x5f, 0x69, 0x8e, 0x8f, 0xa3, 0x6d, 0x9f, 0x46, 0x78, 0x7d,
  0x4f, 0x81, 0x88, 0x91, 0xa9, 0x65, 0x8f, 0x7d, 0x78, 0xa3, 0x91, 0x2d,
  0x63, 0x94, 0x4e, 0x79, 0xa9, 0x85, 0x7b, 0x5e, 0x87, 0x83, 0x5b, 0x66,
  0x5b, 0x4c, 0x79, 0x8f, 0xb1, 0x7e, 0x7a, 0x49, 0x81, 0x79, 0x46, 0x73,
  0x88, 0x7f, 0x76, 0x87, 0x90, 0x50, 0x71, 0x6e, 0x9e, 0x47, 0x6d, 0x56,
  0x97, 0x7e, 0x7b, 0x77, 0x8f, 0x6b, 0x6d, 0x68, 0xa6, 0x32, 0x66, 0x61,
  0x87, 0x7d, 0x49, 0x64, 0x81, 0x60, 0x8a, 0x5a, 0x65, 0x89, 0x8a, 0x6c,
  0xab, 0x5c, 0x81, 0x55, 0x98, 0x6d, 0x51, 0x84, 0x85, 0x62, 0x95, 0x85,
  0x81, 0x9e, 0x8b, 0x57, 0xa9, 0x5a, 0x83, 0x73, 0x78, 0x52, 0x5f, 0x9c,
  0x62, 0x80, 0x9b, 0x78, 0x76, 0x85, 0x86, 0x77, 0x89, 0x66, 0xad, 0x62,
  0x86, 0x6b, 0x75, 0x98, 0x77, 0x73, 0x8e, 0x69, 0x8d, 0x79, 0x4e, 0x57,
  0x85, 0xab, 0x88, 0x75, 0x84, 0x8a, 0x76, 0x8f, 0xa9, 0xb3, 0x90, 0x74,
  0x62, 0x46, 0x8e, 0x83, 0x78, 0x75, 0x6d, 0x6d, 0x81, 0x6b, 0x57, 0x77,
  0x83, 0x46, 0x73, 0x3f, 0x71, 0x67, 0x70, 0x84, 0x5b, 0x9f, 0xa7, 0x5e,
  0x69, 0x55, 0x46, 0xa2, 0x7e, 0x84, 0xaf, 0x65, 0xaa, 0x97, 0xa4, 0x81,
  0x52, 0x90, 0x6d, 0x51, 0xa1, 0x7e, 0x6a, 0x8a, 0x95, 0x7c, 0x85, 0x58,
  0x5d, 0x6b, 0x81, 0x66, 0x78, 0x64, 0x97, 0x6b, 0x6d, 0x73, 0x6a, 0x8e,
  0x81, 0x50, 0x34, 0x61, 0xb2, 0x8f, 0x6f, 0x89, 0x87, 0x80, 0x5e, 0x60,
  0x8a, 0x95, 0x70, 0x66, 0x93, 0x7b, 0x82, 0x69, 0x97, 0x7d, 0x9e, 0x78,
  0x9d, 0x56, 0x77, 0x7f, 0x92, 0x7a, 0x61, 0x9a, 0x5e, 0x4d, 0x57, 0x76,
  0x9b, 0x64, 0x5f, 0x72, 0x71, 0x60, 0x71, 0x6c, 0x80, 0x4e, 0x6a, 0x5b,
  0x7a, 0x79, 0x7a, 0x9d, 0x75, 0x78, 0x77, 0x7a, 0x9a, 0x98, 0x85, 0x73,
  0x9b, 0x73, 0x94, 0x7f, 0x57, 0x9f, 0xa9, 0x49, 0x51, 0xb0, 0x6d, 0xa0,
  0x67, 0x5c, 0x85, 0x83, 0x5a, 0x62, 0x7d, 0x8a, 0x65, 0x78, 0x71, 0x9a,
  0x7f, 0x7c, 0x49, 0x65, 0x7f, 0xa3, 0x8b, 0x8e, 0x7e, 0x71, 0x87, 0x7b,
  0x83, 0xa8, 0x94, 0x55, 0x9a, 0x77, 0x67, 0x52, 0x81, 0x81, 0x83, 0x3f,
  0x75, 0x7b, 0x77, 0x86, 0x45, 0x7b, 0xa3, 0x77, 0x9b, 0x73, 0x83, 0xbb,
  0xaa, 0x8c, 0x7d, 0x62, 0x7e, 0x47, 0x60, 0x68, 0x80, 0x9e, 0x88, 0x6e,
  0x8b, 0x8c, 0x7f, 0x96, 0x6f, 0xa7, 0xa0, 0x5d, 0xae, 0x7a, 0x8a, 0x7e,
  0xa7, 0x98, 0x67, 0x73, 0x51, 0x7c, 0x55, 0x70, 0xa7, 0x52, 0x78, 0x41,
  0x90, 0x6c, 0x76, 0x58, 0x77, 0x8c, 0x46, 0xa1, 0x6e, 0xa3, 0xac, 0x75,
  0x54, 0x53, 0x63, 0x87, 0x7e, 0x72, 0x7a, 0x5b, 0x78, 0x52, 0x79, 0x9e,
  0x9e, 0x73, 0x89, 0x7c, 0x98, 0x74, 0x87, 0x98, 0x8e, 0x5d, 0x65, 0x81,
  0x99, 0x90, 0x93, 0xaa, 0x72, 0x66, 0x6f, 0x73, 0x85, 0x68, 0x76, 0x78,
  0x70, 0xac, 0x81, 0x60, 0xaa, 0x58, 0x81, 0x85, 0x99, 0x60, 0x64, 0x80,
  0x9f, 0x9d, 0x89, 0x76, 0x9f, 0xa5, 0x58, 0x78, 0x97, 0x5d, 0x8f, 0x9a,
  0x77, 0x8d, 0x87, 0x8b, 0x46, 0x77, 0x92, 0x81, 0x6f, 0x65, 0x81, 0x9b,
  0x5c, 0x70, 0xb2, 0x6f, 0x83, 0x47, 0x63, 0x82, 0x84, 0x63, 0xa6, 0x85,
  0x7a, 0x5d, 0x5f, 0x79, 0x6e, 0x79, 0xa1, 0x6f, 0x7e, 0x7d, 0x86, 0x5f,
  0x60, 0x59, 0x9a, 0x64, 0x76, 0x6a, 0x73, 0x8a, 0x7a, 0x65, 0xa8, 0x96,
  0x70, 0x9c, 0x9d, 0x78, 0x88, 0x96, 0x99, 0x64, 0x91, 0x66, 0x8b, 0x71,
  0x90, 0x85, 0x95, 0x3a, 0x8a, 0x7a, 0x5f, 0x89, 0x63, 0x88, 0x91, 0x2f,
  0x9e, 0x7a, 0x50, 0x8e, 0x89, 0x87, 0x8e, 0x6b, 0x9f, 0x60, 0x90, 0x7b,
  0x57, 0x8a, 0x71, 0x6d, 0x86, 0x76, 0x91, 0x5f, 0xb1, 0x84, 0x68, 0x81,
  0x6d, 0x98, 0x9a, 0x71, 0x47, 0xab, 0x73, 0x60, 0x6e, 0x7b, 0x81, 0x2a,
  0x6f, 0x9e, 0x8a, 0x8c, 0x66, 0x59, 0x68, 0x80, 0x66, 0x63, 0x9f, 0x83,
  0x88, 0x7c, 0x48, 0x92, 0x67, 0x70, 0xab, 0x9f, 0x6c, 0x6f, 0x5d, 0x75,
  0x6b, 0x79, 0x9b, 0x83, 0x71, 0x8e, 0x8a, 0x6b, 0x57, 0x8b, 0xb3, 0x65,
  0x83, 0x7d, 0x83, 0x5b, 0xab, 0x7f, 0xce, 0x6c, 0x6f, 0x93, 0x4f, 0x5c,
  0x85, 0x9f, 0xc6, 0xa3, 0x78, 0x7c, 0x51, 0x66, 0xaa, 0x97, 0x8c, 0x7c,
  0x79, 0x53, 0x61, 0x62, 0x67, 0xaf, 0xa6, 0x69, 0x53, 0x7e, 0x60, 0x5e,
  0x4a, 0x73, 0xb8, 0x6d, 0x6e, 0x7b, 0x57, 0x5d, 0x69, 0x68, 0xad, 0x8d,
  0x6f, 0x7c, 0x49, 0x5a, 0x55, 0xab, 0xbc, 0x67, 0x78, 0x88, 0x74, 0x7e,
  0x7e, 0x63, 0xdd, 0x7a, 0x92, 0x8d, 0x68, 0x6e, 0x73, 0x72, 0xb4, 0x52,
  0x5b, 0x73, 0x75, 0x89, 0x90, 0x67, 0xc0, 0x79, 0x5a, 0x5c, 0x78, 0x76,
  0x7b, 0x6c, 0x8a, 0x66, 0x63, 0x8f, 0x87, 0x8e, 0x76, 0x9a, 0x94, 0x71,
  0x72, 0x58, 0x78, 0x9b, 0x6f, 0x55, 0x98, 0x32, 0x93, 0x3a, 0xa5, 0x36,
  0x90, 0x89, 0x4f, 0x92, 0x9b, 0x65, 0xaf, 0x6b, 0x86, 0x78, 0x54, 0x77,
  0x93, 0x83, 0x55, 0x43, 0x8f, 0x83, 0x71, 0x6e, 0x75, 0x7f, 0x91, 0x69,
  0x9d, 0x81, 0x69, 0x61, 0x8c, 0x7b, 0x79, 0x63, 0x7d, 0x6a, 0x57, 0x47,
  0x98, 0x67, 0x5d, 0x77, 0x92, 0x60, 0x99, 0x7f, 0x8c, 0x62, 0x77, 0x9b,
  0xb5, 0x85, 0x8a, 0x9f, 0x76, 0x6f, 0x84, 0x57, 0x6c, 0x5e, 0x8f, 0x93,
  0x8c, 0x79, 0x73, 0x6d, 0x5d, 0x7d, 0x63, 0x7c, 0x75, 0x59, 0x71, 0x9a,
  0x57, 0x7d, 0x81, 0x62, 0x89, 0x70, 0x58, 0x75, 0x92, 0x53, 0x75, 0x75,
  0x8f, 0x6d, 0x4b, 0x5a, 0x6f, 0x95, 0x5e, 0x6a, 0x84, 0xa6, 0x92, 0x51,
  0x9d, 0x90, 0x9f, 0x6e, 0x87, 0x85, 0x45, 0x53, 0x6a, 0x62, 0x85, 0x86,
  0x85, 0x89, 0x51, 0x53, 0x78, 0x94, 0x9e, 0x66, 0x95, 0x75, 0x77, 0x63,
  0x80, 0x91, 0x7d, 0x42, 0x95, 0xa4, 0x69, 0x8a, 0x62, 0x66, 0x60, 0x58,
  0x94, 0xa0, 0x8a, 0x7a, 0x5b, 0x7d, 0x61, 0x6a, 0x78, 0x7f, 0x7a, 0x91,
  0x84, 0x90, 0x94, 0x4b, 0x4a, 0x89, 0x50, 0x83, 0x84, 0x7d, 0x80, 0x60,
  0x94, 0x75, 0x65, 0x6b, 0x84, 0x80, 0x65, 0x67, 0x90, 0x8a, 0x9b, 0x55,
  0x84, 0x71, 0x90, 0x6c, 0x7c, 0x9a, 0x78, 0x52, 0x8d, 0x44, 0xa3, 0x46,
  0x94, 0x82, 0x79, 0x89, 0x4d, 0x40, 0xaf, 0x54, 0x8f, 0xb4, 0x5c, 0x73,
  0x6d, 0x65, 0x9d, 0x5e, 0xa2, 0x90, 0x77, 0x48, 0x81, 0x87, 0xa4, 0x47,
  0x68, 0xae, 0x9a, 0x57, 0x56, 0x5d, 0x82, 0x49, 0x76, 0x67, 0x5c, 0x60,
  0x6e, 0x69, 0xc0, 0x67, 0x9d, 0x8d, 0x79, 0x59, 0x5a, 0x50, 0xa7, 0x60,
  0x70, 0x7f, 0x7e, 0x5f, 0xad, 0x7b, 0x7c, 0x76, 0x91, 0x99, 0x8d, 0x67,
  0x5e, 0x63, 0xb6, 0x5b, 0x8a, 0xa9, 0x74, 0x6a, 0x7c, 0x6b, 0x9f, 0x79,
  0x63, 0x7b, 0x5a, 0x8e, 0x6f, 0x8a, 0xc8, 0x67, 0x9e, 0x7b, 0x72, 0x65,
  0x62, 0xa1, 0xbc, 0x34, 0x96, 0x99, 0x77, 0x6a, 0x58, 0x6f, 0x9a, 0x3d,
  0x75, 0xa3, 0x73, 0x5a, 0x7e, 0x65, 0xa6, 0x4e, 0xb1, 0xa1, 0x7a, 0x76,
  0x94, 0x64, 0x87, 0x45, 0x98, 0x98, 0x56, 0x89, 0x73, 0x75, 0xb0, 0x33,
  0x78, 0x78, 0x7e, 0x71, 0x82, 0x6a, 0xcf, 0x74, 0x62, 0xb5, 0x6e, 0x5b,
  0x6f, 0x77, 0x95, 0x42, 0xa3, 0x7a, 0x7c, 0x88, 0x40, 0x62, 0x55, 0x76,
  0xa6, 0x85, 0x8d, 0x9a, 0x96, 0x65, 0x80, 0x55, 0x97, 0x8d, 0x90, 0xa4,
  0x6c, 0x4a, 0x68, 0x39, 0x9a, 0x56, 0x83, 0x97, 0xa5, 0x48, 0x92, 0x45,
  0x98, 0x93, 0xa8, 0x96, 0x5d, 0x62, 0x88, 0x1a, 0x8f, 0x9e, 0x6e, 0x95,
  0x96, 0x60, 0x66, 0x39, 0x8d, 0x7b, 0x54, 0x95, 0x75, 0x59, 0x85, 0x3d,
  0x97, 0x41, 0x73, 0x7e, 0x63, 0x62, 0x91, 0x14, 0xa1, 0xb2, 0x87, 0x82,
  0x6a, 0x8c, 0x7b, 0x2c, 0xa5, 0x45, 0x83, 0x88, 0x84, 0x9b, 0x98, 0x4e,
  0xa1, 0x7f, 0x78, 0x7b, 0x81, 0x7b, 0x80, 0x4d, 0x99, 0x6e, 0x7e, 0x8b,
  0x64, 0x52, 0x7a, 0x4a, 0xa1, 0x70, 0xa7, 0x77, 0x60, 0x49, 0x88, 0x4f,
  0x9e, 0x84, 0x67, 0x7c, 0x55, 0x72, 0xb1, 0x57, 0x85, 0x78, 0x87, 0x8a,
  0x8a, 0x7f, 0x89, 0x3d, 0x7a, 0x43, 0x90, 0x70, 0x95, 0x97, 0x66, 0x34,
  0x88, 0x69, 0xa5, 0x8b, 0x8e, 0x29, 0x87, 0x46, 0x96, 0x8e, 0x81, 0x72,
  0x4d, 0x63, 0x82, 0x49, 0x85, 0x7b, 0x9e, 0x9b, 0x71, 0xb8, 0xa3, 0x53,
  0x6d, 0x59, 0x75, 0x7b, 0x53, 0x8c, 0xa3, 0x56, 0xc8, 0x7d, 0x64, 0x95,
  0x6d, 0xae, 0x7b, 0x8b, 0xba, 0x65, 0x9b, 0xac, 0x96, 0x75, 0xa4, 0x81,
  0x9d, 0x7b, 0xac, 0xb7, 0x58, 0x3c, 0x6c, 0x97, 0xb8, 0x8d, 0x95, 0x84,
  0x6d, 0x6f, 0x92, 0x77, 0xb1, 0x7d, 0x7b, 0x91, 0x84, 0x52, 0x86, 0x7f,
  0xa4, 0xac, 0x69, 0x95, 0x93, 0x62, 0x60, 0x74, 0x96, 0x45, 0x84, 0x67,
  0x61, 0x88, 0x6c, 0x6c, 0x99, 0x64, 0x81, 0x73, 0x7e, 0x73, 0x99, 0x6a,
  0xa4, 0x7f, 0x7f, 0x8d, 0x82, 0x8c, 0x81, 0x70, 0x90, 0x42, 0x97, 0x68,
  0x8b, 0x52, 0x7d, 0x68, 0xb1, 0x8a, 0x6b, 0x8a, 0x95, 0x6f, 0x58, 0x5a,
  0xa9, 0x81, 0xa0, 0x68, 0x63, 0x6e, 0x6a, 0x5e, 0x8d, 0x95, 0xa7, 0x84,
  0x89, 0x16, 0x51, 0x4e, 0x94, 0x41, 0x6f, 0x64, 0x82, 0x7a, 0x9c, 0x4f,
  0x9a, 0x94, 0xaa, 0x85, 0x8d, 0x73, 0x96, 0x5b, 0xa2, 0x6b, 0x62, 0x5c,
  0x7e, 0x3e, 0x59, 0x6d, 0x89, 0xb3, 0x57, 0x48, 0x84, 0x26, 0x62, 0x4c,
  0x8b, 0x67, 0xac, 0x9f, 0x76, 0x5b, 0x78, 0x74, 0x74, 0x5e, 0x89, 0x73,
  0x93, 0xb3, 0xed, 0x68, 0x9b, 0x85, 0x97, 0x57, 0x8e, 0x7a, 0x92, 0x35,
  0xb1, 0x79, 0x50, 0x4c, 0x6b, 0x71, 0x4b, 0xad, 0xc2, 0x6f, 0x70, 0x96,
  0x7f, 0x73, 0x96, 0xa7, 0xa2, 0x5e, 0xad, 0x9f, 0x4c, 0x4c, 0x67, 0x9f,
  0xa6, 0x6a, 0x48, 0x84, 0x6e, 0x64, 0x6a, 0x95, 0x6d, 0x76, 0x6d, 0x83,
  0x41, 0x7f, 0x99, 0x8e, 0x79, 0x6e, 0x6f, 0x91, 0x67, 0x4c, 0x89, 0x7f,
  0x7d, 0x93, 0x56, 0x73, 0x63, 0x52, 0x7b, 0x77, 0x69, 0x5a, 0x56, 0x91,
  0x84, 0x5d, 0x82, 0x7c, 0x64, 0x97, 0xb1, 0x6a, 0x78, 0x88, 0x9a, 0x7c,
  0x88, 0x80, 0xa2, 0x86, 0xad, 0x66, 0x9e, 0x7b, 0x5d, 0x68, 0x84, 0x83,
  0x86, 0x72, 0xac, 0x6b, 0x87, 0x61, 0x5f, 0x62, 0x81, 0x68, 0x8e, 0x8c,
  0x85, 0x88, 0x86, 0x88, 0x80, 0x28, 0x8f, 0x79, 0x9d, 0x79, 0x92, 0x7e,
  0x75, 0x85, 0xb4, 0x85, 0x71, 0x6a, 0x85, 0x8f, 0x6b, 0x61, 0xa8, 0x6c,
  0x84, 0x80, 0xa1, 0x73, 0x60, 0x63, 0xa2, 0x5d, 0x8d, 0x63, 0x60, 0x7b,
  0x7d, 0x13, 0xa9, 0x66, 0xbf, 0x7b, 0x86, 0xb5, 0x96, 0x2f, 0x8e, 0x80,
  0x8a, 0x7a, 0x74, 0x71, 0x88, 0xc3, 0xdc, 0x69, 0x6a, 0x97, 0xa1, 0x77,
  0x90, 0x91, 0x84, 0x4f, 0xb0, 0x8d, 0x3b, 0x55, 0x82, 0x86, 0x52, 0xa4,
  0x6a, 0x60, 0x58, 0x9e, 0x6f, 0x74, 0x6a, 0xe4, 0x7b, 0x64, 0x6c, 0x4f,
  0x51, 0x44, 0x84, 0xc4, 0x67, 0x79, 0x82, 0x5e, 0x6a, 0x52, 0x62, 0xa3,
  0x5d, 0x6b, 0x6f, 0x67, 0x4c, 0x5b, 0xa8, 0xae, 0x61, 0x93, 0x6e, 0x68,
  0x7d, 0x7f, 0x82, 0x8e, 0x82, 0x5d, 0x97, 0x66, 0x92, 0x74, 0x84, 0xa6,
  0x79, 0x7a, 0x7a, 0x58, 0x8c, 0x6d, 0x9f, 0x83, 0x68, 0xab, 0x72, 0x4b,
  0x76, 0x41, 0x7a, 0xb0, 0x60, 0x93, 0x50, 0x69, 0x71, 0x78, 0x8f, 0x79,
  0x62, 0x79, 0x82, 0x5e, 0x98, 0x6a, 0xb1, 0x96, 0x73, 0x99, 0x5d, 0x54,
  0x8a, 0x29, 0x7c, 0x87, 0x90, 0x73, 0x72, 0x5d, 0x55, 0x48, 0x88, 0x8a,
  0x87, 0x77, 0x80, 0x94, 0x76, 0x4e, 0x81, 0x7c, 0x6b, 0x80, 0x74, 0x69,
  0x9b, 0x71, 0x9a, 0x6f, 0x81, 0x8f, 0x91, 0x85, 0x74, 0x41, 0x77, 0x84,
  0x78, 0x8b, 0x63, 0x68, 0x78, 0x1b, 0x7a, 0x6a, 0x99, 0x7c, 0x82, 0x8c,
  0xa6, 0x26, 0xa9, 0x5e, 0x7e, 0x85, 0x5e, 0x6e, 0x6b, 0xc8, 0xb2, 0x74,
  0x61, 0x7e, 0x59, 0x81, 0x81, 0x79, 0xab, 0x46, 0x95, 0x82, 0x58, 0x55,
  0x92, 0x60, 0x77, 0xc5, 0x4b, 0x8b, 0x70, 0xac, 0x71, 0x46, 0x6a, 0xf7,
  0x3f, 0x74, 0x5f, 0x82, 0x85, 0x88, 0x5c, 0xc1, 0x58, 0x72, 0x48, 0x6f,
  0x92, 0x6d, 0x86, 0xaa, 0x6f, 0x6b, 0x79, 0x51, 0x42, 0x61, 0x77, 0xb2,
  0x5d, 0x98, 0x61, 0x85, 0x87, 0x93, 0x82, 0xaa, 0x74, 0x57, 0x52, 0x6b,
  0x77, 0x7a, 0xb6, 0xbd, 0x37, 0x72, 0x74, 0x4c, 0x89, 0x5c, 0x60, 0xa0,
  0x56, 0x8e, 0x62, 0x8e, 0x9a, 0x92, 0x6e, 0x7f, 0x64, 0xa0, 0x8a, 0x69,
  0x75, 0x4b, 0xa8, 0xa4, 0x52, 0x9b, 0x53, 0x46, 0x58, 0x59, 0x78, 0x78,
  0x6b, 0x99, 0x8e, 0x60, 0x6b, 0x5f, 0x90, 0x8a, 0x79, 0x6c, 0xa4, 0x5e,
  0xa6, 0x54, 0x8e, 0x93, 0x6a, 0x7e, 0x84, 0x8e, 0x4f, 0x57, 0x99, 0x80,
  0x6d, 0x74, 0x94, 0x51, 0xad, 0x66, 0x90, 0x70, 0xa4, 0x8a, 0x86, 0x72,
  0x9b, 0x64, 0x9e, 0x7d, 0x5b, 0x72, 0x85, 0x53, 0x5e, 0x42, 0x48, 0x5e,
  0x91, 0x87, 0x9b, 0xa9, 0x9b, 0x2d, 0x9c, 0x82, 0x7b, 0x7f, 0x7f, 0x6c,
  0x7c, 0x97, 0xd3, 0x6d, 0x6f, 0x94, 0x64, 0x88, 0x8a, 0x7d, 0xb4, 0x57,
  0xa8, 0x6a, 0x2b, 0x47, 0x9d, 0x58, 0x7d, 0xc2, 0x2c, 0x63, 0x56, 0xc4,
  0x68, 0x5d, 0x76, 0xf0, 0x06, 0x99, 0x71, 0x8a, 0x7a, 0x89, 0x9b, 0xd9,
  0x1a, 0x99, 0x7e, 0x80, 0x6c, 0x83, 0x88, 0xd5, 0x46, 0x74, 0x5d, 0x7e,
  0x9c, 0x6a, 0xa1, 0xb6, 0x5a, 0x98, 0x6e, 0x69, 0x78, 0x8c, 0x88, 0xaa,
  0x28, 0x6f, 0x42, 0x78, 0x64, 0x8e, 0x86, 0xb9, 0x5b, 0x51, 0x87, 0x69,
  0x74, 0x67, 0x84, 0xb5, 0x85, 0x79, 0x71, 0x70, 0x58, 0x6e, 0x8f, 0x99,
  0x31, 0x79, 0x6f, 0x67, 0x8c, 0x5e, 0x9d, 0x83, 0x6e, 0x9c, 0x7f, 0x66,
  0x79, 0x66, 0x60, 0x94, 0x57, 0x70, 0x5c, 0x40, 0x50, 0x2d, 0x8e, 0x9e,
  0x78, 0x6b, 0x5d, 0x70, 0x83, 0x4c, 0x98, 0x85, 0x6c, 0x6d, 0x78, 0xa1,
  0x9d, 0x69, 0xa9, 0x8a, 0x4c, 0x48, 0x69, 0x78, 0x67, 0x80, 0x88, 0x8f,
  0x68, 0x85, 0x77, 0x62, 0x95, 0x69, 0x78, 0x7f, 0xa8, 0x46, 0xa0, 0x4f,
  0x82, 0x59, 0x87, 0x8e, 0x6b, 0x65, 0x8c, 0x93, 0x81, 0x28, 0xaa, 0x68,
  0x9c, 0x72, 0x50, 0x88, 0x9a, 0xb7, 0x9c, 0x6b, 0x71, 0x7f, 0x76, 0x93,
  0x76, 0x6d, 0x70, 0x61, 0x75, 0x9f, 0x65, 0x52, 0x60, 0x6a, 0x75, 0xb0,
  0x53, 0x5d, 0x44, 0xa2, 0x7b, 0x83, 0x76, 0xa4, 0x41, 0x6e, 0x8a, 0x5a,
  0x5b, 0x74, 0x82, 0x91, 0x49, 0x7c, 0x63, 0x6c, 0x59, 0x67, 0xb1, 0x8f,
  0x56, 0x97, 0x94, 0x88, 0x89, 0x46, 0x96, 0xa1, 0x34, 0x83, 0x67, 0xab,
  0x7b, 0x75, 0xa5, 0xac, 0x5c, 0x80, 0x6c, 0x7d, 0x5c, 0x75, 0x72, 0x9b,
  0x4a, 0x63, 0x93, 0x8f, 0x4c, 0x93, 0x8a, 0x8f, 0x41, 0x70, 0x61, 0x90,
  0x96, 0x85, 0xb0, 0x9e, 0x56, 0x9b, 0x46, 0x74, 0x95, 0x58, 0xaa, 0x7e,
  0x31, 0x7b, 0x39, 0x60, 0x76, 0x4d, 0x94, 0x9c, 0x78, 0x88, 0x52, 0x6d,
  0x60, 0x32, 0x74, 0xa5, 0x80, 0x79, 0x4e, 0x71, 0x85, 0x47, 0xa2, 0x9f,
  0x6c, 0x59, 0x91, 0x67, 0x85, 0x56, 0x8d, 0x9c, 0x77, 0x56, 0x8c, 0x4d,
  0x71, 0x8b, 0x7b, 0xb5, 0x93, 0x84, 0x7e, 0x72, 0x9d, 0x70, 0x8a, 0xaf,
  0x9a, 0x6d, 0x79, 0x81, 0xa6, 0x57, 0x6f, 0x82, 0x78, 0x65, 0x85, 0x93,
  0xaa, 0x50, 0x97, 0x75, 0x64, 0x8a, 0x9e, 0x92, 0x8a, 0x93, 0xaf, 0x53,
  0x84, 0x8d, 0x88, 0x7d, 0x95, 0x78, 0x92, 0x79, 0x8c, 0xa7, 0x87, 0x84,
  0x69, 0x85, 0x65, 0xd0, 0x53, 0xac, 0x47, 0xb1, 0x79, 0x7a, 0x72, 0x9f,
  0x2b, 0x7b, 0x3d, 0x61, 0x80, 0x70, 0x73, 0x9e, 0x60, 0x63, 0x5c, 0x6c,
  0x53, 0x3d, 0x9b, 0x7a, 0x58, 0x60, 0x7b, 0x70, 0x3d, 0x90, 0x8f, 0xb3,
  0x5b, 0x80, 0x74, 0x94, 0x98, 0x9e, 0x9b, 0x97, 0x81, 0x93, 0x8c, 0x6a,
  0x88, 0x89, 0xa3, 0x89, 0x7d, 0x9a, 0x47, 0x79, 0x75, 0x88, 0x8d, 0x76,
  0x77, 0x63, 0x5a, 0x72, 0x81, 0x4b, 0x88, 0x9a, 0x67, 0xa2, 0x70, 0x6a,
  0x8f, 0x77, 0xad, 0x88, 0x71, 0x7c, 0x60, 0x7a, 0x95, 0x41, 0xa6, 0x85,
  0x87, 0x6f, 0x88, 0x72, 0x71, 0x51, 0x9c, 0xa9, 0x5d, 0x6c, 0x63, 0x74,
  0x7c, 0x4c, 0xa8, 0x96, 0x60, 0x6c, 0x9a, 0x79, 0x9d, 0x84, 0xa0, 0x9c,
  0x89, 0x91, 0xa7, 0x81, 0x75, 0x4f, 0x85, 0x7b, 0x86, 0x68, 0x83, 0x95,
  0xa3, 0x45, 0x7b, 0xc4, 0x8d, 0x93, 0xa8, 0x59, 0x62, 0x50, 0x79, 0x98,
  0x8a, 0x6f, 0x80, 0x8b, 0x7a, 0x58, 0x76, 0x81, 0x81, 0x61, 0x88, 0x6c,
  0x6d, 0x7c, 0x71, 0x76, 0x6f, 0x5c, 0x65, 0x77, 0x83, 0x85, 0x80, 0x7a,
  0x84, 0x7a, 0x6a, 0x6a, 0x77, 0x87, 0x9d, 0xaf, 0x26, 0x91, 0x5e, 0xae,
  0x77, 0x8c, 0x77, 0xa6, 0x1a, 0x8c, 0x59, 0xb4, 0x7c, 0x62, 0x8f, 0x91,
  0x6e, 0x84, 0x31, 0x96, 0x91, 0x64, 0x8b, 0x78, 0x6d, 0x6d, 0x54, 0x8f,
  0x64, 0x5b, 0x8f, 0x86, 0x80, 0xa5, 0x43, 0xb6, 0x5b, 0x63, 0x7c, 0x7b,
  0x8d, 0x7d, 0x7b, 0x6d, 0x81, 0x81, 0x86, 0x96, 0x42, 0x4e, 0x6d, 0x7a,
  0x9a, 0x59, 0x63, 0x93, 0x56, 0x5a, 0x45, 0x69, 0x8f, 0x63, 0x99, 0x98,
  0x7c, 0x52, 0x5c, 0x85, 0x83, 0x5d, 0x8c, 0x6a, 0x62, 0x69, 0x68, 0x6a,
  0x87, 0x86, 0xa2, 0x68, 0x55, 0x7c, 0x49, 0x70, 0x61, 0x6d, 0xa1, 0xa4,
  0x68, 0x61, 0xa5, 0x93, 0x72, 0x47, 0x82, 0x85, 0x51, 0x45, 0x75, 0x88,
  0x85, 0x63, 0x8b, 0xab, 0x67, 0x5a, 0x77, 0x9c, 0x68, 0x52, 0x97, 0xab,
  0xa8, 0x85, 0x97, 0x6f, 0x72, 0x75, 0x84, 0x9b, 0xa8, 0xac, 0x61, 0x7d,
  0xa7, 0x7e, 0x8a, 0x86, 0x95, 0x8a, 0x7c, 0x70, 0x83, 0x43, 0x7d, 0x76,
  0x75, 0x78, 0x81, 0x71, 0x7d, 0xa0, 0x6e, 0x6c, 0x4d, 0x73, 0x84, 0x8b,
  0x7e, 0x95, 0x84, 0x85, 0x7d, 0x9e, 0x57, 0x74, 0x61, 0x5c, 0x8a, 0xbd,
  0x67, 0x8d, 0x6c, 0xad, 0x6b, 0x98, 0xa2, 0x81, 0x49, 0x62, 0x62, 0xb8,
  0x4a, 0x4c, 0xa6, 0x7f, 0x3c, 0x46, 0x74, 0x6f, 0x93, 0x79, 0x9c, 0x61,
  0x56, 0x85, 0x7d, 0x72, 0x4e, 0x6c, 0x86, 0x7f, 0x80, 0xab, 0x71, 0x9b,
  0x72, 0x5f, 0x57, 0x8e, 0x69, 0x6c, 0x82, 0x91, 0x8e, 0x68, 0x8a, 0xa7,
  0x46, 0x64, 0x4e, 0x9a, 0x91, 0x83, 0x6f, 0x86, 0x8f, 0xb0, 0x68, 0x8e,
  0x71, 0x84, 0x90, 0x7f, 0x8b, 0x8d, 0x72, 0x63, 0x86, 0x84, 0x81, 0x8f,
  0x6d, 0x89, 0x63, 0x78, 0x80, 0x7e, 0x8d, 0x9b, 0x7c, 0xa3, 0x67, 0x6d,
  0x90, 0x63, 0xa1, 0xa3, 0x56, 0x68, 0x66, 0x7f, 0x7f, 0x3c, 0x84, 0x62,
  0x75, 0x86, 0x92, 0x64, 0x58, 0x79, 0xac, 0x8d, 0x8f, 0x6c, 0x67, 0x6c,
  0x66, 0x7c, 0x87, 0xb2, 0x97, 0xac, 0x67, 0x85, 0x7a, 0x60, 0xa5, 0xd1,
  0x84, 0x71, 0xa5, 0x7a, 0x94, 0x46, 0x70, 0x96, 0x6f, 0x60, 0x7e, 0x97,
  0x78, 0x74, 0x75, 0x92, 0xad, 0x84, 0x7d, 0x72, 0x79, 0xbd, 0x7c, 0x98,
  0x93, 0x94, 0x64, 0x8e, 0x79, 0x9e, 0x8d, 0x7b, 0x7e, 0x80, 0x45, 0x82,
  0x70, 0x8f, 0x8d, 0x92, 0x4b, 0xa4, 0x9a, 0x8c, 0x7a, 0x87, 0x88, 0x83,
  0x47, 0x96, 0x4c, 0xb0, 0x6f, 0x72, 0x83, 0x7d, 0x5d, 0x88, 0x5e, 0x7f,
  0x4e, 0x4d, 0x76, 0x8e, 0x6d, 0x4c, 0x5e, 0x8e, 0x6f, 0x69, 0x7f, 0x96,
  0x72, 0x8c, 0x8b, 0xa8, 0x8a, 0x7f, 0x7a, 0x7a, 0x63, 0x7d, 0x55, 0x74,
  0x85, 0x60, 0x7f, 0x89, 0x74, 0x94, 0x63, 0x85, 0x46, 0x75, 0x6e, 0x7b,
  0x83, 0x7c, 0x50, 0x87, 0x76, 0x56, 0x75, 0x8d, 0x7c, 0x84, 0x4b, 0x71,
  0x8c, 0x85, 0x6c, 0xa4, 0x88, 0x93, 0x97, 0xab, 0x86, 0x7d, 0x7b, 0x68,
  0x7e, 0x6e, 0x61, 0x8b, 0x6e, 0x72, 0x92, 0x7d, 0x6d, 0x89, 0x80, 0x95,
  0x7d, 0x5d, 0x87, 0xb3, 0x72, 0x5c, 0x5a, 0xa1, 0x75, 0x7b, 0x6a, 0x86,
  0x61, 0x7c, 0x67, 0x9c, 0x86, 0x87, 0x73, 0xab, 0x7e, 0x6d, 0xa4, 0x4d,
  0x61, 0x68, 0x8d, 0x84, 0xb1, 0x83, 0x9a, 0x4d, 0x5a, 0x3a, 0x8a, 0xca,
  0x8f, 0x74, 0x63, 0x77, 0x67, 0x7a, 0x8c, 0xb4, 0x9b, 0x7b, 0xa0, 0x5c,
  0x7b, 0xb6, 0x77, 0x8c, 0x75, 0x8f, 0x6b, 0x90, 0x76, 0xad, 0x79, 0x6c,
  0x6b, 0x70, 0x4b, 0x77, 0x8b, 0xa1, 0xa8, 0xae, 0x5a, 0x4f, 0x64, 0x9f,
  0x74, 0x71, 0x8d, 0x99, 0x55, 0x77, 0x65, 0x75, 0x8e, 0xa2, 0x84, 0x6d,
  0x40, 0x81, 0x78, 0x6f, 0x54, 0x5e, 0x9d, 0x5d, 0x62, 0x6a, 0x7f, 0x87,
  0x71, 0x92, 0x7c, 0x7a, 0x54, 0x86, 0x68, 0xa7, 0x55, 0xa0, 0x7f, 0x80,
  0x8b, 0x73, 0x59, 0x74, 0x7a, 0x98, 0x74, 0x80, 0x89, 0x76, 0x53, 0xb2,
  0x75, 0x94, 0x7c, 0xa2, 0x71, 0x88, 0x7e, 0x93, 0x67, 0x63, 0x6c, 0x68,
  0x71, 0xa4, 0x54, 0x9d, 0x7a, 0x61, 0x6f, 0xb4, 0x63, 0x88, 0x59, 0x79,
  0x67, 0x72, 0x76, 0xa3, 0x67, 0x7e, 0x66, 0x72, 0x56, 0x49, 0x99, 0x9b,
  0x75, 0x63, 0x78, 0x75, 0x8e, 0x66, 0x8a, 0x9e, 0x5e, 0xa2, 0x72, 0x7c,
  0x73, 0x61, 0x84, 0x6b, 0x69, 0x51, 0x6d, 0x82, 0xa0, 0x7a, 0x6d, 0xa9,
  0x8e, 0x86, 0x9a, 0x99, 0x7a, 0x87, 0x68, 0x96, 0x8a, 0xb3, 0x6f, 0x68,
  0x72, 0x5a, 0x73, 0xb3, 0xa3, 0x83, 0x87, 0x7a, 0x6b, 0x50, 0x7e, 0xa3,
  0x81, 0x7d, 0x60, 0x6b, 0x74, 0xb5, 0x7a, 0x6d, 0x6d, 0xa7, 0x63, 0x98,
  0x6d, 0xa2, 0x74, 0x4a, 0x99, 0x8c, 0x82, 0x69, 0x96, 0x70, 0x9d, 0x9c,
  0x50, 0x69, 0x83, 0xbd, 0x9b, 0x74, 0x90, 0x93, 0x50, 0x6f, 0x67, 0x85,
  0x7d, 0x4c, 0x7c, 0x7d, 0x60, 0x63, 0x6b, 0x6b, 0x94, 0x5a, 0xa0, 0x5a,
  0x50, 0x86, 0x42, 0x81, 0x6b, 0x94, 0x9b, 0x81, 0x8a, 0x91, 0x75, 0x94,
  0x87, 0x71, 0x6a, 0x8f, 0x8d, 0x7c, 0x84, 0xa0, 0x5e, 0xa3, 0x5f, 0xa6,
  0x73, 0x81, 0x72, 0x82, 0x84, 0x78, 0x84, 0x7c, 0x61, 0x7f, 0x52, 0x9d,
  0x77, 0x88, 0x57, 0x9c, 0x74, 0x5a, 0x8f, 0x98, 0x55, 0x7c, 0x69, 0x9b,
  0x83, 0x88, 0x5c, 0xa6, 0x43, 0x8c, 0x83, 0x89, 0x70, 0x92, 0x8b, 0x80,
  0xa5, 0x4d, 0x87, 0x86, 0x9a, 0x87, 0x90, 0x95, 0x7f, 0x72, 0x7e, 0x78,
  0x7e, 0x92, 0x55, 0x74, 0x63, 0x70, 0x8a, 0x8d, 0x76, 0x5a, 0x71, 0x98,
  0x71, 0x62, 0x7f, 0xaf, 0x83, 0x96, 0x86, 0x8b, 0x55, 0x6b, 0x73, 0xbb,
  0x99, 0x74, 0x8a, 0x65, 0x8b, 0x66, 0x64, 0x83, 0xa2, 0x7e, 0x8f, 0x8c,
  0x82, 0x93, 0x69, 0x7c, 0x9d, 0x73, 0x6c, 0x5d, 0x4b, 0x91, 0x88, 0x7f,
  0x60, 0x67, 0x5c, 0x70, 0x8e, 0x9a, 0x8c, 0x6a, 0x80, 0x91, 0x97, 0x90,
  0x4c, 0x4d, 0xa1, 0xba, 0x5a, 0xa2, 0x8f, 0xae, 0x8f, 0x90, 0x83, 0x89,
  0x5e, 0x7d, 0x48, 0xb3, 0x4e, 0x75, 0x95, 0x80, 0x5f, 0x70, 0x52, 0xa3,
  0x94, 0x7a, 0x94, 0x70, 0x86, 0x7f, 0x5c, 0x88, 0x6e, 0x7e, 0x8a, 0x86,
  0x82, 0x7d, 0x7e, 0x79, 0x7f, 0x87, 0x78, 0x89, 0x74, 0x72, 0x5e, 0xbc,
  0x6a, 0x93, 0x7a, 0x6f, 0x44, 0x97, 0x4f, 0xaf, 0x58, 0x70, 0x7b, 0x7b,
  0x7e, 0x68, 0x76, 0x7b, 0x6c, 0x7b, 0x6e, 0x89, 0x84, 0x85, 0x5e, 0x7a,
  0x6c, 0x66, 0x7d, 0x6b, 0x8a, 0x66, 0x7b, 0x86, 0x42, 0x7f, 0x83, 0x8b,
  0x66, 0x86, 0x76, 0x71, 0x77, 0x89, 0xa0, 0x84, 0x6f, 0x7d, 0xa7, 0x9c,
  0x75, 0x3d, 0x92, 0x8e, 0x66, 0x87, 0x80, 0x7a, 0x4c, 0x7b, 0x7f, 0x70,
  0x89, 0x93, 0xb8, 0xbc, 0xa0, 0x4f, 0x72, 0x7e, 0x84, 0x76, 0x89, 0x86,
  0x45, 0x50, 0x70, 0xba, 0x84, 0x7f, 0x6d, 0x96, 0x96, 0x70, 0x63, 0xb2,
  0x8d, 0xb3, 0x6e, 0x64, 0x76, 0x74, 0x6d, 0x94, 0x8b, 0x6f, 0x7c, 0x75,
  0x70, 0xa6, 0x67, 0x56, 0x77, 0x8c, 0x6b, 0x7e, 0x72, 0x8f, 0x98, 0x41,
  0x74, 0x69, 0xa0, 0xae, 0x64, 0x94, 0xb6, 0xa6, 0x62, 0x66, 0x5b, 0xac,
  0x92, 0x4d, 0x95, 0x88, 0x60, 0x5c, 0x75, 0xa2, 0x45, 0x83, 0x8b, 0x85,
  0x42, 0x59, 0x56, 0xb2, 0x7a, 0x87, 0x85, 0x65, 0x7b, 0x7e, 0x50, 0x96,
  0x85, 0x75, 0x77, 0x7d, 0x66, 0x6a, 0x7d, 0x9f, 0xa7, 0x7a, 0x72, 0x6a,
  0x78, 0x8b, 0x5c, 0xb1, 0x78, 0x9c, 0x7c, 0x7f, 0x6c, 0x98, 0x59, 0xb4,
  0x8d, 0x95, 0x7d, 0x6e, 0x98, 0x9f, 0x81, 0x8f, 0xa5, 0x4a, 0x64, 0x94,
  0x80, 0x9d, 0xa1, 0x8d, 0x7c, 0x69, 0x6c, 0x95, 0x5a, 0x9b, 0x8a, 0x5d,
  0x88, 0x7a, 0x8a, 0x5b, 0x86, 0x6f, 0x8b, 0x9c, 0x64, 0x7e, 0x85, 0x6c,
  0x6c, 0x7f, 0x83, 0x92, 0x60, 0x42, 0x76, 0x98, 0x55, 0x7e, 0x6b, 0xb3,
  0x99, 0x78, 0x64, 0x98, 0x6f, 0x7a, 0x9a, 0x89, 0x52, 0x6d, 0x5a, 0x8f,
  0x61, 0x8b, 0x66, 0x6f, 0x77, 0x6d, 0x6d, 0xc0, 0x8d, 0x97, 0x93, 0x7c,
  0x91, 0x8e, 0x7a, 0xb2, 0xa9, 0x9d, 0x64, 0x7d, 0x44, 0x86, 0x8c, 0x99,
  0x6c, 0x6a, 0x7f, 0x7c, 0x57, 0xb6, 0x7f, 0x5e, 0x6d, 0x68, 0x7c, 0x68,
  0x79, 0xa2, 0x67, 0x99, 0x93, 0x62, 0x6b, 0x71, 0x7a, 0x8e, 0x9a, 0xa7,
  0x47, 0x7c, 0x80, 0xba, 0x94, 0x85, 0x8c, 0x82, 0x50, 0xb2, 0x8a, 0xbf,
  0x77, 0x65, 0x89, 0x69, 0x77, 0x5f, 0x86, 0x92, 0x42, 0x78, 0x7d, 0x86,
  0x7a, 0x60, 0x8f, 0x9d, 0x5a, 0x79, 0x8d, 0xa5, 0x68, 0x5e, 0x6b, 0xac,
  0x49, 0x78, 0x59, 0x7a, 0x7a, 0xa5, 0x47, 0x78, 0x89, 0x72, 0x79, 0x88,
  0x60, 0x77, 0x68, 0x9c, 0x50, 0x73, 0x87, 0x86, 0x4d, 0x5f, 0x6e, 0xa1,
  0x71, 0x8e, 0x5a, 0x5c, 0x83, 0x51, 0x78, 0x8d, 0x99, 0x46, 0x80, 0x6d,
  0x6a, 0x87, 0x68, 0x99, 0x7a, 0x57, 0x5b, 0x82, 0x5c, 0x81, 0x7b, 0x59,
  0x5c, 0x81, 0x86, 0x86, 0x76, 0x5f, 0x83, 0x6c, 0x4f, 0x3a, 0x6b, 0x9d,
  0x69, 0x46, 0x82, 0xbb, 0xa5, 0x40, 0x93, 0x8d, 0x8c, 0x68, 0x83, 0x9c,
  0x76, 0x78, 0x55, 0xa3, 0x74, 0x58, 0x8d, 0x6e, 0x70, 0x87, 0x78, 0xab,
  0x93, 0xaa, 0x5d, 0x66, 0x77, 0x89, 0x68, 0xa8, 0x98, 0x82, 0x60, 0x71,
  0x92, 0x60, 0x66, 0x6f, 0x83, 0x7d, 0x69, 0x6e, 0x97, 0xbf, 0x8c, 0x72,
  0x8c, 0x77, 0x7c, 0x7c, 0x63, 0x7c, 0x7f, 0x93, 0x89, 0x63, 0x5d, 0x52,
  0x54, 0x6a, 0x9c, 0x9c, 0x72, 0x76, 0x88, 0x99, 0x82, 0x95, 0x7a, 0x69,
  0x5f, 0x92, 0x79, 0xb2, 0x69, 0x76, 0x9b, 0x72, 0x95, 0x5e, 0x5c, 0x92,
  0x7b, 0x55, 0xa0, 0x84, 0x70, 0x4d, 0x6b, 0x8d, 0x62, 0x87, 0xa5, 0x70,
  0x81, 0xb3, 0x7c, 0x95, 0x9f, 0x81, 0x5b, 0x6b, 0x8a, 0x72, 0x79, 0xa7,
  0x6e, 0x74, 0x65, 0x86, 0x81, 0x81, 0x9a, 0xab, 0x6d, 0xa5, 0x93, 0x7b,
  0x75, 0x76, 0x88, 0x8f, 0x8a, 0xa5, 0x5f, 0x94, 0x6b, 0x97, 0x6f, 0x7b,
  0x86, 0x73, 0x7b, 0x8c, 0x83, 0x5f, 0x53, 0x98, 0x4c, 0x73, 0x6e, 0x90,
  0x64, 0x86, 0x9e, 0xa6, 0x97, 0x5b, 0x76, 0x7f, 0x80, 0x9f, 0xa0, 0x85,
  0x9b, 0x57, 0x9b, 0x7a, 0x6e, 0x8b, 0x73, 0x86, 0x5f, 0x71, 0x5f, 0xc6,
  0x6b, 0x7c, 0x88, 0x8b, 0x57, 0x91, 0x60, 0x7f, 0x5a, 0x63, 0x97, 0x65,
  0x7a, 0x63, 0x68, 0x9a, 0x79, 0xa7, 0x80, 0x5e, 0x89, 0x59, 0x60, 0x86,
  0x92, 0x7d, 0x7f, 0x91, 0x86, 0x73, 0x4a, 0xb2, 0x82, 0x9d, 0x77, 0x66,
  0x81, 0x79, 0x8e, 0x70, 0x7b, 0x70, 0x75, 0x80, 0x51, 0xbe, 0x6f, 0x80,
  0x76, 0x7d, 0xa2, 0x68, 0x5c, 0x78, 0xb6, 0xc2, 0x65, 0x55, 0x70, 0x8d,
  0x8a, 0x7a, 0x93, 0x83, 0x71, 0x87, 0x7b, 0x7f, 0x64, 0x92, 0x96, 0x7e,
  0x64, 0x55, 0x60, 0xa1, 0x50, 0x7e, 0x9e, 0x5c, 0x69, 0x5e, 0x76, 0xae,
  0x93, 0x70, 0x82, 0x77, 0x6d, 0x82, 0x81, 0x9b, 0x78, 0xa7, 0x83, 0x91,
  0x73, 0x67, 0x7b, 0x8c, 0x90, 0x77, 0x62, 0x51, 0x5e, 0x58, 0x6e, 0x75,
  0x5b, 0x8d, 0x6f, 0x67, 0x7c, 0xa3, 0x65, 0x7b, 0x90, 0x6a, 0x87, 0x78,
  0x79, 0x6f, 0x71, 0x82, 0x94, 0x54, 0x54, 0x77, 0x95, 0x69, 0x81, 0x98,
  0xa7, 0x9a, 0x77, 0x90, 0x5b, 0x5f, 0x82, 0x82, 0x76, 0x68, 0x63, 0x6d,
  0x70, 0xb3, 0x75, 0x75, 0x73, 0x71, 0x60, 0x9b, 0x84, 0x78, 0x89, 0x79,
  0x94, 0x63, 0x5e, 0x9f, 0x8b, 0x96, 0x6b, 0xb4, 0x9a, 0x70, 0x6d, 0xa7,
  0x57, 0x90, 0x61, 0x78, 0x87, 0x71, 0x57, 0xa1, 0x7a, 0x98, 0x76, 0x85,
  0x4a, 0x49, 0x62, 0x97, 0x7a, 0xb7, 0x63, 0x71, 0x71, 0x7a, 0x6a, 0x83,
  0xb3, 0x6a, 0x61, 0x73, 0x57, 0x9f, 0x8b, 0x7f, 0x6c, 0x64, 0x53, 0x70,
  0x8c, 0x99, 0x76, 0x89, 0x85, 0x72, 0x59, 0x7a, 0x73, 0x6d, 0xb5, 0x8a,
  0x78, 0x7d, 0x59, 0xb0, 0x7d, 0xb6, 0xac, 0x65, 0x72, 0x99, 0x7a, 0x94,
  0x77, 0xa2, 0xb6, 0x64, 0x6f, 0x7d, 0x62, 0x98, 0x39, 0x6f, 0xba, 0x90,
  0x87, 0x90, 0x8a, 0xa9, 0x83, 0x7d, 0x7b, 0x75, 0x63, 0x91, 0xa0, 0x92,
  0x84, 0x73, 0x76, 0x8e, 0x8e, 0xa6, 0x5c, 0x9a, 0x82, 0x7a, 0x90, 0x7a,
  0x61, 0xa3, 0xa3, 0xad, 0x5f, 0x70, 0x61, 0x9d, 0x56, 0x6b, 0x8c, 0x88,
  0x77, 0x6a, 0x73, 0x8b, 0x78, 0x70, 0x87, 0x7e, 0x68, 0x63, 0x6b, 0x92,
  0x8a, 0xa5, 0x71, 0x8f, 0x47, 0x75, 0x6f, 0x67, 0x7c, 0x8e, 0x98, 0x9d,
  0x91, 0x8f, 0x84, 0xa0, 0x8c, 0x71, 0x77, 0x70, 0x8e, 0x6c, 0x75, 0xbd,
  0x61, 0xa5, 0x8b, 0x88, 0x84, 0x74, 0x4c, 0x90, 0x6a, 0x8b, 0xa9, 0x85,
  0x87, 0x83, 0x73, 0x98, 0x75, 0x63, 0x92, 0xaf, 0x63, 0x5e, 0x6b, 0xad,
  0x77, 0x7b, 0x71, 0x6d, 0x4c, 0x84, 0x69, 0x99, 0x86, 0x71, 0x62, 0x7a,
  0x7f, 0x74, 0x78, 0x7b, 0x87, 0x9d, 0x5d, 0x63, 0x66, 0x9c, 0x76, 0x80,
  0x75, 0x8b, 0x6a, 0x7e, 0x84, 0x8e, 0x6b, 0x88, 0xa9, 0x8e, 0x44, 0x78,
  0x63, 0x79, 0xb6, 0x74, 0x6c, 0x49, 0x4d, 0x9e, 0x93, 0x94, 0x92, 0x82,
  0x5d, 0x6f, 0x5f, 0x8e, 0x51, 0x9d, 0xa0, 0x63, 0x61, 0x95, 0x85, 0x94,
  0x54, 0x92, 0x88, 0x6e, 0x81, 0x67, 0x58, 0x86, 0x98, 0x89, 0x9e, 0x79,
  0x5e, 0x6a, 0x6c, 0x9b, 0x5b, 0x6e, 0x7e, 0x9b, 0x6b, 0x87, 0x65, 0x7e,
  0x67, 0x9e, 0x92, 0x67, 0xa2, 0x82, 0x92, 0x8f, 0x72, 0x83, 0x8a, 0x85,
  0x5c, 0x7f, 0x71, 0x78, 0x4e, 0x50, 0x9c, 0x9a, 0x6b, 0x86, 0x7f, 0x90,
  0x72, 0x6d, 0x86, 0x69, 0x66, 0x83, 0x88, 0x6e, 0x70, 0xa1, 0x74, 0x72,
  0x85, 0x79, 0x83, 0x71, 0x78, 0x70, 0x60, 0x77, 0x65, 0x63, 0x90, 0x86,
  0x5f, 0x5b, 0x70, 0x8e, 0x64, 0x68, 0x6c, 0x83, 0x84, 0x4d, 0x68, 0x83,
  0x73, 0x89, 0xae, 0x84, 0x6d, 0x5e, 0x48, 0xa0, 0x67, 0x61, 0x54, 0x9a,
  0x93, 0x7c, 0x7b, 0x92, 0x77, 0x7a, 0x7f, 0x71, 0x47, 0x53, 0x68, 0xc2,
  0x7e, 0x8d, 0x7c, 0x6d, 0xa6, 0x5a, 0x60, 0x88, 0x76, 0x64, 0x5f, 0x5e,
  0x5d, 0x8d, 0x80, 0x79, 0x9f, 0x73, 0x61, 0x6a, 0x72, 0x7b, 0x8d, 0x5f,
  0x7f, 0xb5, 0x54, 0x7b, 0x5c, 0x80, 0xc4, 0x65, 0x7d, 0x86, 0x80, 0x9a,
  0x51, 0x97, 0x8d, 0x8f, 0x67, 0x4c, 0x73, 0x94, 0x70, 0x93, 0xaf, 0x7f,
  0x80, 0x66, 0x88, 0x6d, 0xa4, 0x99, 0x92, 0x80, 0x64, 0x92, 0x5b, 0x7b,
  0x8d, 0x89, 0x86, 0x86, 0x80, 0xaa, 0x71, 0xa3, 0x73, 0xa3, 0x86, 0x61,
  0x72, 0x50, 0xa6, 0x8e, 0x83, 0x7d, 0x6b, 0x89, 0x7d, 0x77, 0x53, 0x94,
  0x7b, 0x8b, 0x6d, 0x85, 0x7d, 0x8b, 0x7e, 0x72, 0x8d, 0x66, 0x9a, 0x70,
  0x64, 0x6d, 0x85, 0x8d, 0x7c, 0x82, 0x79, 0x66, 0x67, 0x80, 0x8a, 0x7e,
  0x8d, 0x51, 0x51, 0x95, 0x67, 0x8d, 0x79, 0x6b, 0x96, 0x61, 0x76, 0xaa,
  0x75, 0x4e, 0xa1, 0x9b, 0x88, 0x39, 0x72, 0x4e, 0x5a, 0x8e, 0x95, 0x8b,
  0x52, 0x76, 0x54, 0x75, 0x5a, 0x67, 0xb4, 0x82, 0x8e, 0xa0, 0x70, 0x9a,
  0x6d, 0x85, 0x80, 0x97, 0x84, 0x76, 0x46, 0x9c, 0x76, 0x77, 0xad, 0x3c,
  0x7f, 0x6a, 0x58, 0x70, 0x80, 0x7a, 0x65, 0xa9, 0x67, 0x85, 0x70, 0xa9,
  0x8f, 0x7b, 0x76, 0x64, 0xa7, 0x88, 0x5e, 0x73, 0x8f, 0x83, 0x6b, 0x68,
  0x85, 0x8f, 0x69, 0x46, 0x97, 0x9c, 0xa7, 0x6f, 0x74, 0x8f, 0xa6, 0xb0,
  0x65, 0x63, 0x55, 0x69, 0x6b, 0xa3, 0x88, 0x6f, 0x5d, 0x52, 0x8c, 0x76,
  0x72, 0x82, 0xa3, 0x6e, 0x7f, 0x9e, 0x9e, 0xab, 0x79, 0x90, 0xa9, 0x6c,
